#version: 0.2 - Trained by `huggingface/tokenizers`
Ġ t
Ġ a
h e
i n
e r
Ġt he
o n
Ġ s
r e
Ġ w
e n
o r
a t
Ġ c
e d
Ġ o
a n
Ġ f
i t
Ġ b
e s
i s
Ġ p
in g
a r
Ġt o
n d
Ġ in
a l
o u
Ġ h
Ġo f
a s
Ġ m
Ġa nd
Ġ d
i c
i l
o m
i on
l e
i d
Ġt h
en t
a y
Ġ re
Ġ l
Ġ n
r o
s t
Ġ g
v e
Ġb e
u t
Ġ e
a d
Ġ S
a c
Ġ on
Ġf or
Ġ C
o l
a m
o t
e t
u r
e l
Ġ he
i g
Ġ M
Ġs t
er s
i r
e c
i m
il l
o w
l y
Ġs a
' s
Ġ is
Ġ A
t er
Ġth at
u s
Ġsa id
v er
it h
Ġa t
T he
at ion
u n
Ġw as
Ġw ith
Ġw h
Ġ B
0 0
c h
Ġ it
c e
Ġ y
l d
Ġ P
Ġa n
Ġ 1
Ġ r
Ġa s
Ġa l
o s
t h
e ar
t s
he r
Ġ I
e m
u l
r i
Ġc on
es t
Ġ D
o re
Ġp ro
Ġc om
Ġ R
Ġ T
an d
a g
ig h
a k
r om
o p
Ġ 2
a in
a ve
at e
Ġ W
Ġ H
i f
u p
Ġh is
Ġ F
Ġa re
e w
c t
m ent
Ġf rom
ou r
Ġ J
Ġ L
re s
it y
ou ld
Ġ G
Ġb y
al l
Ġw ill
Ġc h
Ġ N
as t
ar t
Ġ v
Ġh as
es s
o d
Ġh ave
Ġ le
a p
Ġs h
Ġp l
e e
Ã ¢
or t
1 5
Ġe x
2 5
ar d
is t
ou n
en d
o c
i ve
1 9
1 4
i v
1 3
1 7
1 6
1 8
2 4
2 3
2 8
u m
2 6
2 7
2 9
i es
q u
a b
1 0
u d
Ġd e
2 0
Ġn ot
u st
d ay
ou t
â Ĥ
âĤ ¬
Ġ E
igh t
, "
g h
ic e
Ġy ear
Ġg o
an t
Ġ j
ac k
om e
Ġ or
r ou
Ġs e
ec t
Ġs p
Ġ k
i al
Ġwh o
Ġof f
s e
o st
Ġa b
a re
Ġt r
p p
el l
Ġh ad
Ġw he
f f
Ġ -
ic h
o k
er e
g e
Ġcom p
Ġw or
Ġo ut
Ġ K
Ġth is
Ġthe ir
Ġ U
Ġthe y
Ġb ut
Ġw ere
r a
Ġa g
u re
Ġ (
w o
u b
on g
Ġ up
am e
i re
f ter
ĠS t
Ġa d
i e
t her
Ġn e
u nd
Ġ "
in e
Ġp er
an s
i p
u c
Ġal l
Ġw ould
Ġbe en
oun t
s o
Ġon e
re e
Ġc l
i a
Ġre s
b er
Ġt wo
H e
Ġw e
u e
id e
Ġ O
on e
im e
ion s
p ort
Ġa c
n ing
Ġm ore
Ġ un
Ġin c
âĤ¬ â
ar k
Ġd o
ĠC h
Ġab out
Ġf ir
Ġ2 00
Ġ $
at ed
9 9
Ġit s
on d
Ġa fter
r y
ay s
i k
or d
3 0
m er
ak e
' t
Ġc an
I t
Ġin t
v en
Ġex p
Ġcon t
Ġm an
Ġal so
Ġwh ich
ou s
ar y
ow n
5 0
or s
Ġo ver
ac t
Ġhe r
Ġm e
Ġt e
Ġn ew
ent s
Ġfir st
ag e
us e
al ly
Ġy ou
a il
os e
ac h
an ce
a v
I n
ac e
ic k
Ġs c
en ce
as s
ol d
Ġwhe n
Ġs he
Ġf in
Ġre c
as e
ou nd
e p
he d
4 0
il e
o ol
Ġ im
er v
ation s
i an
ic t
Ġwor k
. "
Ġ en
ig n
Ġ V
6 0
Ġth an
Ġp e
ee k
9 8
w n
Ġpl ay
Ġ 3
l l
Ġl ast
Ġa pp
Ġo ther
il d
Ġd is
m an
re n
l o
i z
7 0
Ġs ec
4 8
am p
Ġ ro
4 5
Ġs o
Ħ ¢
âĤ¬â Ħ¢
o in
7 8
ver y
Ġ qu
6 8
7 5
b le
op le
3 8
B ut
Ġo p
r u
it t
ill ion
is h
Ġp ol
or m
Ġbe c
6 5
Ġp art
it ion
ad e
o g
it e
Ġt ime
Ġa r
ou gh
id ent
Ġyear s
3 5
9 0
res s
Ġint o
Ġth ree
ch ool
u ch
en s
Ġpe ople
a w
1 1
Ġ us
9 5
Ġb o
Ġcom m
Ġthe re
Ġs ome
f t
n e
Ġac c
Ġp re
an g
Ġp r
ab le
ik e
Ġl o
Ġc ould
ur n
Ġg et
Ġw eek
2 2
is s
Ġat t
Ġthe m
in d
ul t
oc k
as on
at es
Ġh im
T h
at er
4 4
o b
l ic
ing s
ic al
6 7
an c
Ġj ust
Ġc o
ct ion
6 3
Ġag ain
Ġin v
9 7
t on
ve l
or y
00 0
Ġr un
Ġn o
4 3
h n
Ġoff ic
4 7
v ed
l ud
1 2
Ġd ec
Ġle ad
a use
ation al
Ġan y
Ġk n
rou gh
ol l
s on
9 3
Ġf our
i x
Ġte am
Ġin ter
el y
Ġb ack
i ed
f er
Ġad d
u es
ar g
f orm
an k
al s
ro w
ĠI n
an y
f ore
c ent
in k
re at
er t
a ir
Ġ 5
ur ing
Ġc ount
6 6
Ġon ly
on s
Ġe ar
8 0
Ġinc lud
Ġwh at
Ġs up
Ġ und
Ġm on
g r
Ġ if
Ġd id
Ġsec ond
Ġm illion
p t
rou nd
W e
Ġ Y
Ġcon s
ĠF r
l es
ver n
ot her
Ġre p
as h
Ġw in
Ġbe t
i ous
it ies
Ġa m
en c
7 3
ĠU n
as ed
Ġbe fore
Ġs chool
Ġc r
Ġ- -
i el
Ġb u
Ġc all
s s
it s
l ed
8 5
al k
p r
Ġst ud
Ġd own
in ce
Ġre t
o od
4 6
Ġl ike
l p
Ġg r
Ġs erv
Ġund er
x t
2 1
Ġper cent
Ġin d
9 6
ĠT h
os s
Ġh ome
i b
on t
Ġbec ause
at h
Ġ1 0
l and
ap p
Ġp res
7 7
Ġst ate
ot h
Ġre g
u g
it ed
Ġth rough
Ġagain st
w e
at ing
3 3
Ġm em
Ġf e
o v
Ġim p
Ġ 4
h ip
Ġmon th
re d
Ġre m
Ġas s
Ġm in
t ing
Ġhe lp
ub lic
w ard
Ġn ow
Ġb us
Ġs ay
8 8
Ġne ed
is e
Ġm ost
5 5
i er
t e
Ġ end
rou p
Ġst art
Ġc ar
iel d
Ġb l
Ġg ame
vern ment
er al
Ġse ason
Ġre port
Ġ Ã¢
om m
9 4
er ed
v ent
il y
Ġ The
le ct
g an
ĠM ar
Ġm ade
ur s
ist r
in ess
ĠN ew
ak ing
Ġm ake
n er
Ġde f
Ġh ow
Ġwh ile
a h
ic es
Ġc ent
Ġs ays
e y
Ġwhe re
Ġd es
oun c
ir d
w ay
Ġbe ing
y st
or k
Ġcomp any
Ġre l
ect ed
em ent
Ġgo od
Ġs et
if e
Ġe m
ĠJ o
Ġ 6
Ġsh ould
Ġb r
Ġh igh
Ġst r
Ġo wn
Ġo ur
Ġm ark
Ġsh ow
ro p
Ġpl an
Ġs ur
a u
ter n
u al
Ġlo ok
a x
Ġoffic ial
oin t
Ġme et
y ear
is ion
Ġd ay
Ġpro v
c ess
n ed
Ġa ct
Ġt ri
ee p
Ġne xt
at t
b ers
ers on
Ġd uring
vel op
Ġm y
Ġw ant
Ġpro p
7 6
Ġl ong
Ġc our
â Ģ
ou se
Ġf am
Ġw ell
ment s
am es
Ġman y
Ġe ven
Ġm ay
d u
or ts
Ġgo vernment
ĠM ay
Ġs ix
Ġs ince
he s
Ġch ild
at ur
Ġg u
o ve
Ġe very
Ġf ive
i o
ĠB r
Ġt ake
ĠA r
Ġbus iness
Ġinv est
mer ic
Ġthe n
Ġg roup
et s
Ġpol ice
le y
gr am
A nd
4 9
ou th
f ul
Ġth ose
8 3
Ġd on
id ay
Ġan n
Ġy our
e b
Ġw ay
ire ct
Ġf l
he n
uc k
Ġkn ow
it al
ĠC ount
Ġst ill
ow er
e ver
Ġl aw
Ġbe l
iv ers
m s
Ġ ent
Ġth ink
o y
Ġop en
d uc
Ġl oc
Ġin s
Ġs m
ĠS h
Ġgo ing
at ch
ĠA n
a j
i ew
ul l
at ive
is ter
Â ¢
Ġto ld
Ġc ity
3 6
Ġ 7
n es
âĤ¬â Ģ
an ge
ad y
iv es
5 8
an ts
ri v
3 9
Ġs l
3 7
at her
ĠM on
ic s
Ġs er
il ity
Å ĵ
Ġpro gram
Ġf ound
ĠI nd
t y
I f
Ġs uch
o ot
Ġh and
ĠCount y
Ġp h
ord ing
Ġm uch
ĠA meric
a z
or th
are d
e x
Ġn ear
we en
ĠA l
The y
Ġde velop
un ity
Ġde p
ec ut
l ing
ĠFr iday
c er
Ġinc re
en e
is ts
Ġp ublic
Ġhe ad
Ġc ol
i or
g ed
Ġdis c
Ġs ee
p l
in es
Ġth ird
ĠJo hn
Ġp ut
ot t
Ġe ff
g et
ar s
op e
Ġbet ween
Ġs ign
Ġn um
Ġwor ld
al e
y s
Ġis s
Ġ very
iss ion
Ġv ot
Ġle ft
r al
i ble
ar ter
Ã ĥ
F or
Ġ 8
r ic
ĠL e
us h
âĤ¬ Â
6 4
p h
or n
m ed
al th
ri b
u res
Ġr ight
Ġan other
os ed
Ġw on
7 4
un e
Ġman ag
Ġd if
ul ar
Ġd irect
us s
ĠC l
y ing
Ġc ap
el f
Ġinclud ing
atur day
Ġres p
is ed
b all
Th is
in s
Ġs ub
Ġb ig
in a
âĤ¬Â Ŀ
. ,
Ġ2 0
one y
Ġre ce
et h
a ff
im es
oll ow
ol og
Ġsup port
6 9
Ġn ight
j ect
Ġdo es
art ment
m in
yst em
Ġall ow
Ġb oth
Ġ1 99
Ġm ed
7 9
Ġcont in
Ġ200 5
Ġd et
A n
3 4
Ġw om
oc i
A s
Ġc are
Ġto p
ues day
Ġle g
i am
ĠS aturday
g er
e an
le t
lo y
Ġc ur
if ic
O n
ie f
Ġa round
Ġbu ild
Ġsp ec
ut h
âĤ¬âĢ Ŀ
ĠT uesday
Ġp ay
Ġb ro
S he
ĠC omm
Ġc ost
are n
c on
Ġo pp
Ġt er
Ġofficial s
Ġg ot
ire d
ore d
Ġto day
ain ed
ĠR e
Ġop er
Ġp ass
Ġf r
v es
ĠMon day
ĠS p
en n
Ġcon f
Ġg en
urs day
ar m
pr il
Ġmark et
ĠR o
Ġ1 9
ro ss
re t
Ġv ict
Ġin form
Ġs ing
Ġfor mer
er ing
c c
ren t
Ġin ning
Ġv is
Ġw r
Ġth ough
s h
ĠTh ursday
Ġf ollow
ed nes
ur ch
ru g
en se
ednes day
5 3
Ġin st
Ġm il
Ġrec ent
Ġfam ily
Ġre st
Ġh it
i ver
Ġe ach
re w
Ġmem bers
ut ion
ĠM c
8 7
Ġto ok
Ġl ot
Ġf ac
Ġcount ry
Ġex t
5 7
od y
' re
Ġs ame
Ġas k
Ġpl ace
aj or
Ġm oney
Ġp ast
ĠW ednesday
ĠS und
5 6
Ġf und
is hed
Ġc ame
Ġstud ents
ne y
al f
8 6
c k
Ġad v
Ġre qu
ear ch
Ġc amp
Ġcom e
ĠA pril
Ġj ob
c om
ĠM in
Ġpro ble
Ġchild ren
Ġare a
Ġt ax
Ġs ystem
Ġapp ro
il le
d er
at s
Ġp erson
5 4
Ġg row
ar l
W h
Ġthe se
Ġe v
Ġ use
Ġbel ie
ĠC ent
Ġ1 2
ec ts
al es
ĠU S
ur y
Ġse ver
Ġb as
ĠSund ay
Ġrec ord
Ġd em
on y
ĠC ol
Ġhe re
Ġ1 1
Ġus ed
8 4
b y
âĢ ļ
r act
Ġk ill
k e
ĠC o
os p
ĠB l
Ġ ed
ĠS c
enc y
Ġt urn
Ġtr ans
Ġc he
p loy
c es
Ġl ife
Ġd ays
Ġf ew
ĠE n
Ġd ou
Ġfin al
Ġ 9
ounc il
Ġb est
Ġ ve
u ally
au gh
Ġw ar
The re
iv ed
av ing
o ver
Ġt ak
Ġnew s
A t
ain ing
ivers ity
p le
5 9
8 9
ri end
Ġ Z
Ġh app
ĠJ une
Ġto o
t il
ra q
ĠUn ited
Ġp oss
ut e
Ġs om
Ġw ent
is on
Ġf il
2 00
u ff
le ar
Ġadd ed
Ġinform ation
Ġk eep
itt le
iv ing
Ġbo ard
oin ts
Ġt alk
Ġm ajor
Ġret urn
istr ict
Ġa v
Ġst and
us ed
Ġo b
Ġag o
Ġ200 4
Ġre le
ec hn
Ġfin d
ar ge
a ul
Th at
Ġch arg
A l
or p
ir l
H ow
Ġnum ber
Ġp rom
id ed
es ter
Ġp os
Ġcall ed
Ġp it
Ġpro f
Ġloc al
p er
ĠD e
con om
Ġ1 5
Ġexp ected
Ġsp ok
Ġpres ident
Ġ est
ur ity
ion al
i ence
c hed
Ġmonth s
ri es
Ġmeet ing
it ing
al if
Ġear ly
Ġp oints
ĠI s
Ġh om
Ġre al
ĠI raq
Ġun til
Â ¬
Ġcomp et
Ġhe ld
a im
âĢļ Â¬
c o
Ġde al
Ġcour t
igh ts
uth or
ĠM r
end ing
Ġd el
Ġc ase
Ġl ater
ure d
g in
A fter
n ess
g y
t al
Ġh ard
v ers
re st
S t
l in
i ent
fer ence
Ġ 30
v iew
Ġst at
ĠS chool
Ġin f
) .
Ġacc ording
Ġsever al
b r
Ġco ach
Ġb illion
Ġg reat
Ġg ames
Ġbe h
Ġe vent
Ġdid n
Ġbet ter
l ess
um p
Ġsh ot
Ġsp e
ĠC ity
Ġa way
ĠH e
em ber
Ġs w
u ed
e es
ag ue
i pp
ce pt
in c
Ġe lect
Ġb re
Ġpro t
Ġt est
1 00
Ġexp er
el s
oun g
Ġem ploy
Ġcur rent
at ors
ĠS outh
iz ed
end ed
4 2
Ġr a
Ġm ain
Ġne ver
re et
Ġor gan
ĠSt ate
res ident
C h
ro wn
Ġs ent
i um
l ine
o ff
Ġm ove
Ġpol it
et y
4 1
ĠD ep
Ġ200 3
Ġl ittle
Ġs uc
Ġd r
an n
in al
Ġm ight
is m
Ġd ri
ain s
Ġrun s
le ction
ester day
9 1
re ady
Ġp at
Ġh our
Ġserv ice
9 2
Ġpart ic
f or
at ic
Ġp ost
Ġin j
ep t
Ġe conom
at or
Ġw ater
Ġcon st
ing ton
Ġw alk
ard s
Ġs im
Ġf ore
Ġf ield
Ġre f
Ġse ven
ĠA ss
ĠT r
g est
Ġsm all
u rop
Ġl and
Ġle ast
Ġwith out
Ġhe alth
Ġh alf
ro l
an e
Ġcomm unity
ĠAmeric an
Ġ '
Ġo ld
Ġe l
ĠP h
' ve
Ġf act
Ġh old
Ġ Q
ĠN orth
id es
Ġinvest ig
6 2
0 5
is ing
Ġm en
3 2
Ġpro duc
ĠW est
s ide
t o
t ed
at ely
Ġre ally
Ġy esterday
Ġal ready
Ġatt ack
Ġcons id
b e
ol ice
Ġag re
Ġl ist
Ġf ire
Ġcon cer
3 1
O N
Ġm ust
ag es
7 2
re en
6 1
w ays
Ġg ive
Ġsh are
Ġoff ice
ĠCh r
Ġinter est
Ġs um
h am
ĠP ark
Ġl ess
Ġplay ers
Ġqu arter
c her
Ġl ine
Ġde ath
i ans
Ġ1 8
) ,
a i
Ġb all
7 1
Ġreport ed
Ġsh ort
id d
ĠA d
ĠUn iversity
Ġch amp
Ġqu est
Ġc ut
et er
Ġim port
e al
re m
a id
Ġcl aim
v ious
as es
Ġf riend
Ġa ir
l or
Ġp oint
Ġcl ass
at ter
Ġind ust
Ġp ower
on es
en ed
25 0
Ġpro du
Ġt echn
Ġa ff
ro ve
Ġinv ol
ĠC on
ial ly
olog y
ĠE urop
Ġtr ad
le ge
Ġper form
ecut ive
Ġp ar
Ġl ik
Ġb ase
Ġdirect or
ĠN ational
ect ion
Ġf ar
w ork
ut es
15 0
A N
th ing
ĠH igh
Ġf ree
ĠP r
Ġmil it
Ġs en
ĠA ust
Ġdif fer
Ġpro ject
ĠC ar
a f
Ġp op
Ġpl ans
ur g
Ġle t
' m
osp ital
Ġs k
ĠY ork
us p
8 2
id ents
ed eral
om p
itt ee
Ġspec ial
Ġspok es
l er
Ġc ust
ĠMar ch
Ġwom en
iv en
Ġm or
ĠD av
Ġto wn
Ġst op
o x
Ġsuc cess
Ġhis t
oc r
an ies
Ġb ill
Ġal ong
Ġh ouse
s elf
Ġs ol
ĠP ro
Ġle vel
c ed
iz e
o on
he ad
ak es
ounc ed
Ġr ound
ert ain
Ġpro cess
id s
Ġtak en
Ġs ide
Ġl ate
ĠM ich
ĠP resident
Ġstr ong
Ġe ight
Ġserv ices
Ġ1 3
ĠG r
Ġc re
Ġs ales
Ġs it
14 0
13 0
Ġs usp
ĠDep artment
16 0
18 0
28 0
Ġm iss
Ġf all
23 0
Ġwhe ther
O ne
Ġro ad
Ġm aking
24 0
Ġam ong
How ever
Ġd ra
Ġlead ers
19 0
27 0
Ġinter n
17 0
Ġwork ing
26 0
ĠB e
29 0
Ġ &
Ġt imes
Ġf ut
ĠS en
Ġm ar
eth ing
ĠA f
Ġm et
Ġy oung
Ġp ress
if ied
Ġm ov
er r
f ield
ĠIn tern
Ġa uthor
Ġfor m
Ġab le
Ġ1 4
Ġcomp anies
en g
Ġe qu
Ġch ang
Ġl ost
ĠJ u
Ġp ick
Ġh ig
Ġsing le
Ġn ational
v ille
Ġse em
Ġser ies
Ġm od
Ġbuild ing
n ers
ĠW ill
Ġen ough
Ġf ail
am ent
Ġst ri
Ġask ed
Ġm us
Ġdiffer ent
or ld
Ã Ĥ
Ġth ings
Ġstart ed
Ġf ull
5 2
Ġar rest
8 1
r on
Ġl ed
e le
Ġn et
Ġdec ision
M r
ĠC an
Ġal le
Ġd rug
Ġcon d
ent ion
Ġsom ething
h ic
Ġ2 5
e ad
Ġcl ose
Ġsc ored
ĠEn g
Ġincre ase
W hen
Ġar t
Ġbec ome
ap an
Ġbeh ind
Ġadd ition
5 1
es p
H is
id ence
ac hed
c l
Ġcl ub
Ġp aren
Ġprop ert
Ġav ail
ĠS ch
ar ing
Ġvict ory
w are
and s
Ġpres ent
i ol
ĠA t
Ġweek s
ĠP aul
in t
Ġexp l
at ure
ĠA nd
ĠW h
Ġsec urity
Ġplay ed
Ġiss ue
Ġfour th
e g
Ġfin anc
Ġ1 6
r ing
th ough
ru ct
Ġl oss
Ġal ways
er n
Ġb ud
Ġch ief
it ions
Ġvis it
Ġr ul
t ime
Ġe as
a res
ĠSt ates
ĠB o
Ġfe el
Ġlook ing
Ġh op
her n
ĠM an
Ġv al
Ġdes ign
a el
Ġs old
o le
ĠB ar
Ġl arg
if f
ĠAust ral
Ġd ied
e or
Ġb ank
t en
le x
Ġfut ure
am ed
Ġbe gin
Ġde b
Ġdevelop ment
Ġrece ived
a un
Ġbo ok
Ġget ting
Ġst aff
Ġl ow
Ġhour s
s p
Ġle ar
Ġbe gan
ĠS ec
Ġmor ning
Ġc or
Ġf un
Ġp riv
ac ed
A P
ĠR ep
ĠCent er
e v
Ġt aking
ĠH ar
Ġcust om
st er
Ġh its
Ġh aving
Ġcont ract
y p
Ġgr ad
Ġd ist
Ġj ud
Ġann ounced
Ġed uc
ac y
Ġdoes n
e f
Ġb ene
Ġf ell
Ġapp ear
es ts
res ent
ac her
min istr
ab ly
ect ive
Ġmin utes
Ġd one
ec h
el t
ĠW orld
Ġact iv
le ment
ĠP l
Ġmem ber
ĠAss oci
t he
Ġimport ant
' ll
Y ou
Ġs ite
Ġr ace
ĠN o
ĠA ll
Ġg irl
itt ed
ĠMin ister
Ġavail able
ak er
k s
c hes
ver age
Ġpart y
r ap
s c
Ġch ange
Ġg ave
Ġinning s
Ġ1 7
o f
A ll
Ġre ad
Ġst ar
W ith
b or
Ġg iven
Ġ 50
ul ts
Ġear l
Ġv iol
Ġte le
Ġdisc uss
Ġp ark
ash ington
Ġkill ed
Ġcl os
ic ally
Ġfr ont
ĠE x
Ġcr it
m ost
in o
I N
g o
er man
Ġt it
an a
Ġf oot
our t
Ġv ol
Ġdou ble
Ġcare er
Ġc lear
Ġother s
Ġwith in
Ġd riv
Ġj oin
Ġpol ic
Ġpolit ical
ven ue
1 25
1 20
Ġm atch
ĠIn c
m y
b ased
Ġo cc
is l
Ġsay ing
o ved
Ġs ell
B I
at a
Ġg round
Ġ1 98
Ġsc hed
Ġcent er
Ġwant ed
1 10
Ġac ross
A S
a ign
Ġearl ier
A R
Ġs ug
anc es
2 25
Ġsa f
Ġbene f
1 15
ber t
1 14
1 23
ĠBr it
Ġbud get
ĠH ouse
1 16
Ġc ou
Ġres ult
it ive
ĠJ ack
iv al
1 28
1 17
Ġweek end
1 13
2 20
ĠS m
1 18
1 26
2 15
Ġm other
1 29
Ġb ar
Ġlik ely
1 27
b ack
Ġf ight
Ġmilit ary
ĠB ush
1 19
2 18
1 24
2 26
Ġo il
2 19
2 14
2 17
2 24
Ġon ce
Ġt re
Ġgrow th
2 13
2 16
2 29
Ġf ace
Ġ1 00
as ter
2 23
om in
ĠSt reet
2 28
ĠS an
Ġh um
Ġp ot
2 27
2 10
Ġop t
Ġvot e
Ġ 0
Ġf av
ĠJ apan
Ġposs ible
Ġsum mer
Ġproble ms
u it
ĠE d
Ġse en
Ġindust ry
Ġpropert y
Ġre ason
Ġan t
Ġtr ying
Ġf ederal
Ġd istrict
ess ion
Ġproble m
Ġp le
ĠC alif
ĠW ashington
or ies
Ġtr ave
is c
ions hip
Ġprov ide
Ġto tal
ir on
Ġinclud e
Ġn ine
Ġpre vious
it her
u ation
ap er
Ġpr ices
Ġbr ing
al d
et t
Ġve hic
ĠS up
u el
ĠCh ina
Ġbre ak
ĠA b
Ġst ock
id ing
ĠChr ist
Ġsen ior
Ġst ore
um b
ru ction
ĠJu ly
Ġcamp aign
al t
Ġh ost
ĠO r
ill s
Ġh ope
Ġ ide
Ġc a
om b
Ġen g
Ġt reat
ri ed
Ġmanag er
Ġcom ing
op s
ĠG o
ap e
es e
Ġteam s
Ġan al
Ġst ay
Ġlead er
Ġd iv
ag ed
ur ther
ĠD em
Ġrecent ly
Ġcount y
ent ial
l ish
Ġcontin ue
Ġn on
Ġy et
i od
Ġwom an
O R
ot s
Ġde ad
Ġh on
Ġcharg es
Ġcount ries
i et
i ers
ap s
Ġtr ack
Ġpos ition
Ġfollow ing
ĠC orp
Ġv iew
Ġoff er
Ġass ist
Ġparen ts
p ar
or ing
st and
un ic
Ġthough t
he re
Ġro om
ad a
iz ation
a ur
ĠW ar
Ġt ell
Ġw a
Ġs ure
Ġth ing
ward s
Ġhist ory
Ġbelie ve
Ġl im
Ġgen er
as k
ĠWill iam
Ġ ident
Ġn ame
ress ed
ĠC ourt
Ġsc ore
ĠJ an
Ġch all
y n
Ġl arge
he l
Ġm ot
ow s
ens ive
Ġs uff
Ġexp ect
Ġch o
ist an
Ġallow ed
Ġ2 4
al ity
âĢ ŀ
Ġcont rol
Ġ 40
Ġm id
Ġplay ing
âĢŀ Â¢
em pt
ĠG eor
Ġout side
Ġpr ice
i ber
Ġ200 2
Ġor d
Ġcomp l
ĠSt e
Ġn ation
ĠC ouncil
Ġk ey
Ġs on
Ġe ver
p ly
Ġgo al
Ġintern ational
Ġd ue
ic ult
Ġ2 1
Ġrep l
er m
Ġto ur
Ġrep resent
Ġd oll
att le
Ġdo ing
Ġcost s
Ġconcer n
Ġto get
Ġtoget her
ad es
ĠS e
ĠP al
i ents
Ġch air
Ġplay er
Ġkn own
Ġcour se
Ġnear ly
Ġus ing
A cc
Ġr is
Ġal most
Ġc oun
Ġf oc
Ġopp ort
v ing
qu e
Ġh ot
Ġst ep
Ġe lection
Ġquest ion
ut y
Ġex c
Ġneed ed
Ġfinanc ial
Ġh ospital
o or
Ġschool s
Ġgen eral
Ġres idents
Ġmus ic
Ġneed s
Ġcon v
Ġv ar
Ġtr y
ĠG u
ĠInd ian
ĠA s
itt ing
Ġne g
Ġf ood
et ro
our ces
Ġper iod
Ġso ft
Ġpr act
Ġpr ison
' '
Ġor der
re g
Ġann ual
ĠA m
ir c
Ġwork ers
rib ut
Ġspokes man
ro ll
ĠRo ad
Ġb ased
Ġstat ement
Ġk ind
Ġhig her
r un
Ġof ten
ĠV al
Ġth reat
ĠDav id
ele br
g ress
Ġa ut
ri z
Ġad m
Ġc ouncil
Ġl ive
ĠR ed
Ġf ig
Ġc red
Ġhow ever
Ġso on
Ġrele ased
ur al
w h
or ney
Ġwork ed
er y
ol f
Ġa p
Ġin it
Ġinvol ved
at ives
Ġf urther
idd le
ĠM ark
Ġr ate
r is
Ġad ministr
Ġex ecutive
ĠM ed
ak ers
Ġpartic ip
Ġpro b
s el
Ġf ather
lo od
Ġiss ues
Ġb ad
if th
Ġwh y
Ġres earch
Ġfin ished
Ġbe at
Ġa ction
im in
Ġbu y
o ok
s w
P olice
Acc ording
N o
Ġest im
Ġpriv ate
Ġb ody
Ġter r
Ġwh ose
Ġc ertain
Ġdou b
v iron
Ġfor ward
Ġch ance
Ġte acher
" .
Ġs qu
Ġcomm ission
rough t
5 00
ĠR es
Ġst ory
y m
enc es
as ing
Ġcom b
ough t
Ġst re
ul ation
Ġstud y
ĠAf ric
Ġne igh
Ġw ife
ĠMich ael
ur d
ound s
f ord
ĠM o
id ge
Ġsa w
ag o
Ġse x
Ġm om
du ct
in ed
il t
pp ed
Ġfriend s
Ġc elebr
Ġare as
med i
Ġre ached
ac es
oc ial
c ast
Ġc ents
ĠB ro
Ġvict im
ĠS erv
Ġoffic er
ĠD ay
ĠR uss
Ġd am
ab or
ĠDem ocr
Ġcomm ittee
it or
om an
Ġl aun
Ġrun ning
ĠAssoci ation
ĠE ast
N ow
ĠT ex
s ecut
ĠF or
ib ility
er ry
ĠP at
ĠLe ague
viron ment
Ġwas n
Ġimp rove
S ome
n ow
t ain
st r
Ġme an
ĠI I
b al
g ing
Ġcomp let
Ġ2 2
our n
Ġa head
Ġfir m
h ing
Ġleg isl
Ġcharg ed
Ġtechn ology
Ġst e
Ġde v
Ġfam il
ĠR ich
Ġs eek
Ġf re
ĠE l
Ġcons um
Ġtr aining
ail s
Ġser ious
Ġm oved
k i
Ġf ans
ĠG erman
Ġbec ame
ĠAn g
am s
augh ter
Ġrep orts
n oon
Ġre b
Ġres ults
ĠComm ission
Ġtit le
Ġsched ul
Ġt yp
Ġ200 1
wo od
Ġarrest ed
it er
il ities
Ġwin ning
Ġf ifth
ĠB ank
Ġe mer
L ast
st on
ĠA ir
Ġbl ock
Ġtri p
e ff
Ġw ants
it ution
Ġre n
Ġw atch
Ġcom ment
Ġdep artment
Ġdem and
Ġexper ience
Ġpre p
Ġsug gest
Ġt w
C A
Ġcom es
Ġacc ess
il ar
le te
Ġche ck
Ġemploy ees
E R
Ġc le
Ġhim self
Ġeduc ation
u le
ĠB ill
Ġresp ons
Ġgroup s
augh t
res h
end ent
S o
Ġw ind
ro om
un g
Ġproduc ts
Ġprop os
Ġeconom ic
Ġt arg
Ġme as
Ġdif f
ĠM art
ĠSm ith
i j
Ġqu ick
Ġp ain
Ġrel ations
Wh at
Ġst ra
Ġoffic ers
Ġcap ital
r an
ad ed
Ġk ids
ĠAmeric a
Ġperform ance
b ed
Ġsh oot
Ġa verage
Ġg as
Ġalle ged
Ġcou ple
ra el
Ġcon ference
ict ed
Ġc and
Ġdec ided
Ġmanag ement
en ing
Ġafter noon
ĠTex as
c he
& #
Ġturn ed
Ġco ver
ĠEurop ean
Ġl ight
Ġch ar
j ects
Ġs ect
ar a
Ġ 60
Ġm akes
ĠCh urch
Ġdiff icult
es tern
ri an
Ġen c
Ġro le
Ġinf l
Ġb it
Ġsh ares
ĠRep ublic
Ġac cept
Ġim medi
Ġb rought
ĠM or
ret ary
Ġacc ount
Ġa ud
R e
b and
Ġp ack
Ġ2 3
Ġgr and
Ġlead ing
ĠS un
Ġa ge
Ġset t
c y
Ġdes c
ĠPh il
ĠD istrict
id a
d s
Ġtr ade
ĠJack son
h old
Ġp ort
ce ed
ĠD r
Ġto urn
Ġsp ent
Ġd ata
Ġtri al
orn ia
Ġend ed
Ġfil m
Ġmed ical
ĠC up
Ġre d
ĠB rown
em p
ĠF eb
re l
Ġinter view
Ġshow ed
Ġg l
Ġany thing
Ġprom ot
Ġd en
L E
Ġar g
ren ch
Ġhelp ed
u k
iv id
Ġcomp ut
B A
i res
er gy
Ġs earch
Ġre ach
ond on
ĠInd ia
Ġpit ch
Ġnet work
Ġm atter
Ġn amed
ab ility
Ġc ases
os ing
ĠG en
ĠO ff
Ġpl ant
Ġfin ish
Ġstud ent
Ġreg ular
Ġmed ia
ur t
and er
Ġapp lic
ĠCol lege
Ġcustom ers
a ult
m e
os ition
Ġschedul ed
' d
l a
am a
ĠSen ate
Ġstra ight
n ot
i ec
j oy
Ġre v
ac ing
Ġ2 6
iv il
on a
Ġl at
Ġagre ed
Ġhe art
Ġinclud ed
Ġle ave
Ġgrad u
S T
Ġp aid
ĠW eb
Ġauthor ities
op er
f act
Ġg lo
Ġr ad
Ġfe et
w ide
ĠIntern ational
ĠA ug
is es
Ġtri ed
Ġn ec
ve y
r up
Wh ile
Ġh ous
un t
ĠR BI
ud e
Ġm ess
ĠM al
ĠCalif ornia
Ġch arge
if t
Ġdri ve
N ew
Ġatt end
Ġcompet ition
b s
M y
ĠS ept
Ġstart ing
Ġfore ign
Ġprop osed
T o
g ency
Ġl ower
Ġinvestig ation
ĠEurop e
Ġp en
ĠS y
ens ion
Ġdes p
Ġlarg est
er ve
ch ange
m en
Ġcon c
Ġcont act
Ġperson al
g es
l ished
ir st
Ġen joy
Ġatt empt
Ġpartic ular
Ġbig gest
Ġhum an
Ġsome one
Ġph ot
Ġjob s
ĠWh ite
Ġc ard
am b
ĠNew s
Ġfe at
J o
Ġlat est
ning s
Ġeff ort
Ġc row
Ġp ub
Ġm ult
ec ially
oc u
Ġwor th
Ġpolic y
R A
Ġp urch
B C
e ed
Ġc ell
Ġac qu
Ġdis p
Ġfor ce
og rap
Ġappro ved
Ġfoc us
Ġbo y
Ġopen ing
Ġsim ilar
Ġpot ential
Ġj ump
rug g
Ġconsid er
Ġst ates
17 5
Ġph one
y le
on n
ĠD ec
Ġear ned
orp or
v ision
Ġg un
ĠP olice
Ġincre ased
h ood
ĠW ood
Ġprof ess
l am
u ary
if y
Ġcol lege
Ġagre ement
ro s
Ġlaw s
Ġ esp
Ġbro ad
m ing
Ġc ash
ĠP ar
Ġcl osed
Ġbl ack
lect ed
B oth
Ġe y
Ġleg al
Ġchang es
e ared
ad d
Ġr ights
10 5
Ġrem ain
ĠIs rael
S h
27 5
Ġlo ve
Ġev ents
Ġind ivid
Ġb ott
Ġnot hing
Ġdo ct
ĠSc ott
Ġrele ase
Ġchamp ionship
Ġprob ably
Ġre view
Ġst rugg
er em
Ġmin ister
Ġtourn ament
k y
un ities
un ior
29 5
Ġ ur
Ġf ast
13 5
ĠB ay
ear s
19 5
lor ida
Ġ X
all ed
B y
Ġth row
Ġa ward
it ness
Ġm ag
ĠM us
16 5
Ġis n
av y
Ġsur pr
Ġfail ed
wh ile
Ġdesp ite
an ch
ri or
ip s
Ġreg ion
Ġre fer
ĠL a
ĠL ondon
18 5
vent h
Ġsix th
Ġe ither
15 5
26 5
og n
Ġind ic
Ġsign ific
14 5
24 5
28 5
Ġme ans
Ġtalk s
op h
Ġcand id
m p
in n
23 5
20 5
ial s
Ġen ergy
ĠJohn son
Ġs em
Ġf ill
ur ance
Ġchair man
25 5
Ġor ig
Ġrec omm
Ġanal yst
Ġv ide
Ġg iving
m on
B e
f ort
Ġterr or
Ġesp ecially
ver t
14 6
Ġtarg et
ĠD an
10 8
ĠH ol
Ġfollow ed
pl ay
op p
24 8
Ġch urch
ro y
Ġtr aff
Ġcurrent ly
Ġt ick
Ġc irc
ch ie
Ġhom es
m it
15 8
ĠCh amp
a ven
ot a
Ġcomp lete
amp le
Ġsign ed
Ġcon n
Ġdri ver
om ing
Ġl ives
Ġfav or
ist ry
Ġs outh
Ġpro secut
13 8
27 8
Ġoff ered
Ġam ount
Â £
Ġd ocu
out hern
in ation
Ġd ro
ur ning
Ġ2 7
23 8
Ġconf ir
Ġb an
ate g
25 8
17 8
29 8
20 8
ines e
ĠEng land
Ġd est
ot i
14 8
16 8
28 8
enc ed
u ge
19 8
18 8
Ġen vironment
Ġ2 8
26 8
Ġserv ed
ol ic
Ġgo als
Ġn orth
ud d
Ġcall s
Ġc oll
ĠM ill
ĠM ont
ĠS w
ĠJ ames
ĠS er
un te
ic ago
Ġro se
Ġest ab
Ġpress ure
M any
Ġide a
M ore
Ġag ency
Ġdef e
ĠL ake
ĠG roup
Ġeff orts
O ther
ĠG l
16 3
Ġbusiness es
Ġhand s
Ġ z
ĠF rench
ru ary
ing er
Ġ3 1
Ġfoot ball
Ġm ind
Ġr ates
Ġwork s
duc ed
Ġchall en
ĠVal ley
Ġl iving
Ġpass ed
Ġpro jects
ra ft
Ġconst ruction
Ġprodu ction
ord er
ĠAustral ia
Ġcon duct
ĠBrit ish
Ġf air
Ġdis app
app ed
our ce
Ġse venth
ail y
Al though
Ġsit uation
Ġf ly
Ġadd ress
ĠRe g
ĠMc C
N E
es c
Ġl ic
Ġpre d
Ġra ised
em b
Ġqu alif
ang er
ĠUn ion
Ġris k
s qu
Ġbro ther
Ġeng ine
p ro
re ad
end er
10 3
Ġent ire
Ġext ra
Ġstr uck
Ġown ers
Ġprogram s
Ġrece ive
ĠR iver
14 3
Ġins ide
ipp ed
Ġc ross
Ġd aughter
ce ment
19 3
23 3
Ġ200 0
I S
er c
15 3
13 3
18 3
Ġbu ilt
ĠJan uary
Ġhe aring
Ġcontin ued
Ġen s
Ġnews p
u gh
or ial
20 3
Ġf elt
Ġr out
28 3
E ven
Ġh ol
ad em
Ġar ri
ful ly
ĠFeb ruary
A d
ag ing
26 3
Ġopen ed
Ġdriv ing
r ick
ĠH all
Ġsp ace
Ġwho le
pt ion
ĠCl ub
Ġopport unity
25 3
17 3
24 3
29 3
A T
er a
27 3
20 7
Ġhop es
Ġsignific ant
b ody
Ġfamil ies
om as
Ġsp ot
Ġk ept
Ġpre t
Ġdesc rib
ad ium
Ġv ers
15 7
23 7
Ġint ro
ĠWilliam s
Ġf ish
ĠK ore
w est
ĠF lorida
Ġdra w
v est
Ġle ague
24 7
10 7
Ġvehic le
sel ves
Ġs al
id er
25 7
14 7
26 7
ra w
lin ed
Ġprodu ct
r ay
Ġb omb
ĠP art
od e
16 7
28 7
Ġevery one
r ight
in als
Ġf resh
13 7
18 7
Ġinvest ment
ĠW il
19 7
17 7
Ġinclud es
Ġsl ow
Ġph ys
Ġresp ond
h ib
27 7
Ġfor ces
Ġbase ball
Ġan sw
25 6
Ġtrave l
k er
u fact
29 7
und red
Ġthem selves
ib r
Ġo vers
Ġf arm
end s
Ġmil es
ent ly
ĠR ob
10 6
ĠO p
Ġrec ogn
Ġacc used
Ġjud ge
Ġm ur
Ġre ady
Ġan im
13 6
A b
Ġ2 9
19 6
Ġbo x
Ġdel iver
Ġsaf ety
Ġal though
Ġdo g
h an
y er
ig r
ir t
IN G
t own
v al
17 6
16 6
26 6
20 6
Ġsur v
Ġevery thing
Ġrequ ire
ĠBo ard
Ġant i
Ġdoll ars
Ġhe ard
15 6
Ġsp ring
Ġass oci
Ġreturn ed
P ro
29 6
Ġoper ations
Ġb id
27 6
ĠGeor ge
18 6
23 6
Ġj ail
air s
Ġev idence
c ome
24 6
Ġunder stand
Ë ľ
ic o
ĠS ing
ĠC ong
Ġst age
28 6
ant a
Ġpe ace
Ġchamp ion
u ing
ig an
Ġgrow ing
Ġtak es
Ġover all
Ġshow s
ĠJ im
A r
Ġcan cer
Ġdef ense
d own
ĠM il
igh th
oci ety
ĠHe alth
e ople
Ġc ause
Ġh us
Ġsa ve
ĠI tal
ĠH am
ĠJ ose
10 4
ĠIntern et
Ġ _
Ġc ivil
ĠJ ones
Ġimp ro
Ġfund s
rup t
Ġre venue
ain e
Ġim m
arl iam
Ġf lo
Ġs at
Ġcont ribut
o o
Ġres ident
Ġret ail
he st
Ġr ather
um e
Ġimp act
p ed
ĠT own
Ġpol l
Ġinj ury
arliam ent
D uring
Ġdra ft
ourn al
Ġm er
17 4
26 4
Ġtrad ition
it z
14 4
27 4
Ġpre vent
Ġneg oti
Ġth ous
ĠT V
ĠL ou
25 4
28 4
ok e
ĠCh inese
ĠS he
19 4
Ġhapp ened
Ġcred it
Ġtraff ic
all s
13 4
18 4
24 4
Ġsp orts
ĠAng el
Ġcrow d
Ġa chie
ĠM ic
ĠM ike
em an
ĠCh icago
Ġcle an
Ġt ro
23 4
Ġany one
A m
Ġl ack
im b
15 4
16 4
29 4
20 4
Ġspe ed
Ġmur der
Ġt rou
Ġl ink
ĠC or
ĠK ing
Ġplan ned
Ġnec ess
Ġlong er
Ġdet er
Ġm ater
Ġsoft ware
Ġr ank
Ġcomp ared
ĠM em
ap t
Ġex ample
Ġfund ing
Ġm ass
Ġhe ar
Ġcar s
Ġmom ent
ac hes
Ġro ck
Ġcar ry
Ġprov ided
Ġrequ est
em ents
ĠCar ol
Ġval ue
Ġwr ong
S E
ak istan
Ġqu ality
ĠQ u
Ġnum bers
or row
Ġpop ular
Ġwh ite
Ġkn ew
Ġrest aur
Ġtele vision
y an
ĠC ath
ĠH ill
mer c
Ġcomm on
Ġ ÃĤ
Ġto ward
ĠG reen
Ġsup er
H er
it iz
ra z
Ġd eep
Ġvol unte
Ġex ist
10 9
Ġdis e
over ed
Ġeconom y
Ġhus band
Ġp ope
Ġab s
Ġve ter
Ġtreat ment
Ġexp and
Ġter m
b o
Ġapp oint
Ġc ult
o id
Ġw ear
al ed
Ġpat ients
c le
ad o
Ġk ick
Ġrem ains
M ay
Ġs ession
Ġb lood
ĠC omp
ĠB ob
anc ed
19 9
13 9
ou l
ort hern
Ġde g
Ġcont r
Ġimmedi ately
ir ing
Ġatt orney
Ġwin ner
E very
14 9
16 9
ip ment
Ġfor ced
15 9
âĤ¬ Ëľ
Ġcould n
Ġown er
cher s
ut ers
17 9
ber g
Ġ200 6
23 9
20 9
Ġenc our
ag er
18 9
24 9
29 9
Ġsup p
Ġconsid ered
Ġaddition al
M ost
Ġm at
ĠM ary
28 9
y l
re am
Ġhapp y
Ġprof it
ĠCan ada
ĠAug ust
Ġ err
ĠM iss
26 9
ip al
Ġc erem
it es
Ġs n
ar ies
25 9
27 9
il ty
Ġres ol
Ġinc ident
Ġthrough out
Ġbelie ved
Ġgirl s
h d
ĠT om
Ġattack s
Ġcre ate
Ġconcern s
ĠD el
Ġse par
ob ile
D A
ĠAustral ian
i ance
s hip
Ġf uel
Ġst ation
Ġsh ut
âĤ¬âĢ ľ
ĠGen eral
Ġc orpor
Ġtr uck
w in
un ch
ĠP ort
ost on
Ġatt ract
ĠFr anc
Ġquest ions
N ot
it ch
ĠC r
em s
Ġinc ome
Ġactiv ities
Ġneigh bor
h y
T A
is ions
ĠR ock
Ġman ufact
ĠT e
Ġp rior
ill age
Ġsc ene
Ġbas k
Ġpract ice
M ar
w oman
le g
Ġins p
ĠIraq i
Ġra ise
Ġmov ing
Ġseem s
Ġapp eared
An other
Ġcrit ic
m ail
Ġapp eal
m ark
Ġsect or
Ġvide o
Ġm iddle
ĠC he
ur ies
Ġplan ning
ĠM ex
ĠH ow
ĠK en
z z
Ġgu ilty
Ġinst ead
Ġbegin ning
Ġadministr ation
or ter
Ġr ange
Ġsp ons
Ġgr ant
Ġpret ty
at ory
l im
uc lear
ĠGo vernment
ĠE U
Ġp ers
ock ed
Ġlook ed
Ġcompl ain
Ġre ve
ist ic
ab our
ĠComm ittee
f oot
Ġl if
ĠW e
Ġgo es
Ġret ire
Ġopp osition
Ġgo vern
ou ts
Ġd i
Ġclaim s
j ected
Ġter ms
Ġbelie ves
r ig
Ġg one
ĠM att
ĠO ct
Ġcan not
ound ed
Ġmajor ity
Ġstri ke
etro it
ut ions
ĠD on
ar i
ĠF ore
Ġsp ending
ille g
Ġa im
Ġp iec
ren g
Ġrem ember
Ġrequ ired
Al so
U n
Ġfil ed
Ġs ale
Ġw ond
Ġm is
ir th
Ġrul es
Ġc al
Ġat h
Ġle aving
Ġact ually
Ġinj ured
Ġsold iers
ĠSup er
Jo hn
I A
t t
Ġpos itive
Ġprot ect
Ġcomput er
Ġeas y
Ġm ix
Ġg re
ĠP akistan
iv ision
Ġequ ipment
squ o
M ean
Ġbe g
et ball
ĠI ll
Ġro ll
enc ies
ĠRo bert
Ġcond itions
Ġp oor
ĠM ac
ĠG ar
Ġun it
ĠSec urity
Ġ ill
ou g
ĠA pp
Ġv ice
Ġdrug s
ĠSept ember
Ġreg ul
ĠMart in
Ġs ocial
Ġro b
Ġqu ite
Ġjoin ed
Ġdro pped
Ġc at
Ġpropos al
ĠCong ress
e en
Ġc reat
ĠS al
Ġsur vey
O ff
Ġvar ious
Mean while
n a
Ġp an
ĠP eter
ĠJ eff
b urg
atur al
I T
Ġpl aced
Ġear nings
ĠFr ance
merc ial
f ect
Ġ illeg
Ġp ict
Ġmin or
Ġincre asing
Ġcond ition
ĠRich ard
Ġd ate
ĠW all
u x
Ġh undred
Ġglo bal
Ġon line
The se
un k
ĠG re
Ġget s
Ġadd ing
Ġorgan ization
Ġel se
O ur
ard en
Ġdo or
aren t
Ġb att
os h
Ġem b
ĠOp en
E N
s et
Ġv ac
Ġins urance
Ġlear n
Ġarri ved
C l
U S
m a
o ber
Ġorgan iz
Ġrelations hip
Ġa w
r squo
ĠC ons
Ġst reng
Ġr an
Ġtr ain
Ġacc ident
Ġatt ention
Ġinvest ors
ĠCent ral
Ġchallen ge
re c
Ġn orm
ĠS pr
ĠH ospital
Ġtrad ing
0 39
ic a
Ġre form
oun ts
Ġpre m
Ġser ve
Ġdet ails
N e
Ġe ighth
Ġab ove
Ġlet ter
Ġcre ated
Ġbenef its
Ġshoot ing
Ġbott om
B r
S p
k ins
ĠF in
Ġplay off
h a
st it
Ġclaim ed
in th
ad ing
ĠC om
38 0
il i
Ġr ise
itt en
Ġthous ands
n ight
Ġw itness
Ġam b
l ight
ĠM e
Ġeff ect
Ġ 70
er o
Ġind ep
Ġeven ing
ĠPr ime
m akers
ĠR oy
ĠFr ank
Ġconcer ned
Ġw el
Ġb ond
ĠA lex
ĠJ ud
Ġestim ated
Ġcomplet ed
Ġbo ys
Ġs u
Ġ3 5
ĠChr is
Ġviol ence
Ġteacher s
D on
J ust
ed er
an i
ĠS am
ĠCh ief
Ġ 80
an o
Ġp ush
is co
her iff
Ġoper ating
Ġmiss ing
ruct ure
I s
du ce
h aps
Ġw ays
al ty
Ġn uclear
Ġcho ice
Ġun c
Ġelect ions
Ġto ugh
ri al
ord in
Ġreg ard
Ġsuccess ful
Ġm ach
I nd
ĠC amp
et imes
est in
ok ing
ĠTh omas
ĠAfric a
Ġh uge
Ġbo ost
Ġallow ing
ĠIs lam
D o
Ġ Ãĥ
Ġd ig
Ġd anger
Ġnewsp aper
C O
T ON
ĠJ ust
ĠGerman y
ign ed
48 0
Ġ5 00
Ġvot ers
i ant
Ġt on
is her
Ġfac ility
Ġstar ts
unic ations
ĠP ac
ĠP ope
ĠE m
Ġcap t
Ġdam age
h ouse
on se
Ġs ense
Ġh or
ĠP ol
ific ation
Ġwalk ed
Ġdesign ed
Ġb and
ac ts
velop ment
ĠComm unity
Ġtw ice
Ġquick ly
T wo
ow ers
i que
Ġg olf
ir gin
Ġtr ust
Ġpart ners
Ġprot est
Ġca used
g ame
ter m
68 0
esp ite
Ġf ix
Ġp ur
ĠN ove
ĠGr and
M c
ĠB ag
Ġreg ional
ĠAr my
ĠLou is
ac ter
us hed
est ic
F rom
Ġs ources
ĠB oston
Ġsp end
Ġoff ering
Ġtrans port
Ġsuff ered
Ġvictim s
Ġrad io
Ġc itiz
ent al
ur b
ĠM ass
us es
78 0
ĠBl ack
g round
m ber
Ġiss ued
Ġc op
ĠC ap
ĠP ress
Ġcons ult
Ġhapp en
Ġaut om
Ġdise ase
I L
Ġb ird
ly mp
ĠF ort
nd er
ĠB en
est ival
ĠOff ice
ĠDec ember
Ġb ab
Ġb attle
ĠS a
ur k
Ġoff ers
Ġab ility
Ġgu ard
Ġdr ink
Ġtro ops
ou d
us ing
Ġ1 97
Ġse at
Ġreg ister
Ġkill ing
ĠSte ve
Ġv o
Ġsc oring
ĠAt l
Ġf ine
ĠO h
anc y
Ġmark ets
ĠD etroit
Ġcent ral
Ġmot or
Ġl osing
Ġyou th
Ġrel ig
ĠQ ue
Ġpar ts
Ġmiss ed
im inal
Ġex am
rem e
w ell
ri ef
ĠT im
Ġappro ach
Ġlevel s
Ġc aught
Ġb irth
Ġp ull
Ġits elf
Ġmov ie
Ġbenef it
Ġvehic les
C H
Ġd om
Ġwe ather
Ġocc ur
D espite
on str
ĠL ee
Ġun ion
Ġfin ally
Ġcr ime
Ġhelp ing
Ġeff ective
Ġinj uries
b our
n y
Ġd rop
Ġtax es
Ġob s
h ol
i qu
Ġb ed
ĠB er
ri f
ĠR od
ĠG od
Ġdec lined
ĠEng lish
as hed
Ġto m
ang u
P l
Ġpr im
ĠJapan ese
B ec
Ġb ul
Ġpro gress
Ġdiv ision
Ġmess age
ĠNove mber
ĠT ig
Ġnot ed
Ġent er
ĠCan ad
ic ed
il es
Ġwould n
Ġann oun
Ġbro ke
Ġassist ant
m ond
n el
Ġ esc
Ġw ild
ĠA venue
Ġknow s
ĠCl ass
Ġsystem s
ro te
ĠC ard
Ġwe ap
use um
in son
Ġlaun ch
Ġ 45
ĠD en
ĠN e
Ġj unior
ĠCh ar
Ġchang ed
Ġdeter min
p oint
Ġst reet
ĠH aw
ĠL aw
Ġcont est
NE W
ĠO lymp
Ġfig ures
Ġdec l
Ġseek ing
Ġk id
ann el
Ġlear ned
Ġens ure
Ġp air
ĠP er
ĠCon ference
O f
Ġs ong
ail ed
Ġpr inc
E n
Ġf ul
ĠT or
ĠG old
ĠServ ice
3 00
u ct
Ġs ource
is er
Ġcom mercial
Ġex cept
ĠCarol ina
a wn
ar ily
ĠA c
ant age
Ġbask etball
land s
enn is
ĠAt t
Ġw at
Ġd rove
ĠM ad
Ġex ecut
99 0
Ġadm itted
ĠP et
ĠO n
Ġdem onstr
il ed
Ġcol lect
Ġspec ific
Ġhold ing
A L
ot e
Ġhist or
ent y
gh an
so ft
Ġsim ply
ev in
ĠChrist ian
Ġcerem ony
O r
Ġt ied
ĠIn ter
Ġbas es
Ġexper i
Ġw rote
Ġb al
ĠM ount
ĠV irgin
Ġfac es
Ġd aily
ĠM el
us iness
oc al
Ġdis play
ĠSc ot
Ġpop ulation
Ġath let
z e
Ġp et
Ġhe avy
Ġad j
Ġatt ended
Ġden ied
Ġconfir med
C C
E O
I D
Ġc as
Ġd in
ad er
im um
ĠU K
Ġrecord s
ĠServ ices
ĠMem orial
Ġn inth
ĠW ay
98 0
Ġp aper
ay er
ol s
ĠD ivision
Ġrep e
Ġprov ides
Ġvot ed
Ġindivid ual
Off ic
ĠA riz
Ġr ain
ist ed
Ġresp onse
ĠBl air
ĠCath olic
E x
en a
om a
Ġit ems
act ion
Ġg reen
Ġus ually
S c
Ġp ul
ĠH ome
und er
Ġhig hest
Ġprofess ional
ĠMill er
Ġc rew
it ation
Ġte en
Ġoper ation
Ġ ut
ĠC arl
Ġstri k
Ġdeb t
Ġemer gency
ibr ary
Ġb order
av es
Ġelect ed
Ġlegisl ation
Ġp o
ast ic
Ġen for
Ġcent re
Ġconst itution
The n
Ġdis m
uck y
ĠMich igan
Ġinit i
Ġ 90
Ġb i
ĠL os
Ġs il
Ġs elf
Ġinfl u
ĠOh io
k en
t ers
ou ston
Ġm eth
ĠC al
ĠM ot
ist ers
Ġ199 9
d ing
se ason
ĠO ak
Ġar ch
ĠAmeric ans
Ġstore s
I ts
Ġp un
ild ren
Ġrem ained
ĠJo e
Ġhous ing
ĠOct ober
o e
s en
Ġal one
ĠN et
Ġass ault
Ġreport ers
ĠBe ach
ĠPart y
ar r
Ġl ab
st ate
Ġad op
ans as
Ġus ers
Ġcor ner
Ġcoun ter
Ġparticular ly
F r
Ġad vert
Ġsecond s
Ġg old
ĠW estern
Ġc atch
ĠPal estin
Ġflo or
U R
Ġt ie
im ately
and on
Ġj ury
Ġtr ue
ree k
Ġact ive
ĠLe g
ger y
Ġdriv ers
Ġdescrib ed
m ates
u ild
y ers
ĠB el
ĠG ame
Ġloc ated
Ġspokes woman
t r
Ġto uch
ig ning
ĠCh arl
Ġvot es
Ġb ought
Ġd omin
Ġn atural
Ġmin ute
Ġtalk ing
Ġlaun ched
ĠAngel es
Ġsc reen
Ġgu ys
Ġpresent ed
ĠRepublic an
stit ute
S ince
Ġa id
ĠB ur
ĠB ang
ĠF l
ĠSt ep
Ġper fect
ict ion
Ġpart ies
Ġlook s
Ġstop ped
Ġpub lished
Ġm ist
ĠA ct
Ġdo z
Ġsup ply
Ġshot s
Ġsuggest ed
Ġnecess ary
P eople
im ate
Ġcertain ly
o es
ĠB ig
ĠU N
Ġinterest ed
a ith
i ation
Ġb orn
Ġav oid
ĠBrit ain
A meric
Ġb rief
ag ement
Ġcr iminal
Ġdel ay
Ġl ose
Ġdevelop ed
ĠAfric an
Ġilleg al
g en
as ts
ro soft
Ġsp ort
Ġcl in
Ġdown town
Ġtrans fer
Ġanalyst s
a ut
y r
Ġt en
on ents
as tern
Ġj oint
Ġconf idence
Ġseem ed
v an
Ġc am
Ġm ount
id ers
ĠI r
Ġcons erv
Ġret ired
Ġorig inal
Ġrecomm end
hd ad
Ġcorpor ate
h i
Ġspe ak
Ġsell ing
Ġhot el
4 00
he ster
Ġw ide
ĠS im
Ġwill ing
ens es
lement ary
b ur
in i
om en
ĠB ow
Ġres erv
Ġte ach
Ġcomm it
Ġpit ched
Ġalle g
Ġprevious ly
l ers
ot ed
Ġs le
ĠC le
Ġsc ient
Ġwr itten
ĠChamp ionship
Ġs ize
Ġw est
pl ace
Ġrest r
et te
ĠD irect
ĠJ r
Ġsp read
Ġref used
Bec ause
ĠSt adium
Ġwa iting
Ġfig ure
Ġm ill
ĠI ran
Ġdef in
Ġhon or
ĠAs ia
8 00
Ġcontin ues
Ġadv antage
Ġleaders hip
Ġpick ed
ĠSec retary
Ġdeg ree
ĠMex ico
ĠBag hdad
n o
Ġs ym
ĠA g
Ġwith d
Ġ4 00
Ġactiv ity
Ġwa it
M A
Ġ ver
re ct
Ġr ule
ĠF ield
um n
Ġsup pl
d e
at he
ĠJ ew
Ġimp lement
Ġfac ilities
u ro
Ġs end
Ġl og
ĠL iber
ab les
Ġcomp lex
Ġwor ds
Ġsol id
emb ly
S U
Ġan g
Ġrec ru
Ġgu y
Ġcol le
An y
Ab out
Ġc ities
st ead
Ġpl ays
isc al
E L
z a
Ġp arliament
ous ly
Ġmeas ure
Ġin n
Ġr ap
Ġhas n
Ġcr ash
Ġconv icted
Ġrespons ible
Re uters
Ġop in
hen s
Ġopt ion
Ġpen alty
ĠAriz ona
Ġcall ing
led ge
Ġmeet ings
Ġdom estic
s y
as ion
ac ity
ĠN or
ĠAr ab
ĠDe velopment
Ġpark ing
Ġgovern or
" ,
D r
Ġf ired
Ġb ag
Ġp ounds
art ers
Ġwe ak
Ġme ant
Ġt al
Ġins urg
ĠAn n
Ġput ting
ĠDemocr ats
ĠKore a
ĠC ub
ĠM ur
Ġapp arent
ĠVirgin ia
S A
Ġon es
ĠC EO
ĠT ony
Ġfl ag
go ing
Ġchall eng
Ġb ur
ar ry
Ġl ay
ĠT our
ĠL abour
ĠSt ock
Ġ3 3
rop ri
ĠMal ays
ĠMus lim
Ġtradition al
B l
en ch
ed om
ic ide
Ġl ived
ĠK h
Ġexp ects
Ġbl ue
Ġsur gery
Ġold er
Ġel imin
ĠAf ghan
Ġrul ing
Ġs ides
id el
Ġn ames
ĠS ox
ul a
ĠL t
Ġse ed
Ġsc r
Ġent ered
ĠCanad ian
O ver
us ion
Ġun l
ar p
Ġm ission
ĠM er
ĠE duc
Ġsp l
Ġag encies
Ġsec retary
az a
Ġsit es
ĠRuss ia
r ang
ar on
ic ient
Ġare n
ell ig
Ġro w
Ġsqu ad
Ġestab lish
ap ers
Ġbel ow
Ġreason s
Ġord ered
Ġ `
ĠN BA
ip l
Ġindep endent
I C
k now
Ġa irl
Ġp urs
Ġpart ner
Ġcomm itted
Th ose
Ġmay or
Ġsub st
Ġapplic ations
Ġansw er
w an
Ġm ention
Ġwh om
end ers
Ġab use
Ġwor d
Ġar m
Ġpit cher
Ġstre ets
Ġdocu ment
b re
ro ad
ec k
Ġj ournal
Ġun its
ĠCl ark
Ġevent ually
ĠDav is
Ġg ain
Ġg ives
ĠP ublic
Ġcom ments
Ġmed ic
Ġpost ed
Ġhundred s
Ġcitiz ens
r ont
an es
Ġg ar
ĠH ouston
ĠF ire
Ġprov iding
ĠAn ton
Ġrestaur ant
g ia
in ally
Ġb ow
Ġp il
Ġh itting
Ġst ret
ĠF irst
Ġsur round
ĠTr ans
Ġprep ared
Ġimpro ved
Ġneighbor hood
k n
Ġf at
ell ing
Ġdem ocr
Ġsk ills
Ġdoll ar
Ġalleged ly
ag on
ĠF ord
Ġpr ime
Ġdec ades
Ġsom etimes
Ġvers ion
Ġtrou ble
Ġwond er
Ġgre ater
S en
h and
Ġw id
Ġon to
Ġ3 00
ĠY ank
Ġconf ident
Ġhom er
Ġmod el
Ġfight ing
Ġtom orrow
er g
ĠB rian
iz ing
Ġfe es
Ġident ified
Ġfeat ures
T H
ay lor
ĠEx change
y ond
Ġf le
Ġd ire
el ly
Ġal tern
Ġres ources
Ġun iversity
Ġwar ned
ĠIs land
Ġexper ts
Ġvisit ors
ĠHow ard
Ġs ound
Ġm obile
Ġd ed
Ġn omin
ĠH en
Ġdec ide
at i
Ġn ice
Ġcar ried
Ġlaw yer
Ġpul led
Ġrel ief
Ġsee ing
Ġresp ect
com ing
Ġconsum ers
6 00
F L
F P
Ġs uit
Ġl ines
Ġl abor
ro vers
Ġbe yond
ĠM ag
1 22
Ġt able
Ġf iscal
Ġac adem
Ġac know
Ġsl ight
? "
Ġown ed
Ġcamp us
ino is
Ġdefe at
2 11
R es
i en
Ġc ast
Ġg rew
ĠD un
Ġv illage
Ġpl aces
ust r
Ġte xt
On ly
ĠAtt orney
e gr
h our
Ã ħ
is ation
el son
ib ly
Ġgradu ate
er ly
ĠC am
ĠM a
eb an
ph one
iam i
Ġbook s
Ġur ged
he ast
il ton
Ġst orm
Ġex erc
ĠK im
ick s
Ġcap acity
Ġbas is
OR K
g s
ĠP e
ĠP rem
Ġex act
Ġtr ail
Ġsign s
Ġappro val
Ġstand ard
Ġclos er
Ġcandid ates
mon th
Ġimm igr
Ġ ir
Ġre duce
ĠM iddle
Ġpro ceed
Ġwe ight
Ġsaf e
Ġachie ve
Ġb od
al a
ers ey
Ġnot e
Ġ3 2
Ġbec oming
vent ion
Ġlim ited
Ġdoct ors
Ġmat ches
c a
Ġs ac
Ġs un
or ado
Ġse ats
ra v
Ġcont rovers
Ġdet erm
Ġask ing
Ġopt ions
Am ong
m ar
ut ies
os en
Ġint egr
Ġnear by
On ce
Ġpurch ase
P h
Ġh urt
ic ts
ĠW al
Ġrem aining
Ġdef ic
Ġsim ple
ron ic
Ġbab y
M art
Ġf ear
ill a
ĠSt ar
ĠBr ad
rib ution
Ġmanag ed
Ġmarket ing
Ġcut s
angu age
k a
Ġt ight
il ing
ut ch
ĠM P
ate gy
Ġcons ecutive
Ġ 75
Ġt ack
ĠC ont
im ent
ri e
Ġup on
ĠO ne
ING TON
N A
T r
Ġag ree
Ġper m
Ġdif ference
ĠCol umb
Ġmar ri
Ġrul ed
Ġey e
ic ians
om es
ĠS ocial
ol a
Ġco oper
ic ip
ill ed
ĠV an
ress ion
Ġaff ord
Ġtyp e
hold ers
it a
ar ian
Ġh ar
ra ud
ans ion
In stead
Ġcomm unities
Ġsupport ers
Ġspok e
Ġopport unities
i ors
Ġ er
Ġd istr
ĠD ar
ore s
Ġcom fort
Ġex hib
ian a
stand ing
Ġsex ual
ĠFor ce
Ġchar acter
el d
ĠL u
Ġpl ate
u als
qu arter
se y
Ġdep art
ĠAnd rew
Ġtick ets
c el
f it
ill ing
ĠR ay
ĠY ORK
Ġrel ated
Ġbar rel
ĠEduc ation
Ġw all
Ġc ool
il s
ad or
Ġst ories
ri ve
ĠR am
Ġseason s
Ġdep uty
ĠZ eal
Ġcrit ical
Ġveter an
Ġw ood
ay ers
ĠP enn
Ġ3 6
Ġsub ject
r ist
rou d
Ġcr is
ĠMed ical
ĠDemocr atic
Ġrelig ious
p m
it ors
Ġe p
am ber
ab b
ĠMay or
Ġfavor ite
Ġexist ing
C on
D av
Ġs ens
Ġs ister
Ġs outhern
ri p
Ġsp ir
Ġnorm al
Ġtal ent
G r
re y
Ġr are
ĠR yan
Ġsh own
Ġass ess
Ġplan ts
âĢ ľ
Ġfac ing
Ġwalk ing
E C
E S
d en
Ġh ur
ĠS outhern
Ġr ally
ip le
Ġexp ressed
Ġsc ience
L e
Ġb atter
Ġn ative
Ġe le
am ing
Ġpro sp
Ġout s
Ġ199 7
Ġpay ing
Ġclass es
CA A
Ġintro duced
ĠZeal and
l ong
as c
ĠS ystem
ab led
Ġ199 8
Ġstand ards
Ġsusp ect
Ġfell ow
Ġmeas ures
Ġphot ograp
O L
Ġe th
ĠE ll
Ġmost ly
Ġvar i
Ġmag az
Ġphys ical
ĠChar les
Ġdeterm ine
. '
ĠB ol
os es
ord an
Ġcont ent
Ġproduc ed
Ġexpl ained
Ġfun eral
Ġinit ial
Ġstre ak
Ġton ight
ab in
Ġloc ation
Ġsmall er
R ep
m ore
p ut
Ġb lo
Ġsh op
ĠK ent
ĠDe f
Ġart ic
T V
g ers
Ġp ace
ĠS ociety
ol es
am i
ĠL at
ĠK n
Ġun f
du ction
Ġhead ed
Ġfav our
Ġlim it
Ġaud ience
r it
Ġ ult
ĠT imes
co hol
emp or
Ġalleg ations
S e
Ġb ench
Ġth rew
ĠR og
ag n
res p
15 1
ĠIn stitute
Ġwin s
Ġstr ategy
Ġshow ing
Ġdevelop ing
Ġsub s
Ġsing les
Ġsent ence
Ġdeb ate
roll ed
Ġobs erv
n s
n am
o en
ell ed
ĠBl ue
Ġspe ech
Ġhop ing
Be fore
Ġsepar ate
ĠDirect or
Ġb at
mer ce
Ġthink ing
eng th
AS H
p ool
Ġr ide
Ġas p
ew here
Ġlarg er
Ġread ing
Ġw ire
ol ars
am ily
ri a
ĠD oug
ĠH um
ĠK evin
Ġfe ature
Ġord in
Ġdoct or
a it
Ġf em
Ġserv ing
Ġbr and
Ġlaw makers
Ġfeel ing
Ġcustom er
Ġappear s
Ġcomb ined
ĠFranc isco
Ġretire ment
ĠIll inois
W ill
e in
ĠB ell
ĠF ound
Ġfind ing
Ġvo ice
w ar
Ġt im
Ġf an
Ġf aith
ist ics
Ġres ear
ĠO l
Ġind ex
Ġext rem
Ġtre nd
Ġreve aled
i as
Ġc ateg
Ġto wards
oc cer
Ġper haps
Ġkeep ing
Ġair port
bur gh
2 12
L A
Ġm aster
ĠL ew
ord on
Ġapp l
Åĵ I
. -
ar ant
Ġh aven
ri er
ĠT echn
ab il
ĠSt an
Ġstr ateg
Ġ199 0
Ġstat us
Ġdocu ments
ĠJose ph
d a
f riend
en ger
Ġem ot
Ġsqu are
Ġaccept ed
opp ing
R O
Ġy ards
ĠP ost
ĠItal ian
Ġstreng th
7 00
P r
v a
ly ing
ĠW ind
Ġex change
oun ger
Ġcons ist
ĠJud ge
Ġdetermin ed
P A
y c
or age
it ter
ol ution
el ph
ang ing
Ġsur f
Ġob vious
ĠCon n
Ġ 48
Ġe ast
ĠA h
ĠN CAA
Ġwor st
Ġallow s
Ġemploy ee
Ġconsid ering
Ġcandid ate
Ġst uff
Åĵ We
Ġocc up
ĠGeor gia
Ġrespons ibility
c raft
Ġs we
ĠB oy
Ġwatch ing
ĠSing h
Ġcontribut ed
Ġt em
Ġs ch
Ġb urn
ic i
Ġfl ight
Ġpos itions
Ġtest ing
Ġlic ense
Ġpiec e
Ġbod ies
p ound
Ġp riz
se a
ank s
Ġincre ases
Ġconsum er
. .
w here
Ġt ask
Ġr ival
and a
ĠG reg
od ay
um s
Ġag ent
ock ey
Ġdef end
Ġindust rial
Ġweap ons
ĠAnton io
ĠS and
ag ues
Ġlear ning
ĠIndian a
Ġful ly
Ġopin ion
E ach
Ġm arg
Ġd ark
Ġst arter
pp ing
Ġsc he
Ġcap tain
ret t
Ġest ate
ĠRuss ian
ĠMic rosoft
G A
b ell
f l
Ġs oph
ĠM iami
Ġy ounger
ĠT urk
ĠF ederal
Ġ3 4
Ġelect ric
int endent
Ġwear ing
Ġdire ction
i ar
Ġ 44
in ch
or ne
Ġg all
ĠB ut
ĠR ec
up s
Ġse lected
Ġup d
Ġint ellig
Ġpres ence
Ġadv anced
Ġenvironment al
Â ©
Ġp roud
Ġst ood
ain t
Ġv ent
ell ow
Ġaff ect
Ġexpl os
ĠAb d
Ġcoun ts
ic ial
Ġre ven
ĠS o
ĠL ind
ĠU t
ipp ing
Ġsched ule
ĠScot land
Ġcris is
Ġw arm
Ġre duced
Ġr at
Ġr acing
ĠK e
Ġacc ounts
Ġset ting
Ġbuild ings
ĠCo ast
Ġdeb ut
Ġmater ial
Ġpan el
Ġdism iss
S P
Ġ 43
om s
ĠD er
ark s
Ġdec isions
Ġrel ative
Ġaff ected
Ġeas ily
f ight
Ġt ests
in y
in er
Ġw ed
Ġn urs
ĠL eban
95 5
Ġpre fer
Ġche m
Ġprom pt
Ġarg u
Ġacknow led
ĠW ater
Ġbeh av
Ġprot ection
ĠAs ian
kn own
ĠH er
Ġun s
Ġrel ie
Ġprodu ce
ades h
Ġpur p
Ġmarri age
Ġ ess
re a
Ġf ee
Ġf raud
Ġm ort
ĠT re
ĠG all
Ġsh ip
Ġwe bs
Ġcr ack
Ġinst all
Ġstock s
Ġapplic ation
ĠPalestin ian
elph ia
- -
m d
u a
ac he
ĠM ah
ĠI t
ĠR on
ĠE ar
ant ic
Ġ3 8
ĠAr t
Ġadv ance
Ġtre ated
Ġdoub t
Ġbeg ins
Ġh air
ok ed
Ġfe ed
Ġplan e
Ġdisc overed
ĠRe v
ĠMin istry
Ġclos ing
Ġey es
ĠTig ers
ĠFound ation
Ġre jected
ĠM id
Ġr aces
ĠW alk
ĠY oung
atic an
ĠAnd erson
Ġappear ance
ĠSup reme
v in
Ġa ware
Ġpro ced
Ġsent enced
Ġsol ution
ĠRes earch
ĠWil son
bo ard
Ġdanger ous
ĠAtl anta
e z
ol en
ĠD es
ĠL ong
olog ical
sh ire
ĠIsrael i
Ġvolunte ers
Ġerr or
Ġstrik ing
m ad
Ġs ection
re p
it ely
The ir
ug g
Ġent ertain
Ġperson nel
Ġpat ient
Ġ` `
e as
Ġs ort
Ġc ert
an ish
Ġd ipl
ĠM os
ĠT enn
ap ed
Ġco al
Ġear n
ib b
Ġbill s
Ġded ic
k ed
Ġg ather
Ġsup erv
Ġdirect ly
Ġmod ern
Ġap art
Ġpitch ing
b ury
Ġp ool
Ġr ough
ĠD u
se qu
ĠSt ud
Ġres c
ĠCh ap
ov a
Ġtri ple
Ġstand ing
Ġdisapp oint
Ġsupp osed
Ġrepe ated
F our
T O
i ate
il a
ĠP it
Ġr ising
ick et
Ġdef ence
Ġhigh ly
Ġcompet e
Ġnegoti ations
Ġsac rif
ur er
qu ir
Ġexp ansion
Ġapp rec
Ġsec ret
ish op
Ġwr ite
ĠCol orado
Ġmar ried
Ġfill ed
Ġestab lished
raz il
ĠAfghan istan
Ġf lood
ĠE r
Ġoffic es
96 4
ner gy
ĠPl an
ĠSer ies
ĠJ ason
Ġfin ance
Ġfac ed
Ġmain t
Ġroad s
c an
k o
Ġal b
ĠT ri
if er
ict or
Ġprogram me
Ġob ject
Ġsurpr ise
Ġtick et
ĠCons erv
Ġenfor cement
y a
it ude
ĠB usiness
ĠD i
ĠW ell
ĠO s
Ġdec ade
Ġsusp ended
Ġauthor ity
ĠJust ice
Ġs ociety
ĠG ood
ĠV atican
air man
Ġbro ken
Ġanim als
Ġpict ure
Ġannoun cement
. )
i os
ĠB re
ĠL ions
ĠG ary
ĠN ick
78 7
Ġvot ing
Ġpack age
b an
l ike
Ġs ought
od d
Ġsc en
Ġlo b
ĠIslam ic
ĠPac ific
Ġwithd raw
Ġsubs id
F irst
S ch
W ASH
l ig
Ġ 65
Ġb oss
ĠC ast
Ġsa v
ĠA sh
Ġal cohol
ĠF air
ĠK ansas
60 5
iver pool
âĢļÂ¬ ?
Ġap artment
Ġpromot e
Ġlaws uit
ĠS um
ĠS qu
ĠJ ac
40 5
68 5
35 5
ang ers
ash ion
Ġprom ised
ask a
WASH INGTON
n et
Ġn orthern
50 5
48 5
78 5
Ġar rang
96 9
Ġposs ibility
Ġcho ose
Ġthreat ened
Ġfre qu
ĠDan iel
Ġoccur red
md ash
a o
Ġl anguage
Ġn ations
am m
Ġr ail
ĠD ie
75 5
app ing
Ġconf l
Ġfail ure
Ġloss es
Ġrepl ace
ĠSe attle
Ġmill ions
L O
p art
Ġh y
ĠS ur
ĠJ ordan
ĠIn t
Ġbu ying
Ġmin istry
94 9
Ġbank s
sy ch
Ġdefic it
C ont
S ec
l ife
ĠS il
ĠV iet
38 5
Ġwr iting
Ġhous es
or ation
Ġr iver
Ġexp ert
70 5
ott en
Ġpolic ies
Ġrepl aced
Ġcult ure
athe red
Ġfem ale
A M
C omp
E arl
M ich
P er
R E
b l
i very
o h
ĠS ol
ĠC oll
ĠT y
ĠL uc
30 5
65 5
Ġcount ies
Ġfore cast
Ġstep s
Ġdin ner
olars hip
G E
it als
ĠT er
Ġsec ure
45 5
Ġcompet itive
oen ix
c hen
u ction
is hes
Ġl ock
ad s
Ġass ets
Ġbr ain
Ġconn ection
L ike
ent ially
ĠK ar
30 3
60 8
45 8
78 8
68 8
Ġus es
95 6
Ġstud ies
ĠSp orts
Ġcor rect
ĠBro ok
Ġorganiz ations
Offic ials
, ''
r ast
Ġh ole
ow ed
ĠL as
ĠL yn
40 8
90 5
Ġlist ed
Ġclear ly
Ġp ath
ad elphia
ĠS ar
im p
ĠN orthern
ĠE ag
30 8
75 8
67 6
gr ade
Ġmem ory
az z
Ġinst it
udd en
Ġsle ep
U nder
m es
s es
Ġw ish
Ġl ength
Ġst olen
Ġcon vers
ĠG ra
Ġpl at
Ġpl enty
iv ity
Ġper man
50 8
48 8
Ġco ast
Ġknow ledge
ĠRo ber
Ġrecord ed
Ġsw eep
ĠPr ince
ĠPhil ipp
Ġappoint ed
ĠYank ees
Ġvari ety
m et
m ate
Ġa ver
Ġc old
ĠG ov
Ġoff ense
ure au
70 8
Ġar riv
Ġpre c
Ġed itor
Ġspe aking
Ġdig ital
9 00
u ly
re ll
Ġf ile
us ive
ak ed
38 8
35 8
Ġvis iting
eng ers
Ġple aded
Ġrespond ed
Ġhor se
Ġdecl ared
m ir
Ġw ounded
Ġd uty
ir k
ĠR ick
Ġv ir
qu arters
ict ions
78 3
95 7
Ġrem oved
Ġair craft
Ġdest roy
Ġrout e
c ing
he w
in ning
om ore
ol is
Ġis land
ĠF ar
ĠJ on
Ġv ia
10 1
65 8
63 3
Ġrece iving
Ġvis ited
Ġdist ance
hel sea
Ġparticip ate
Americ an
Ġstret ch
Ġexact ly
Earl ier
Ġa wards
Ġs ust
Ġh ired
Ġg iant
ĠT aylor
ĠH a
In vest
65 3
35 6
Ġbo at
Ġdec line
ĠInd ust
Ġhop ed
Ġtre es
Ġregister ed
ropri ate
b ro
m outh
y o
st ruction
ĠP C
ĠP ist
end a
10 2
ĠO ld
50 7
40 3
Ġ3 7
70 3
45 3
78 9
68 3
38 3
11 1
95 4
95 8
Ġco ordin
form ation
Ġ4 1
Ġhead s
Ġresp ective
ĠAd ministr
Ġprosecut ors
ĠStep hen
A pp
i est
Ġst ars
ri ption
Ġpro ve
48 3
Ġ5 5
Ġadv ice
Ġinvestig ators
Ġtele phone
Ġsu icide
B M
b as
Ġs now
Ġc ards
om pl
ĠA uthor
ĠH ot
ant ly
30 4
30 7
50 3
67 7
63 7
93 7
Ġrem ind
Ġprov ince
Ġgu arant
Ġext ended
Ġestim ates
Ġbroad cast
G o
ĠW ild
ap h
20 1
40 7
75 7
Ġgr ab
Ġbas eman
ĠHigh way
Ġconc lud
Ġindivid uals
Ġconduct ed
Ġfarm ers
Ġdeliver ed
Ġmass ive
Ġbal ance
Ġslight ly
A A
ut ed
Ġr ural
ul ated
Ġch ances
Ġwor se
99 5
40 6
60 7
45 6
35 3
22 1
Ġcol lection
Ġ199 6
Ġinvol ve
Ġbring ing
Ġcomplet ely
Ġfre edom
rel ated
Ġspl it
Ġth r
Ġbe ating
Ġhe at
Ġst ick
ĠB ul
if ul
ĠF re
ĠG M
ĠE astern
Ġj u
Ġad ults
50 6
ĠV eg
78 4
78 6
68 7
75 3
67 3
63 6
oth ing
ĠInd ones
Ġhealth y
Ġexpect ations
Ġconc ert
Ġcarry ing
Ġprim ary
Ġmagaz ine
Ġreven ues
c omm
o very
on z
is p
Ġp ension
ol n
ĠI T
60 6
38 7
95 9
anc ing
63 4
93 3
93 6
Ġ4 2
enn y
Ġhold s
ĠAll en
Ġindic ated
Ġconfl ict
C ol
b orn
r id
er ous
Ġst ake
ĠB razil
60 3
60 4
Ġ3 9
75 6
38 6
65 6
65 7
Ġret urning
Ġdog s
E l
Ġst yle
ĠI d
igh ter
Ġde leg
Ġag gress
Ġcl ients
30 6
50 4
iz es
70 7
48 6
45 7
68 4
68 6
35 7
67 4
Ġexerc ise
Ġtem per
g a
Ġf it
ow ell
ĠT al
ĠF red
19 1
50 9
40 4
48 7
75 4
35 4
95 3
Ġem ph
ex p
For mer
Ġbig ger
Ġwr iter
St ar
Ġsw im
Ġmove ment
Ġinvol ving
Ġdoub les
ĠRepublic ans
Ġaward ed
B S
I P
ĠC ra
Ġhe lic
ri pt
ĠR el
ĠR oman
13 2
18 2
27 2
ip e
60 9
70 6
45 4
Ġlead s
93 9
Ġ4 9
Ġbr idge
ivers ary
Ġrequ ires
ĠCent re
Ġwalk s
field er
ĠSte ven
Ġmean ing
Ġanim al
ĠItal y
Ġcontr acts
Ġinflu ence
uild ing
C o
ĠC reek
ast ers
Ġv an
16 2
ust er
Ġfir ms
30 9
Ġen h
70 4
22 2
ĠY ear
Ġcr ude
Ġlaw yers
Ġworld wide
Ġprof its
Ġdel ivery
Ġcou p
Ġserious ly
Ġfish ing
Ġpartners hip
rast ructure
g u
Ġs occer
Ġh osp
Ġl iber
Ġn or
ĠR s
25 2
16 1
29 1
20 2
Ġag ents
Ġun able
Ġun less
45 9
63 9
Ġbus y
inc oln
Ġra ising
Ġpower ful
omp son
Ġconn ect
ĠAc adem
Ġapparent ly
Ġintellig ence
Ġhelic op
Ġg athered
im ony
ĠI m
ul ate
ĠD rive
ore n
ĠW ork
ĠG ordon
all as
15 2
14 2
Ġse lect
48 4
48 9
65 4
35 9
Ġlo an
47 3
Ġcent ury
Ġown s
Ġdon Ã¢
ĠDe v
Ġclub s
Ġassist ance
ĠPar is
Ġdistr icts
Ġwebs ite
Ġ ice
re land
it o
Ġp ra
Ġn ar
Ġn ature
Ġr ing
ĠH us
13 1
24 2
23 2
26 2
ĠE RA
38 4
67 9
Ġhelp s
Ġbl ow
Ġpass engers
Ġwel come
c are
k in
at o
Ġo d
Ġst ations
ĠT ra
17 2
18 1
23 1
Ġwor ry
It Ã¢
40 9
98 5
75 9
65 9
90 8
11 2
ont o
Ġmy self
Ġhand le
Ġcover ed
Ġn one
Ġhe ro
ĠB uck
ĠL o
ĠL and
29 2
ĠE nergy
99 9
Ġshe l
Ġim age
ĠMar sh
Ġwar ning
Ġstand s
Ġpoint ed
Ġimmedi ate
Ġprofess or
rupt ion
ĠTown ship
ĠJew ish
ĠPist ons
i ro
el ess
ĠA z
Ġ1 50
ĠF ox
ap ore
14 1
24 1
28 2
Ġres ign
98 8
68 9
38 9
og ue
43 3
ys is
Ġsub m
min ute
Ġlot s
Ġadv oc
Ġsurpr ised
abin et
ĠLew is
w w
Ġ 46
he t
Ġg ained
em bers
ate ver
Ġpl ed
27 1
70 9
Ġar ms
90 7
93 4
Ġimp ress
ĠSp anish
Ġdr am
Ġ' '
Ġstrugg ling
Ġadj ust
ĠDie go
F A
d ney
n i
v is
Ġ ign
Ġto w
al yst
ĠS heriff
ac ement
and al
ĠH un
19 2
iv als
Ġnot ice
Ġqu iet
Ġar med
90 9
Ġacc ompl
Åĵ The
ric ult
Ġreturn s
atic ally
Ġfall ing
ern and
Ġsett le
Ġexecut ives
ĠWay ne
Ġmeth od
fight ers
l adesh
y ard
in ing
Ġf estival
Ġm ax
th ony
ĠW at
ĠJ ersey
25 1
17 1
28 1
26 1
Ġac res
99 8
Ġim ag
12 1
ĠCl in
Ġfact or
ĠSpr ing
empor ary
O T
c ia
g n
r d
Ġt end
om et
Ġl unch
ly wood
and y
Ġag ricult
amp a
Ġar my
90 3
Ġco ff
ned y
Ġeas ier
Ġexc ell
ĠMalays ia
M an
Ġs itting
ĠS u
Ġst em
os ure
Ġpro ved
ud i
Ġun ique
44 7
ob ody
Ġrun ners
Ġfe els
Ġsing led
200 5
Ġtalk ed
Ġinterest ing
Ġtechn ical
Ġdiscuss ion
Ġmater ials
ĠFore st
Ġcreat ing
Dav id
I V
Ġb le
Ġl ibrary
Ġst orage
ĠA ward
Ġr ac
ĠR ad
ĠF la
98 3
43 7
47 7
Ġwin ners
ĠPh oenix
Ġsum mit
ĠMor gan
ĠApp le
Ġexperi enced
Ġspir it
E d
Ġt ree
99 3
90 6
44 3
Ġinv ited
97 3
Ġeff ects
olog ies
Ġcontin uing
Ġbas ic
Ġ& #
Ġopt im
Ġple ased
Ġcoun sel
ĠComp any
O U
Ġc ode
Ġd er
ĠS anta
ur ers
ĠL ife
Ġ200 7
98 6
Ġcomm and
Ġdef ensive
Ġset s
nes ota
Ġfr ustr
Ġdiscuss ed
ĠGu ard
Ġp ushed
Ġcont ain
Ġam end
Ġann iversary
Ġpolit ics
ij ing
Ġfresh man
Ġresol ution
ĠFore ign
Ġaim ed
ĠVeg as
Ġ i
Ġs udden
Ġp sych
Ġfor t
ot te
ess ions
Ġsp ark
Ġoff ensive
ost er
97 7
47 6
66 4
66 6
ĠAl b
ĠMc G
Ġfoc used
Ġfamil iar
emp ts
Ġhol es
Ġdefin itely
P resident
w eek
w ise
Ġd ance
Ġcl im
98 7
90 4
43 4
ĠPh ill
ĠPhil adelphia
B ar
Ġh arm
Ġd rew
ĠT ele
ĠH ay
Ġpl us
Ġj ur
Ġk il
ĠO w
99 6
97 6
43 6
Ġhand ed
Ġopp onents
Ġposs ibly
ĠBar b
ĠMed ic
ĠDen ver
C I
a ug
d o
v o
Ġt all
ĠM s
Ġst ro
Ġst adium
Ġch ain
Ġv irt
99 4
99 7
Ġjust ice
Ġco aches
vel and
we ight
Ġtri b
Ġdirect ors
Ġed ge
gy pt
Ġinvestig ating
Ġdist ribut
ĠOlymp ic
D e
r or
Ġon going
ĠM et
ce an
Ġsp r
ang ed
44 6
96 2
Ġmonth ly
ĠAssoci ated
Ġhistor ic
d om
in ter
et ime
ow a
Ġcomm unic
ons in
46 4
Ġshould er
Ġ199 5
Ġpat rol
Ġshare holders
ai wan
isc onsin
Ġacqu is
Ġdi agn
, '
S AN
Ġt ast
Ġw estern
Ġc ro
Ġg rown
Ġe at
Ġy ield
ĠD ave
ak a
ĠL iverpool
98 4
ath an
Ġmay be
Ġinst ruct
Ġreal ity
Ġmain tain
ON D
ech an
Ġren ew
Ġattempt ed
Ġprinc ipal
A D
T oday
h s
ar io
ic an
ac le
ig g
ĠB ru
ĠP ower
em eter
Ġacc omp
Ġlo ved
97 4
Ġgood s
Ġact ions
Ġfl ow
Ġthink s
Ġhapp ens
Ġinf rastructure
ĠEx ecutive
unic ipal
Ġtell ing
Ġadvert ising
ĠLt d
Ġaltern ative
u an
on ing
Ġh all
ĠR ome
oin ting
44 4
Ġno on
47 4
Ġcol umn
Ġopp osed
ann y
Ġarg ued
Ġsem i
Ġentertain ment
Ġm useum
ur ities
ĠD o
ĠG il
od ge
ĠE lementary
Ġthan ks
aw a
anc hester
Ġrep orter
Ġcr imes
Ġunder st
Ġhead ing
Ġposs ession
Ġdeath s
ĠRBI s
Ġmult iple
Ġarch it
Ġcommit ment
Ġresear chers
Ġemph as
v ard
re es
al ing
st ein
Ġfor med
Ġst ress
Ġit Ã¢
ĠG h
og s
97 9
43 9
47 9
46 9
Ġfl at
Ġev al
Ġsusp ected
Ġchang ing
ĠSy dney
Ġchalleng es
ĠRober ts
G O
S outh
Ġt urning
ĠC D
el and
ĠA N
Ġcon cl
ĠR os
ĠF und
ĠE v
ĠE ric
Ġcomp ens
ĠK ong
Ġag enda
98 9
Ġsm oke
Ġdisc l
ĠCom merce
Ġdoz en
C an
S m
f ol
x imately
Ġ urg
Ġm aker
Ġd ry
ĠS af
ĠC are
ol ine
el a
ĠM u
ĠB ra
Ġal ive
ĠJ un
Ġv en
44 9
Ġsuc ceed
ten ance
ĠBro ad
Ġdev ices
Ġgl ass
Ġjump ed
g ent
l as
er en
ic ing
ay ing
ad ers
ol it
ap olis
Ġse lection
ĠV ictor
Th ree
Ġwin ter
Ġtest imony
Ġel ig
Ġperform ed
Ġord ers
Ġdisp ute
Ad d
E D
R ec
b ors
st one
ig er
ish ing
66 9
Ġend ing
ĠSp ain
Ġant icip
Ġdoub led
Ġcirc um
Ġsat is
ĠRoy al
Ġsche me
Ġsacrif ice
Ġalb um
ĠI reland
ĠT est
ew art
ĠK elly
ue z
ĠV er
ren ce
lo om
Ġsupport ed
Ġ199 4
Ġ198 0
Ġsuff ering
Ġrepresent atives
ĠMark et
A C
Ġbe aut
el ine
ĠR M
ĠH el
Ġres ist
Ġexp enses
Ġdis s
Ġ5 2
Ġpercent age
ĠMan agement
Ġrecomm ended
ĠIr ish
Ġartic le
Ġacknowled ged
ĠAuthor ity
L et
Ġf ears
Ġm ale
le ts
ĠM ain
ĠL incoln
Ġv end
ack s
Ġexp ensive
50 1
Ġfin als
78 1
Ġinter ests
cent r
Ġgr ass
au k
az ing
Ġpresident ial
ĠAd am
Ġsett lement
Ġplat form
Ġperman ent
I M
o oth
r ant
on ent
Ġf ashion
st itution
ĠP a
her s
ĠW isconsin
ect or
ian ts
lo ok
Ġco verage
Ġbl ast
Ġhead quarters
Ġcust ody
Ġlarg ely
ĠPat rick
Ġdefe ated
ĠSing apore
Ġhosp itals
H S
Ġin quir
Ġm and
Ġd ial
un eral
ĠB ry
ĠP ier
95 1
Ġbel ong
Ġcomplain t
Ġplayoff s
ĠDer by
i h
p erson
ill er
Ġwas te
ĠR ice
ĠH ills
Ġrec over
60 2
70 1
95 2
67 2
anc ial
Ġkn ee
pr ise
Ġmin imum
ĠMar c
ĠPro gram
Ġmov es
Ġfun ction
ĠReg ional
ĠCamp bell
emeter y
h igh
at z
at on
Ġb reat
ĠB ull
if ying
ĠN ations
Ġad ult
40 1
68 2
63 2
94 1
iam ond
Ġairl ine
E T
G H
Ġs heriff
at ures
Ġc ited
ĠC ross
ĠP res
ĠW eek
Ġsp ect
ĠCh airman
30 1
60 1
78 2
73 7
ĠTh ompson
94 2
Ġcur ren
Ġsing er
ĠAss embly
Ġround s
Ġparen t
Ġdev ice
Ġcell s
ĠWood s
ĠUt ah
or a
Ġc ru
st op
ur rent
Ġst ructure
ec ial
ul f
ĠF ood
Ġup set
Ġcl ient
ĠO k
Ġman age
own ed
48 2
Ġatt empts
Ġcour ts
Ġter min
Ġjud ges
Ġide as
ĠMo ham
Ġinfl ation
Ġenjoy ed
Ġterror ist
Ġmach ine
ĠTrans port
C omm
a ver
g ment
h ander
ic ian
ĠE gypt
Ġint ent
63 1
att ers
Ġnum erous
Ġtest ified
Ġpurch ased
Ġcomplain ts
Ġwed ding
Ġdipl om
P art
b ox
h us
y cle
es ides
Ġp age
Ġm ental
ic ious
Ġhe av
Ġst ated
ĠP en
end ence
ab ilities
30 2
65 1
35 1
96 1
Ġcut ting
Ġrefer end
Ġpiec es
Ġsong s
Ġnar row
G en
M ark
P S
s ewhere
Ġcon centr
ok yo
Ġinc hes
45 1
65 2
Ġear th
back s
Ġgener ation
Ġmix ed
Ġregard ing
ĠLeg isl
Ġrap id
A U
C ar
v y
Ġh un
ĠC irc
Ġsh ared
40 2
70 2
45 2
38 2
67 1
Ġem p
Ġgu ess
Ġneg ative
Ġwire less
ĠWalk er
m illion
Ġs an
or al
Ġb ound
Ġl iter
ĠF estival
ĠK o
68 1
eral d
Ġent ry
ĠMin nesota
ĠUS A
Ġemploy ment
Ġsusp ects
Ġtit les
ĠOff ic
Ġhol iday
Ġrestaur ants
ĠTor onto
ĠKent ucky
C ity
Ġ 47
Ġf ought
ĠP ent
Ġsh r
Ġab andon
75 2
35 2
93 2
Ġins isted
Ġident ity
Ġrequire ments
Ġpict ures
ĠAcadem y
st ers
ĠA gency
ĠP re
our s
ĠJ ul
ĠJ ean
ĠG olf
ĠE ver
Ġun p
48 1
38 1
og le
Ġam id
ĠPro f
Ġprep are
Ġpropos als
Ġovers eas
Ġtrou b
Q u
Ġs igning
Ġw eren
ĠA ve
Ġdo ors
75 1
aw ay
enc ing
ĠMc K
Ġshort ly
Ġmilit ants
Ġsen iors
Ġteach ing
h o
i ot
Ġf el
Ġb on
Ġm ail
Ġl ap
ĠS ant
ĠB as
ĠB ern
Ġcon ven
ĠT aiwan
ĠW ales
âĤ¬ Â¢
50 2
ens ions
ĠAr ts
az e
Ġsub sc
Ġfr anch
Ġparticip ants
Ġcommission ers
Ġwind ow
Ġqualif ying
Ġpoll s
B O
p e
Ġd ie
Ġsh opping
Ġwor ried
ra f
ĠSt r
ik ely
Ġinv ent
Ġact ing
Ġfam ous
St ill
Ġsol o
Ġview s
Ġreb ounds
ĠTe am
Ġkid n
ĠViet nam
3 50
d oor
i able
w orth
Ġa uction
Ġd ress
Ġd ream
ĠR oss
ĠT w
res ents
ell o
Ġ( $
Ġrec alled
Ġbec omes
ĠEn ter
over ty
Ġfil ms
ĠMr s
ĠMo ore
ĠKore an
Ġvolunte er
ĠKen nedy
ĠBang ladesh
ĠPit ts
L AN
V D
g age
Ġb are
al i
em ploy
Ġint ended
ian o
Ġlo ans
Ġpres c
istr ation
Ġgener ally
Ġmot ion
Ġphot o
add am
Ġabs ol
Ġmanufact uring
Ġwat ched
ĠHen ry
st ar
ĠD is
ĠD allas
ĠN ot
ĠN AS
Ġde als
ĠK u
Ġapp ly
Ġdis abled
iz on
Ġpass ing
Ġpass enger
Ġfield s
Ġref lect
Ġrepresent ative
str ong
Ġinsurg ents
Ġsch olarship
alyst s
i us
Ġt ag
Ġt ies
Ġthe ft
Ġs ending
Ġe ld
ill y
if orm
ĠJ er
ess ee
Ġout standing
93 1
73 4
Ġevery body
Ġappro ximately
Ġexc ited
Ġcomput ers
Ġthrow ing
Ġdemocr acy
ĠBol ton
C P
b ook
Â ł
Ġf al
Ġf ru
ĠM anchester
ack ed
Ġthan k
Ġrun ner
ĠIn vest
Ġrep resents
Ġgr ade
ph y
Ġfew er
ĠBe ijing
Ġfail ing
Ġocc asion
Ġident ify
Ġsoph omore
Mich ael
P at
b ec
Ġthe rap
ou ri
Ġg ang
ĠM useum
ĠF our
Ġch ap
ĠE lect
Ġqu oted
90 2
ĠY ou
ug by
Ġcol lected
Ġ199 3
ĠTr ade
Ġnation wide
Ġconfir m
Ġz one
Ġadop t
Ġextrem ely
k es
r ich
on ed
Ġm ent
ĠD ub
ĠJ am
ĠL ittle
ĠG e
Ġcomp rom
ĠCh annel
Ġrec overed
Ġmin isters
Ġend s
Ġdri ven
Ġpropert ies
Ġca using
Ġsal ary
Ġsuppl ies
ĠColumb ia
o ard
s un
w ater
Ġw ine
Ġl it
Ġg ro
ri x
ock s
rib ute
Ġprof ession
Ġintern al
Ġinit ially
Ġimprove ment
Ġgrant ed
ĠNet work
Ġunl ikely
ĠSqu are
Ġaggress ive
f e
Ġw ound
ĠT ampa
Ġun ivers
Ġexp ress
Ġimport ance
ĠHar ris
Ġlegisl ative
Ġassoci ation
ĠHam ilton
ĠDon ald
ĠOak land
A ust
u ana
ĠC helsea
ĠF eder
ĠL abor
Ġnot es
ond a
iss ions
44 1
ĠPro t
Ġrank ed
ĠCra ig
OND ON
H ar
w r
er k
at re
ly n
ĠB all
ĠP oint
Ġch osen
Ġse es
ĠK ash
Ġper for
av al
43 1
Ġgovernment s
ĠAn thony
ĠAl i
Ġmanag ers
Ġfore st
be at
Ġart ists
ĠCle veland
Ġsurround ing
Ġacadem ic
Ġvir us
. ''
Ġb ail
is a
ro g
ter y
ĠB ase
ĠP arliament
ĠH ur
ab it
ok ie
old s
Ġwork er
Ġcomm un
Ġlo aded
97 2
ump ed
Ġbre aking
Ġreported ly
Ġveter ans
Ġregul ations
M s
c ont
f ree
l aw
ĠW ars
ĠG reat
amp les
66 1
66 2
Ġmain tenance
Ġpain t
Ġstrugg le
Ġresident ial
Ġincreasing ly
Ġconserv ative
Ġreferend um
b ound
r ain
it ory
un ning
ri ers
ĠH art
ct ions
ĠJ osh
ĠL in
ĠG aza
ĠN FL
out heast
90 1
47 1
Ġ5 1
Ġent ering
duc ing
ĠCo le
Ġchamp ions
ĠEx p
Ġscore s
Ġquestion ed
Ġterror ism
Ġlink ed
Ġspons ored
Ġbatt ers
Ġwonder ful
Ġswe et
Ġdisappoint ed
D P
Ġt ennis
ut t
Ġe g
ĠA v
ĠB ureau
ĠD ow
ĠT okyo
ĠF il
Ġle aves
ĠSt ewart
Ġapp ropriate
Ġmanag ing
St ate
Ġcoach ing
Ġattack ed
Ġhouse hold
ows ki
Ġfly ing
Ġcritic ism
Ġbirth day
Ġathlet es
ĠAdministr ation
Ġcircum st
c ol
d y
Ġf ol
Ġf aster
Ġp ending
il it
Ġg arden
ac o
Ġr ivals
ĠH y
ĠJ ess
Ġup coming
Ġun us
ors es
Ġro of
73 6
Ġph ones
ott ed
Ġoper ate
Ġmain ly
Ġclass room
Ġvol ume
Ġstay ed
ij uana
Ġstrugg led
Ġerr ors
Ġsubst ant
Ġcomfort able
Ġrespective ly
Ġbeaut iful
d ale
m ile
he m
ĠF BI
ĠL ord
Ġv ision
73 3
Ġcol or
Ġdet ect
Ġadv is
Ġfact ors
Ġconv inc
reg on
roy o
rig uez
ĠFin ancial
ĠMount ain
Ġdismiss ed
Ġrelative ly
ĠLeban on
D ef
H L
I R
p et
r ison
Ġs and
ol id
ĠL ady
ĠL arry
99 2
98 1
44 2
97 1
46 1
Ġass ists
ĠCount ry
Ġdevelop ers
Wh y
Ġconst it
Ġline up
Ġanal ysis
sen al
Ġsav ings
Ġarchit ect
A FP
R o
R eg
ed ed
Ġto t
Ġm ic
ĠA ff
Ġy ard
ĠI owa
ĠD own
Ġne ither
ĠO ut
98 2
Ġpre gn
47 2
Ġfl u
Ġsw itch
Ġprot ests
ĠAnd y
Ġdiscuss ions
Ġren ov
Ġfinish ing
ĠChamp ions
ĠRob inson
Ġfix ed
Ġcolle agues
Ġimpress ive
p ass
r am
ed s
Ġh al
Ġg ay
em en
ak s
Ġsh ift
Ġsp ots
Ġk it
Ġcomp ar
Ġim ages
Ġcons p
46 2
ever al
Ġdep loy
Ġpay ment
Ġdra wn
Ġlow est
Ġcelebr ation
Ġport ion
ĠScott ish
ĠDel hi
Don ald
Ġtransport ation
idel ines
ĠTenn essee
Ġhelicop ter
L ONDON
M P
c ar
h alf
t urn
re al
ĠS ac
ĠS us
43 2
77 7
Ġrem ove
ars h
Ġste el
yl van
Ġwitness es
Ġvent ure
R ich
d eg
p ing
u ate
Ġt aught
it age
Ġm echan
Ġre h
ol ph
el er
Ġsh arp
99 1
ick en
Ġhigh way
Ġhigh light
Ġob t
idd en
Ġequ al
Ġneigh bour
ĠCommission er
Ġaccount ing
ĠSpr ings
ĠCap ital
Ġscient ists
orne ys
Ġdedic ated
A g
ou red
ent er
Ġl iqu
Ġg ains
am in
ĠR ose
ĠN elson
Ġtr uth
ical s
Ġback ground
Ġmark ed
ĠSh i
Ġsw ing
imin ary
Ġtyp es
Ġmult i
Ġrob ber
Ġminor ity
ĠWall ace
Ġmach ines
ĠHaw ai
ĠMot or
Ġcontrovers ial
ĠTechn ology
J ack
e ing
it che
ĠM ajor
ĠB ir
Ġas ide
Ġcon ver
ĠH ong
ĠG lo
Ġback ed
73 9
ĠAr m
Ġtax p
Ġdeal ing
Ġstat ements
Ġgreat est
Ġtest ed
ĠAd ams
Ġsol utions
Ġemer ged
fort un
Ġspons ors
Ġelig ible
C AR
O P
c ow
e qu
ut s
ĠC ost
Ġy en
ĠJ ay
ĠN ash
ĠE conom
Ġtr ained
ell a
act ive
Ġcomm unications
Ġpay ments
Ġpass ion
Ġturn s
Ch ina
ened ict
ĠOr gan
Ġcelebr ate
May be
ĠLiber al
exp ected
Ġexcell ent
0 6
7 50
a ud
ed y
Ġto ols
ĠA th
Ġr ub
Ġr iding
ag ers
ĠF amily
oun ter
Ġun iform
lo ad
ony m
Ġequ ity
Ġval ues
Ġprep aring
Ġacqu ired
Ġcooper ation
J apan
Ġre in
Ġbe ach
ir a
ĠD ick
ĠJ ournal
ust ed
are t
Ġpre l
Ġent hus
Ġph arm
Ġpolit icians
Ġmov ies
Ġjoin ing
ĠAir port
Ġcop y
Ġinn ov
Ġpurp ose
ylvan ia
00 1
Ġag es
aw i
Ġadd s
Ġbl amed
Ġrel ay
Ġmod els
IT Y
A uthor
Ġl augh
Ġr ich
ĠD aily
Ġex cl
Ġnew ly
Ġrec on
amp ton
ĠComm unications
aren ess
enn ifer
Ġvis its
Ġob lig
Ġqualif ied
pro fit
Ġencour age
Ġtack le
ĠLegisl ature
D an
S everal
b ar
r imin
it ure
Ġh urd
Ġre ject
ĠA k
ĠD VD
Ġsh ape
ass ador
ock ing
Ġkn ocked
Ġcr uc
Ġbr ings
Ġdisc ip
Ġkeep s
Ġpit ches
Ġlet ters
Ġphot os
ĠMont ana
deg ree
B ush
I m
L C
P aul
e k
u j
er as
ĠC arter
ĠL ane
um ber
Ġcl imb
Ġher self
Ġloc ations
ĠSh ow
Ġlist en
Ġexpl ain
Ġcor ruption
Ġclos ely
Ġdead line
Ġorig inally
Ġbrother s
Ġill ness
Ġdrink ing
Ġut ility
Ġpun ish
Ġmax imum
Ġheav ily
ĠKash mir
C all
C ons
D em
M or
N orth
S B
e als
Ġs ick
ĠS l
ĠS her
th ird
ri ff
ĠD am
ĠR af
ĠF oot
Ġex cess
Ġwhe el
ĠSt and
Ġar ts
Ġatt ending
ĠRe al
Ġfire fighters
Ġfall en
Ġeas tern
Ġtour ism
Ġgas oline
ĠCharl otte
N Y
d ie
m o
u ros
y al
Ġc ry
Ġf lex
ĠS addam
et ts
ĠB BC
os a
Ġcon gress
ĠD utch
ĠW right
77 6
ĠMar ine
Ġsever e
Ġstri ker
Ġroom s
Ġneigh bors
Ġimprove ments
Ġpil ot
ĠPenn s
auk ee
W est
Ġt rop
Ġth rown
Ġre vers
ig ators
ĠM aine
Ġr um
ĠW omen
ĠH o
Ġv ill
oc ol
pp er
Ġun ve
ĠCh amber
Ġserv es
omm od
eep er
ĠAl an
Ġtrad ed
Ġnetwork s
Ġpet ition
ĠWind ows
ĠEar th
ĠInt el
f all
f ront
Ġs ew
Ġp overty
al y
Ġl aid
ĠS k
Ġfor ms
ĠG onz
ell er
Ġus er
Ġcap able
ĠTr ust
Ġrepl acement
Ġrecommend ations
C urrent
b est
f eld
l ah
m aker
s a
w a
Ġwh atever
Ġpro hib
ĠH ear
ath y
77 4
Ġbr ight
Ġtri es
Ġyour self
Ġ8 00
Ġ19 70
Ġeduc ational
Ġcompl ained
Ġrepresent ing
Ġcommission er
iec e
ĠHol lywood
Ġsurv ived
Ġinstit utions
F ollow
b urn
k ey
Ġt ank
Ġc ore
Ġm atters
ion e
ur a
ĠD ean
Ġ2 50
Ġout come
Ġres ume
Ġres igned
Ġro t
Ġreg ime
Ġass um
Ġrel atives
Ġcour ses
Ġconst ruct
Ġlik es
Ġviol ent
ĠSe a
Ġcomb ination
Ġcle ared
Ġsett led
Ġexpand ed
Ġwid ely
Ġelectric ity
ĠSo ft
Ġcircumst ances
A ss
B rown
Ġg ift
ut ely
ĠC ape
ir ts
00 3
ĠP ut
ĠH oll
Ġany where
Ġmeet s
Ġprov ider
Ġent r
ĠSp urs
Ġmot iv
Ġrepresent ed
Ġcomb at
Ġfeat ured
Ġsem if
Ġprosecut ion
ĠDef ense
C onn
h at
re te
or ough
Ġf inger
Ġh ook
Ġd ivers
ĠC ru
ĠC elt
00 7
ĠT an
ew ay
ĠG al
ess or
Ġpl astic
Ġex ceed
Ġse a
Ġacc ommod
Ġpre par
Ġweek ly
ĠAn t
Ġconf ront
Ġappro ve
Ġbank ing
Ġbank rupt
Ġgrad uation
Ġple ase
Ġencour aged
Ġrecru it
TH E
ĠLat in
Ġordin ance
ĠClin ton
M S
m osp
w aukee
Ġ 85
in ent
00 2
00 8
os ite
ĠR en
Ġoff enders
Ġres idence
ass y
Ġacc us
Ġsl am
An alysts
aren ts
Ġev ac
ĠSen ior
Ġengine ering
Ġmention ed
Ġpriz e
Ġbehav ior
ĠOffic er
D C
N eal
O C
g ests
n ic
n ew
Ġc oin
Ġto ug
Ġh orses
Ġre ward
Ġbe ar
Ġfor g
00 5
00 6
00 9
ĠT erry
ag an
ĠH old
ĠL ibrary
ĠN az
ĠCh ildren
og an
Ġ5 8
Ġcr ashed
77 9
ene g
Ġsug gests
Ġris ks
Ġsoft ball
Ġprison ers
Ġcelebr ated
Ġimpro ving
ĠQue ens
Ġimmigr ation
ĠBru ce
4 50
G et
J une
b ie
c ell
he ld
re hens
Ġto ll
Ġh at
00 4
Ġtr uly
Th ough
Ġstr ing
Ġ7 2
Ġform al
Ġtrave ling
Ġste pped
Ġcult ural
Ġprior ity
Ġcapt ured
Ġathlet ic
Ġcateg ory
M E
M on
Ġre act
ĠA rea
ĠB alt
ĠB loom
Ġr ush
um a
Ġj our
Ġinc ent
Ġ5 7
Ġrep air
76 4
49 1
49 2
Ġhand ling
pl us
Ġcompet ing
Ġfield er
Ġball s
Ġdist ribution
Ġtrave ll
Ġlim its
Ġdoz ens
da q
% .
f inal
Ġf urn
Ġm ol
Ġm ile
Ġl ie
ut er
ĠB et
ĠT wo
ĠJ en
Ġ200 8
ach us
Ġprop er
ope z
Ġball ot
ĠAb u
Ġstay ing
Ġannoun ce
ĠPrem ier
Ġappl ied
ĠEag les
Ġcompens ation
i at
Ġc able
Ġf led
ĠS ab
ĠC ITY
Ġst eal
Ġcon cept
ĠR ey
ĠN ort
ues ts
Ġbl ame
Ġreport ing
ĠEn vironment
Ġve get
Ġbeh alf
Ġground s
ĠCorp oration
Ġdemand ed
Ġpush ing
Ġsurf ace
ĠMarsh all
Ġfal se
A pril
Y et
i ac
Ġp ip
ĠC at
ĠC ro
ill o
ĠA C
us al
ess ed
man ces
80 5
33 6
ov iet
ĠBr idge
Ġfl owers
let t
Ġinst itution
ĠCo oper
atter ed
Ġart ist
Ġrank s
Ġstrike outs
John son
Ġcat cher
ĠCard inals
sun ami
H P
b ow
f ast
l ines
m eter
Ġm urd
im al
Ġr id
Ġr all
ĠJ unior
Ġch ose
Ġover night
Ġdes k
Ġrel ax
Ġ6 4
76 9
Ġdon ated
ling ton
ĠAust in
Ġestim ate
ĠDemocr at
Ġgradu ated
Ġur ban
Ġsat ell
Ġbeg un
Ġiniti ative
Ġadop ted
Ġsuperv is
Ġinquir y
M o
u ations
Ġ 67
Ġt un
Ġa f
Ġs essions
Ġc oc
it able
ar ch
as daq
Ġm ut
ent ed
ĠS ub
Ġsh if
ab et
Ġun ions
Ġ5 6
Ġdem ands
br idge
Ġmar ijuana
Ġple a
ĠRes erve
Ġste ady
Ġreach ing
ĠMus ic
Ġreform s
Ġwel com
ĠSystem s
Ġprel iminary
) :
g ar
u zz
w hel
Ġh am
Ġfor get
ĠA ut
ĠL im
ĠG ames
Ġinc idents
ix on
85 5
Ġdef ending
Ġdef ender
Ġprop erly
Ġopen er
loy d
ĠDep uty
Ġaff airs
Ġmus ical
Ġpract ices
Ġcal c
ĠSa udi
ĠRod riguez
Ġmist ake
ĠIndones ia
Ġfranch ise
C om
L aw
P R
Ġg ap
ir ates
Ġsa ved
ĠH or
ab ama
ord s
Ġsc ale
Ġrec ip
ĠV ol
Ġteam mates
oss ible
33 3
Ġem pt
ĠSh aron
Ġpublic ly
Ġfind ings
Ġorgan ized
Ġel sewhere
ĠPark er
Ġcrit ics
ĠII I
Ġunderstand ing
itz er
ĠMiss ouri
ĠMos cow
Ġdestroy ed
0 4
G u
W ell
b on
in ers
Ġthe ater
Ġs ons
Ġc rop
Ġb ike
Ġl ift
st ra
el ing
ĠB aker
Ġr ating
ak h
ak i
Ġex port
ik h
Ġ5 3
Ġrem ov
olog ist
Ġinform ed
ĠHe ad
ĠAd v
Ġsold ier
Ġappear ances
ĠAb bas
Ġdam aged
Ġlic ens
Ġsignificant ly
Ġassoci ated
Ġappoint ment
Ġdeg rees
ĠQue en
Any one
Will iam
Ġmarg in
Ġargu ment
ĠPent agon
F ive
b oy
s ec
Ġs ad
Ġb orrow
Ġp ole
ĠW el
ra h
Ġwe alth
ĠO per
Ġun employ
ĠV illage
man n
Ġatt orneys
Ġ5 4
ĠInd ians
Ġinst alled
Ġpat tern
Ġtour ists
ourn ament
Ġtrip s
Ġpred icted
Ġachie ved
Ġvac c
Ġwat ers
Author ities
ĠPenns ylvania
M ic
M ike
R I
re ation
Ġc orn
Ġc iting
an im
Ġb in
Ġp al
ĠS on
Ġnot iced
ĠO regon
ens us
Ġus ual
33 7
Ġmem orial
Ġfound er
Ġstrong er
amb ling
Ġfeat uring
resp ond
Ġcoff ee
Ġcurren cy
Ġunus ual
achus etts
F ort
h ard
r ament
Ġw et
ĠM ir
ĠM asters
ir acy
ĠP ant
ear ing
op y
ĠF uneral
Ġch annel
ick ets
Ġqu it
Ġdec re
80 8
88 8
Ġ6 00
Ġmark s
Ġgu ards
Ġdon ations
Ġph ase
Ġappro ached
Ġpresent ation
Ġresult ed
Ġtyp ically
Ġcheck s
Ġcontact ed
onn a
Ġcam era
ĠMur phy
ĠHot el
ĠAff airs
E ST
H ere
g t
Ġ 63
Ġc e
ed a
Ġto ol
ac re
ĠM etro
ĠP eople
Ġv ul
Ġv ital
ort ion
ĠK at
Ġwe b
ign ment
ĠY outh
Ġrep ut
73 2
Ġcent ers
Ġsur ge
Ġsupport ing
Ġprom ise
Ġemploy ers
Ġclaim ing
Ġsk in
Ġmet al
ĠWh it
alt ies
Ġport fol
Ġdraw ing
IL LE
Ġcrew s
ĠHum an
ĠTurk ey
ĠAbd ul
Ġrough ly
Ġrepeated ly
Ġinvolve ment
Ġfel ony
S om
f ire
u ce
Ġt ape
as hes
ĠB urn
op her
ĠH end
ĠF alls
out e
Ġint ention
Ġdes ire
Ġdes per
Ġann ually
ull ah
Ġinst ance
Ġdidn Ã¢
Ġelect ronic
Ġland ed
Ġsuff er
Ġnewsp apers
Ġmotor cy
ĠOn t
Ġjournal ists
Ġfat al
Ġkil omet
Ġacquis ition
S te
h r
in ct
ĠM od
im ore
Ġat mosp
ĠB enedict
ĠP an
ak en
ĠH on
oc a
ies el
Ġover whel
lo g
73 1
85 8
Ġgu est
ĠAr gent
Ġfound ation
ĠLe ader
Ġ199 1
Ġoper ates
Ġregular ly
Ġtarget ed
Ġsurv iv
Ġaw areness
Ġsym b
Ġdepart ments
itche ll
L S
Ġp up
Ġg ross
ĠA st
ĠT urn
ĠG arden
80 4
Ġ6 2
ĠAr ch
Ġsm oking
Ġoper ators
Ġorgan is
Ġdr ama
Ġtre as
Ġtell s
Ġgradu ates
Ġattend ance
ĠSy ria
Ġmanufact urers
Ġprem ium
ĠFin ance
ĠMass achusetts
Ġmount ain
Per haps
ĠRad io
Aust ral
Ġcruc ial
Follow ing
Ġjour ney
Ġmol est
l an
Ġa st
on ies
Ġb ars
ut her
ĠB ou
ĠD eb
ĠW in
ĠJ erry
ĠN ov
Ġup per
itt ers
row s
Ġam azing
Ġrem ark
ĠAl bert
ĠAl abama
St ud
Ġbre ast
Ġdr ag
aught ers
Ġcontribut ions
ĠFrank lin
ID S
yc ling
ĠTre as
Ġperfor mances
S C
S up
c asts
h it
p s
t ic
y e
Ġt rem
ĠB art
ĠI P
ri ot
ĠT oy
ĠT rib
ĠH ug
ĠF ree
se in
Ġcomp lic
Ġrec overy
Ġother wise
anc er
Ġmod er
Ġfast est
Ġcoll abor
Ġpred ict
ĠCard inal
ĠEv ans
lah oma
R ight
U N
Ġt sunami
Ġc art
Ġm yst
Ġm unicipal
et ing
ig ation
ch o
Ġal ert
ĠR h
ĠH al
Ġag g
anc he
Ġ5 9
Ġmon it
Ġmon itor
33 4
ĠSp ecial
Ġfil ing
bor o
Ġap olog
Ġchampionship s
Ne xt
Br it
Ġesc ape
Ġdomin ated
Ġprompt ed
Ġamend ment
P H
V ILLE
a is
i ences
r ad
Ġm ir
Ġe uros
se x
Ġhad n
ĠU C
Ġpr int
Ġco ok
85 6
Ġrem ote
Ġshould n
Ġ199 2
Ġmed al
Ġspec ies
Ġext ensive
ĠEng ine
Ġpot entially
iers hip
ming ham
ĠAtl antic
A ct
t le
t op
re nd
en z
Ġto uc
us ch
ul ations
ĠW olf
ĠH IV
ĠG er
Ġv ast
od es
Ġun anim
Ġexp orts
Ġop ens
Ġthem e
80 3
Ġmem or
Ġofficial ly
Ġpass es
ĠSun ni
Ġnec k
ĠMil an
bour ne
ĠCarl os
Ġver d
ĠJac ob
Ġsubm itted
ĠFoot ball
p orts
w ich
Ġ ,
Ġm ound
st yle
Ġg otten
ĠS om
el le
ĠM arg
ch ildren
ĠP as
ĠI BM
est y
ĠD ak
ĠF arm
Ġpl ot
iv an
Ġsc andal
Ġsome body
85 3
85 4
33 9
Ġdevelop er
Ġmembers hip
Ġtrans l
ĠRuss ell
Ġsupp orts
Ġcas ino
Ġcoal ition
Invest igators
ĠAth let
H igh
M C
Ġs ight
it i
es a
Ġm igr
Ġre action
Ġn obody
ĠS ud
un ction
ĠB apt
ear ly
ĠT ech
ĠG iants
qu es
ell or
ĠK y
Ġper mit
Ġres ort
Ġcont rolled
av ed
ick ing
ater al
Ġsur ve
Ġdirect ed
Ġwar rant
Ġfact ory
Ġproduc ers
ĠJu an
ĠGo vern
Ġtrack s
ĠPal m
Ġblock s
Ġconvinc ed
L ook
O ut
T e
Ġ 76
Ġt emporary
or g
ed ia
Ġp ed
Ġto ss
Ġm outh
Ġd uties
Ġe uro
ĠS oviet
ĠC all
ĠD ennis
ĠT am
ĠW ard
ĠG ard
ist ant
ĠSt ation
Ġac ts
ord ers
80 6
85 7
Ġfl ights
Ġdep uties
Ġext end
Ġtown s
cl ass
Ġtarg ets
ĠMil waukee
rehens ive
rament o
b n
ĠS ir
ĠC as
ĠC our
Ġst ruct
ĠB ud
em a
ĠR angers
ĠH ist
Ġass embly
Ġact ual
Ġgu ide
Ġfound ed
Ġdeal ers
Ġspe aker
Ġexc iting
ĠMor ris
ĠHol y
Other s
Ġrequest ed
Ġsuper intendent
Ġunc ertain
urb an
Ġdelay ed
Ġinn oc
Ġult imately
ĠDoug las
Ġobvious ly
Ġvend ors
E m
u y
an j
Ġb urg
Ġm al
Ġd ad
le vel
Ġe lementary
ot o
ir ty
th ouse
ĠF ed
ant on
Ġtr ick
Ġacc ur
Ġadd ressed
80 7
Ġknow ing
elf are
Ġreal ize
Ġproduc er
ron ics
ĠGo ogle
Ġmom ents
Pro secut
Ġtruck s
Ġmedic ine
Ġresc ue
Ġcoordin ator
Ġconclud ed
6 50
P al
R ob
g om
Ġw ing
Ġh iring
as er
ac co
ĠC ur
ot hes
ĠT o
Ġun known
own ers
ition al
85 9
ann on
Ġinvestig ate
Ġshort stop
Ġhon ored
Ġdev ast
Ġcro re
Ġbankrupt cy
Ġreput ation
8 50
B esides
S S
u able
z y
it r
Ġp ock
ĠM y
ĠH ard
ĠG riff
ĠN ic
ĠK urd
Ġcl othing
Ġimp ressed
Ġimp ossible
Ġprov iders
Ġspec ulation
Ġfund ament
ĠHe at
Ġindust ries
Ġ198 9
ĠRed s
Ġconc rete
ograp hy
Ġbond s
En g
ĠGold en
Ġpurs ue
ĠPitts burgh
Ġvul ner
3 13
7 60
v ant
Ġt ub
Ġc ul
Ġm ph
Ġg uests
Ġst ages
ap es
ia vo
Ġte ens
In ter
Ġmem ories
ĠAr royo
ene z
Ġleg s
ĠSc ience
Ġche ap
work s
Ġpark s
OR T
Ġkick ed
Ġcontr ast
ĠGar cia
ĠCub s
Ġfle w
Ġperm ission
Ġstrateg ic
Ġemot ional
Ġenh ance
ĠTransport ation
C he
L U
a e
g ie
Ġ 66
on ic
Ġp ump
Ġh ockey
Ġl a
Ġl ux
Ġg ym
Ġe ating
Ġst able
Ġcon sequ
ĠW ith
ĠG ulf
ĠN eb
Ġso le
ens on
gr icult
Ġreg istration
Ġbl ind
ĠMar l
Ġ6 9
sh ot
ipp i
Ġpar ade
ced ed
Ġstrong ly
Ġsusp ension
Ġhon ors
Ġparticip ation
Ġbeat en
Ġprosecut or
Ġqualif y
Ġrecogn ized
Ġabs ence
Sen ior
Ġcomprom ise
ĠSoft ware
ĠDak ota
3 17
3 20
D ep
M att
S W
Ġf ence
Ġe t
ad ow
ĠM en
ĠM at
ĠM all
Ġst ole
ow e
Ġsa ves
ĠB ah
ĠW y
ĠJ ennifer
ĠE nd
Ġag ed
Ġup gr
ine z
Ġdis ag
aw are
Ġinter im
80 9
Ġbr anch
Ġlong est
Ġhand ful
ĠSp eed
Ġstat istics
inc ial
Ġactiv ists
Ġca uses
cast le
Ġrefer ring
Ġmer ger
ĠMatt hew
Ġcas ual
ĠConn ect
Ġproced ures
Ġgather ing
3 30
H aving
L ocal
c alled
d em
Ġt ent
in ts
Ġf ant
Ġbe er
os is
um es
ĠO cean
ase y
Ġcons olid
Ġph il
Ġvict ories
irl ines
ann a
Ġcre ation
ĠMan ager
ĠSec urities
Ġaut o
Ġparticip ating
Ġsurpr ising
ĠJeff erson
Ġweap on
ĠBow l
ĠRog ers
ĠStan ley
Ġliber al
Ġaccompl ish
Ġtast e
Ġsatis f
Ġabsol utely
Ġkit chen
ĠBapt ist
S an
a uty
m aking
al o
Ġst ressed
ir i
ĠB h
ard o
oc ation
ult y
ĠIn s
ĠBr on
Ġext ension
Ġche st
Ġtechn ologies
Ġple as
ĠIndian apolis
Ġthreat s
Ġpromot ion
Ġep is
Ġhur ric
Ġprosp ect
ĠWell s
ĠBir mingham
Ġo urs
Ġp ap
Ġp owers
ar o
Ġn ights
Ġg e
ur st
ĠM un
ĠM ets
ĠB and
Ġan onym
Ġ1 20
Ġr anging
ĠT ournament
ĠL ad
ĠL aur
Ġsec ured
Ġdes erv
inc inn
vious ly
Ġjud icial
Ġread ers
Ġgener ate
Ġwind ows
Ġrecogn ize
Ġpers u
Ġprotest ers
ĠLaw rence
Ġassess ment
Ġresign ation
Ġdial ogue
Ġbare ly
Ġatmosp here
8 15
9 50
a us
i ated
u its
Ġ 68
er ies
Ġc raft
Ġb arg
ĠS ix
Ġr ugby
ĠD h
ĠF err
ĠN at
ĠV en
Ġdis aster
Ġthere fore
anc ellor
Ġgr ants
77 1
77 2
ĠPro ject
Ġscore less
Ġadministr ative
Ġassoci ate
Ġsil ver
Ġlob by
Ġwithdraw al
3 25
B ay
C ount
R ed
h ow
t hen
z en
at ab
es us
Ġm os
Ġd aughters
Ġn erv
Ġfor th
ĠC emetery
ur f
ch ing
ĠP rop
ĠL ocal
Ġch ip
Ġsh ock
Ġsh oes
19 90
Ġro ster
ov ers
Ġinvest ments
ĠSh a
Ġdisc ount
Ġinst ru
Ġhapp ening
Ġfriend ly
Ġsuccess fully
Ġcond em
Ġprob ation
Ġchar ity
Ġpack ed
ĠMiss iss
Ġcontrovers y
Ġnurs ing
ĠHus sein
Ġclim bed
Ġjur ors
ĠBarb ara
ĠOk lahoma
ĠSac ramento
Ġobt ained
Ġexcl usive
3 75
9 78
a uc
he im
Ġs y
Ġl ies
Ġbe ef
ĠS av
ĠC ab
ĠM other
ĠR oc
Ġk ing
Ġres erve
Ġint ers
Ġexp lor
88 6
ĠMar ia
ah oo
83 7
36 4
Ġrequ ests
cept ion
Ġquarter back
ĠEd ward
ĠWar ren
Ġenc ounter
Ġgl ad
Ġsearch ing
Ġcam eras
war z
incinn ati
3 60
9 16
f inals
m ission
Ġ era
Ġis ol
Ġy ellow
ĠD od
ĠN ev
ap se
Ġk een
Ġme at
Ġno vel
83 6
Ġbel ief
Ġsl ipped
37 4
Ġput s
Ġhit ter
Ġboard s
Ġarg ue
New s
Ġcoll aps
Ġeffective ly
ĠSim on
ĠRog er
ĠPlan ning
ĠGra ham
ĠBul ld
Ġeld erly
Current ly
9 70
V I
u i
u ated
Ġ ing
Ġt iny
er b
Ġp ages
le ase
ĠS ean
Ġfor um
ĠC ivil
ur se
ĠM eth
ap ing
ub b
ĠIn f
Ġimp orts
Ġass igned
Ġact or
Ġleg end
Wh o
Ġhom ered
iven ess
Ġtrave led
Ġtyp ical
Ġrout ine
ĠPrem iership
4 25
4 13
4 75
J eff
N et
W ork
c ts
l ad
in ations
Ġh ire
ro e
ĠS ri
im a
ĠI R
ĠH om
ĠF el
ĠN ich
ive ly
Ġab road
Ġout door
ile y
ren e
Ġcomm ander
Ġco vers
88 7
tern al
Ġperform ing
Ġspecial ist
roll ing
Ġbuy ers
Ġblock ed
ĠSw ed
Ġentire ly
Ġrecogn ition
ĠPol and
Ġang ry
Ġconsist ent
Ġsatell ite
4 19
4 40
A re
T C
a ired
f ather
u ous
Ġt act
Ġp apers
Ġin mates
ĠA BC
ĠP ad
ĠI D
ag g
ave l
ĠG irl
ab eth
ud son
ant ed
ĠCh ild
Ġrec ording
Ġany body
88 3
Ġhard ly
Ġalong side
ĠSch iavo
Ġpub l
opp ers
Ġban ned
Ġarri ve
Ġlink s
win ning
Ġlif ted
Ġaw a
ĠTig er
ĠClass ic
Ġprinc ip
ĠCirc uit
Ġprofession als
6 25
7 75
9 25
L ater
e xt
Ġs ear
ay ed
Ġl ights
ĠS ky
ĠM ick
ow ered
Ġr and
ĠI an
ĠR et
ĠL y
ik es
ĠV ice
Ġro okie
Ġatt itude
ind er
ib ilities
ĠAr k
Ġdel iber
Ġland sc
Mr s
Ġocc as
Ġdiv id
etro le
Ġthreat ening
Ġdemand ing
Ġmess ages
Ġexperi ences
Ġfavour ite
ernand ez
atz inger
Ġabandon ed
Ġfru it
Ġwelcom ed
2 000
3 40
4 95
8 70
9 20
R AN
Ġhe l
ĠD ur
ĠD iamond
ĠG a
ĠN avy
ĠK l
ra id
ail and
In c
Ġwork sh
arg o
ank ed
ĠIn n
Ġcr icket
Ġstr ict
76 1
Ġsm art
ĠSh an
Ġeff icient
âĤ¬ÂĿ .
Ġdet ain
Ġfr ame
Ġcamp s
ĠBar ry
Ġexpect ing
Ġcontrol s
Ġparticip ated
Ġfair ly
Ġbird s
Ġprim arily
Ġscient ific
Ġmort gage
Ġmaint ained
Ġempt y
Ġverd ict
3 19
3 99
4 99
6 30
7 40
m ember
t a
Ġb urd
id ency
ĠS gt
and ed
ate ur
Ġsh ops
act ers
Ġrec all
Ġear ning
Ġgu idelines
Ġann ounc
ĠLe on
Ġprom ises
Ġinf ield
Ġsw ept
Ġhost ed
Ġmid fielder
ĠPal ace
ĠMed ia
Ġchar acters
Ġresol ve
Ġroll ed
Ġbatter y
Ġcert ific
Ġconstit u
etrole um
4 20
4 70
6 23
9 15
9 19
9 13
9 18
9 60
G eor
M e
b el
w estern
Â ´
Ġt ip
Ġf oul
Ġb ath
Ġm ap
st ream
ur ches
ĠB eck
Ġse ized
Ġcont ribution
ĠV a
Ġinter p
ĠInd ep
ĠAl aska
ĠMc L
Ġadv ised
Ġperson ally
Ġdel ight
Ġaff ili
ĠCar r
Ġbad ly
Ġinterview s
ĠMex ican
Ġcal m
Ġful f
Ġiniti atives
ĠDun can
Ġtot ally
ĠEconom ic
Ġportfol io
3 15
4 18
4 29
4 10
4 30
4 48
4 65
4 35
4 90
6 40
7 24
7 27
8 45
9 17
9 10
B ack
O h
l arg
Ġ /
er ation
or i
Ġo w
Ġb ats
il ateral
ay a
Ġl oud
ĠS el
ĠC orn
et ary
ĠM itchell
Ġan k
ĠR oute
ĠT odd
ĠL i
ok es
ure n
ang es
ash ing
55 5
76 2
Ġlong time
Ġfind s
Ġreal ized
Ġhard er
for ce
yn am
Ġconn ected
ĠAlex ander
Ġconstitution al
bre ak
Ġdeleg ation
Ġtrem end
3 29
3 10
3 65
3 95
4 15
4 68
4 38
6 20
6 75
8 16
8 20
8 30
8 80
9 24
9 75
9 38
9 65
F ire
Ġ 73
or ry
Ġc rown
Ġd u
Ġd il
Ġl aps
ut r
ĠC rown
Ġst uck
ĠB a
Ġcom eb
ĠR idge
ĠT ime
ĠG ro
Ġch ips
ĠN ad
ect ions
ell i
Ġout look
Ġun expected
ond uct
Ġover come
Ġen able
ĠV ill
Ġpe ak
row ing
Ġsm ooth
Ġmed ium
Ġbro ker
Ġpost p
Ġren t
Ġcoll apse
pro f
Ġmoment um
Ġshut out
ĠSuper intendent
Ġlab el
Ġparliament ary
Ġgrab bed
Ġdram atic
Ġunderst ood
3 26
4 16
4 24
6 17
6 60
6 90
8 60
8 98
8 75
9 28
9 29
9 45
M embers
T S
U s
W A
c ase
c ious
in burgh
ic on
Ġl i
Ġl ucky
Ġg reet
Ġe ager
et ter
ĠM ax
ch anged
th a
ĠR eb
ack et
Ġacc idents
Ġstud ying
ah o
Ġdet ained
Ġdet ailed
ĠMc M
Ġemploy ed
ĠPro v
Ġfinanc ing
Ġdriv es
ĠEd wards
LE S
Ġengine er
Ġmer ch
Ġnecess arily
Ġcritic ized
Ġpers p
ĠOlymp ics
Ġnomin ation
ĠBalt imore
3 28
4 14
6 13
6 16
6 18
7 70
7 65
8 24
8 40
9 14
9 23
9 27
9 30
9 40
J ud
P re
T E
c i
c ons
p an
re ck
Ġc abinet
Ġf ate
Ġb ull
Ġh unt
st own
ĠA cc
Ġpro be
ĠH orn
ess ing
Ġcomp rehensive
ĠO tt
Ġrem arks
ĠAr senal
Ġ7 1
Ġdevelop ments
Ġoper ator
ĠCo ok
Ġhon est
Ġhot els
Ġadministr ator
Ġlegisl ators
ĠRich mond
Ġcover ing
Ne ither
Ġconsult ant
Ġpull ing
Ġexplos ion
Ġrobber y
abet es
Stud ents
3 70
4 23
4 28
4 26
4 60
4 45
4 78
6 14
6 27
6 48
7 15
7 20
7 30
8 25
8 10
8 78
8 65
8 85
9 68
9 35
C ouncil
I raq
L a
Ġf are
Ġh ang
Ġh ike
ic ut
Ġl uck
ĠS A
ĠC incinnati
ĠA gricult
th ur
ew ork
Ġch amber
Ġv ig
Ġex it
iz abeth
app y
Ġpres erve
Ġsl ated
Ġdet ention
Ġfund ed
be k
ĠPl ay
Ġconv iction
Ġpen alties
Ġrefer red
Ġdro pping
Ġcivil ian
Every one
ĠPort land
Ġvac ation
Ġnorm ally
ĠJust in
erg us
Ġexhib ition
Ġasp ects
Ġoptim istic
Prosecut ors
ĠMississ ippi
% ,
3 14
3 16
3 48
3 45
3 78
4 27
6 28
6 45
7 99
7 68
8 14
8 13
8 28
8 90
B ur
M in
d on
f ish
g un
s m
s ki
Ġt ort
Ġw ake
it ol
Ġp in
Ġm ob
Ġth us
ĠA irlines
ĠB ox
Ġal ter
ĠD NA
Ġpro jected
ĠR ivers
Ġch arter
ist ing
ĠK irk
Ġman ner
ace ut
ĠV o
ĠV eter
Ġstud io
land o
Ġgu it
Ġfollow s
Ġpit chers
Ġinf ection
Ġdr unk
idd ing
Ġlik ed
ĠGr ant
Ġmet ers
Ġarrest s
Ġcard inals
Ġowners hip
ĠPhilipp ines
Ġimag ine
3 18
3 24
3 68
3 38
3 35
4 17
4 98
6 24
6 10
6 70
6 78
6 35
6 95
7 25
7 18
7 26
7 29
7 48
7 90
8 26
8 48
9 26
9 48
k m
Ġb urning
ay ton
Ġl ake
st ore
Ġe ase
ĠC hen
ĠP ine
ĠT ro
ĠL ock
ĠL opez
ĠN ep
ra ising
Ġwe igh
Ġen em
lud ing
ont iff
Ġdep os
Ġfall s
Ġdiv ided
hold er
Ġunc lear
ĠMot ors
Ġtransfer red
Ġbur ied
Ġimmigr ants
ĠKe ith
Ġess ential
Ġaver aged
Ġtemper atures
Ġpra ised
Ġsudden ly
ĠLin ux
Ġreh abil
Dem ocr
! "
3 23
3 98
3 90
6 15
6 19
6 68
6 65
7 16
7 98
7 45
7 95
I G
M B
c ats
r ical
x ic
Ġ 95
le vard
Ġl ane
Ġfor cing
Ġcon ce
ĠD or
ĠD omin
ĠT el
ĠT op
iz er
Ġprov ision
Ġrequ iring
ĠDe L
ĠBo eing
Ġdesign ated
ĠHar ry
Ġcirc uit
Ġattract ive
Ġcop ies
Ġexcept ion
Ġrestr ictions
ĠMur ray
Sec ond
Ġshel ter
Ġdiagn osed
Ġbon us
Ġfol ks
Rich ard
Ġburg l
Ġlux ury
' .
3 27
6 26
6 29
6 99
6 98
6 38
7 19
7 14
7 13
7 17
7 23
7 10
7 78
8 23
8 29
8 95
z er
Ġ 77
Ġf ires
Ġp m
Ġh ung
Ġre ar
et r
ĠM ason
ĠA p
ĠB rew
ri en
ri ble
ĠD al
ĠD et
ĠR and
ag u
ĠF al
ĠF orm
ĠG ib
um er
ab we
ab bed
Ġshe ll
Ġro les
ĠTh ailand
Ġpres erv
ĠThe atre
ey er
ĠBr andon
Ġdisc rimin
Ġtrans ition
lin ing
Ġproduc ing
ĠSec ond
Ġcor respond
Ġterr itory
imb abwe
Ġexpand ing
Ġencour aging
ĠMary land
Ġamb assador
ĠMad ison
Ġreserv es
Ġelimin ate
Ġhy d
Cont act
Ġarriv al
Ġsubstant ial
Ġconsp iracy
ĠQueens land
ĠBulld ogs
Ġcomeb ack
5 25
7 28
7 38
8 17
8 18
8 27
E urop
w ith
Ġ iron
in os
on so
Ġm ine
Ġd atab
ĠC ow
et ic
ĠM aj
ĠB uff
ĠB uilding
Ġan c
ĠI Ã¢
ĠL ove
od ed
19 80
ab e
ab ad
Ġout put
ĠCh and
Ġso il
Ġlo ad
Ġinter ior
ĠIn formation
Ġbel t
Ġent it
Ġ7 4
64 1
Ġsub sequ
Ġopp onent
ĠRe uters
Ġdem ol
Ġav o
ipp er
Ġpick up
Ġviol ation
Ġtreat y
Ġconsum ption
Ġpeace ful
ĠLouis iana
Ġsust ain
Ġguarant ee
Ġaccomp an
Ġtaxp ayers
Ġaf raid
5 50
7 35
8 99
8 68
8 38
C r
I AN
m as
m ers
x y
Ġh aul
Ġd ict
ĠS hel
ac on
ol t
Ġr ape
Ġr iders
ĠD rug
Ġsp in
ok er
Ġcl othes
Ġexp osed
ach ing
og a
Ġpr ayer
Ġteam mate
ath on
Ġimp l
ĠSh ar
Ġrece ption
At t
Ġcompet itors
Ġclass ic
Ġpick ing
Ġviol ations
Ġhost s
Ġdead ly
Ġmean while
Ġpromot ing
Ġterror ists
Ġslow ly
ĠBob by
Ġchalleng ing
Ġelimin ated
ĠKn ights
Ġunf air
Ġagricult ure
ĠBra ves
Ġresist ance
Ġunve iled
Ġcoc aine
8 19
8 35
H A
S im
a eda
h itter
l i
Ġt y
in ted
Ġf ab
Ġin aug
st al
Ġbe auty
ĠC P
ol ics
Ġy es
est yle
Ġj e
ĠU k
Ġcont ained
act ions
att an
Ġdet ail
Ġbro wn
Ġthough ts
Ġorgan isation
ĠNorth west
Ġprocess ing
Ġide al
Ġstre am
Ġstreng then
Ġenter prise
ĠMuslim s
Ph il
Ġele ments
Ġproced ure
Ġscen es
Ġstro ke
gom ery
Ġpersp ective
B ill
D et
G ar
J im
S aturday
b i
b us
m ont
w ick
Ġs ounds
ing ly
Ġd ont
Ġd ump
Ġre duction
ul ous
ĠU r
ĠU nder
Ġint ense
Ġexp osure
Ġend ors
Ġplan es
An n
Ġleg it
ĠCo x
Ġvol unt
ĠEd inburgh
ĠOr ange
ST ON
onn ie
Ġmag n
Ġreve al
Ġcreat ive
Ġbarrel s
Ġfrequ ently
Ġfort un
Ġanticip ated
warz eneg
A f
E A
M I
S uch
b a
c ut
e aking
Ġw ave
Ġw elfare
ar med
al ia
ĠA aron
ew hat
Ġsp ell
se eded
ĠK el
ĠK han
ven ile
Ġsc re
Ġbo om
Ġfe ared
Ġimp osed
uck s
Ġdep end
Ġsign al
74 2
79 1
Ġprom inent
ĠPr inc
Ġdiffer ences
Ġval uable
Ġ198 5
Ġadministr ators
ĠBro ther
Ġsem in
ĠSw iss
ĠCont rol
Ġtalent ed
ĠColl ins
ww w
Ġcommunic ation
Ġpunish ment
ĠToy ota
ĠHug hes
ĠGovern or
enez uel
O b
T I
a ire
k eep
Ġw rest
Ġf ier
Ġh yp
Ġd iet
Ġl ad
ĠB at
ĠB ears
ĠD ame
ĠR ub
ĠF isher
Ġv s
Ġsh aring
Ġex empt
ĠE st
Ġapp eals
ĠMar ines
Ġ6 1
ull ivan
64 2
ph is
69 1
As ked
enn a
Ġfil es
Ġland ing
Ġgirl friend
Ġsug ar
Ġadm ission
Ġsurv ive
Ġspecific ally
Ġbat ting
ici ency
Ġupd ate
ĠChap el
Ġarrang ements
ĠLuc as
Ġmonit oring
5 40
F inally
R uss
d ef
i y
m ons
Ġw age
Ġc ig
Ġc ow
Ġc up
Ġh abit
id ance
ay ette
Ġl abour
ĠS r
im s
ĠB al
Ġr ushed
ĠK yle
Ġexp lo
Ġqu ot
Ġpre v
Ġcar rier
Ġbr ands
69 2
ĠZ imbabwe
af e
ĠAt hens
Ġreb els
Ġchallen ged
ĠChampionship s
Ġdemocr atic
Ġsens itive
ĠSil ver
ĠSaf ety
Ġchap ter
Jack son
NY SE
opy right
Ġcollaps ed
ĠMeth od
Ġank le
ergus on
5 70
5 35
P ark
R em
S chool
Ġf ro
Ġb ic
ing ham
Ġm ood
Ġd re
ĠM ore
ĠP att
os oph
ĠR a
ĠR ap
ĠT en
ĠN iger
Ġdis pl
Th rough
Ġund ert
33 2
Ġmin i
Ġbus es
Ġem ail
Ġtri als
Ġ7 00
Ġtrans form
Ġmilit ant
Ġsk y
Ġval id
sc ale
Ġca ution
Ġview ers
ĠAm b
Ġadm its
ĠRes ources
Ġprem ier
Ġindep endence
Ġbul lp
ĠAh mad
ĠPhill ips
ĠSus an
Ġentr ance
Ġunemploy ment
ĠConnect icut
5 13
5 18
5 80
A c
D S
S ix
in ity
Ġb one
Ġp ays
Ġh ip
ĠA y
ĠA ub
Ġr ig
ĠG ene
oc ated
Ġlo ose
oll ar
Ġem br
ĠSp ace
Ġfac ulty
ĠCon stitution
Ġcontract or
Ġ198 8
hel le
Ġgun s
ĠPart ners
Ġansw ered
Ġsubst ance
hand ed
ĠHun ter
Ġfurn iture
warzeneg ger
5 60
B ig
O S
b ut
h urst
Ġw alls
or er
Ġf itness
Ġn om
Ġg ambling
ĠS i
ĠS at
ĠC her
am ents
ill en
Ġr amp
th an
Ġle ase
Ġsh ore
Ġsh all
ack ing
ĠK rist
Ġcl ar
Ġinc red
Ġcan cel
Ġcont ribute
Ġpart ly
33 1
Ġimp lic
Ġdisc over
ĠRe id
Ġed ition
Ġob st
ĠAll iance
Ġcho ices
Ġspons or
iqu es
Ġbag s
Ġafford able
Ġburn ed
Ġsust ained
Ġagricult ural
Gen eral
5 16
5 23
5 30
5 48
5 95
5 85
F urther
O W
R M
b ane
d ed
w ill
Ġt orn
or ate
Ġc attle
ed ing
le ading
Ġe c
ol ly
am o
et own
ĠA P
Ġpro of
ĠW ade
ĠH ans
ĠL ab
ĠG rove
Ġch urches
ĠN ik
ere z
ĠK r
Ġad vent
Ġbo ge
Ġinv asion
hip s
74 1
Ġwr it
ĠIraq is
Ġless on
Ġfut ures
Ġpick s
Ġtour ist
Ġkind s
ĠMart inez
Ġpain ting
ĠGl en
Ġcross ed
Ġbomb ing
Ġovers ee
ĠFranc is
Ġbed room
Ġrepe at
ĠPalestin ians
Ġchem ical
Ġrelie ver
Ġven ue
ĠNAS CAR
ĠShi ite
Ġaccompan ied
5 17
5 20
5 75
5 65
9 67
J ames
N early
f ace
i ary
t ure
he astern
Ġp inch
ĠS outheast
el ves
ĠB ishop
ĠP erry
ĠH u
Ġle ct
um i
ĠE p
ĠK al
ĠU p
port ed
ous ing
Ġprov incial
Ġcap abilities
79 2
Ġformer ly
Ġve to
Ġob tain
Ġhard ware
Ġspokes person
head er
Ġreason able
Ġgener ated
ĠPat rol
Ġwind s
Ġindic ate
Ġpers ons
Ġrelationship s
ĠMad rid
ĠPet ers
Ġtouch down
Ġgar age
ĠId aho
ĠBroad way
fortun ately
Ġhurd les
Ġtremend ous
Ġbullp en
3 47
5 99
E ar
M al
e lection
l ock
o ir
u ition
Â ±
Ġs its
om ed
Ġre un
Ġre ducing
Ġl ocked
Ġg if
ĠB enn
ul ance
ri ors
ĠR atzinger
ĠN ap
Ġcl imate
80 2
ĠTh is
Ġcar ries
uck er
Ġhand led
ars ity
Ġoper ated
riend s
Ġsom ewhat
Ġequ ival
Ġmod est
Ġclos ure
ĠChrist opher
Ġdiv or
Ġsuff icient
Ġinterview ed
Ġattempt ing
Ġmind s
Ġdisapp ointing
Ġretail ers
ĠInter state
Ġstrik es
ĠArab ia
Ġele v
Ġconvers ation
Ġpled ged
Sm ith
Ġtherap y
ĠOnt ario
Ġoverwhel ming
Ġtouc hed
Ġburd en
5 15
5 14
5 98
5 78
B E
C D
l en
p at
w art
ar raf
Ġth in
Ġl atter
st an
Ġhe ight
ĠP irates
her lands
ĠR ac
ĠL uther
ist a
Ġj et
ĠK ings
Ġad equ
Ġcl ash
Ġinc orpor
ĠNew castle
Ġchild hood
Ġgu idance
ale z
Ġleg acy
ĠRo ver
ĠMc Donald
err ill
ĠOr lando
ĠSy rian
squ are
Ġintro duce
ĠCath olics
Is rael
Ġesc aped
ĠOrgan ization
ĠEnvironment al
Ġrall ied
anche z
4 67
4 63
5 19
5 27
5 10
5 45
5 68
6 97
9 63
9 43
G ood
c ott
h ill
r ange
on ial
Ġh az
Ġl anes
Ġg ear
ĠS ony
ĠM erc
Ġsa ving
ĠA M
ch arge
ĠP ed
ĠP rix
ul ating
ĠD at
ĠR un
ĠT roy
ag a
ave z
ĠH udson
ĠN HL
Ġsh ar
ĠE mer
ĠU z
Ġkn ock
Ġdon ation
Ġopp osite
Ġspok en
Ġlist ening
Ġform at
Ġmus cle
Ġresult ing
ĠWar ner
Ġcompl iance
Ġbroad band
Sc ott
Ġmist akes
Ġrat ings
Ġlob b
Ġble w
olit an
ĠVictor ia
ĠDis ney
ĠBou levard
ĠMethod ist
4 93
5 38
5 90
6 43
7 44
7 73
8 73
9 47
A F
B ob
I CA
S erv
W he
Ġt ears
Ġw ore
at ers
as y
Ġm ath
ic he
ro ck
ir ac
ir ation
ĠA ud
ch arg
th rough
Ġcon vention
Ġpro ven
ĠR est
ĠT ed
ĠT ar
ĠW he
Ġch icken
qu er
ĠU l
Ġup grade
ail ey
te am
Ġdes ert
Ġdep ending
Ġ8 4
ĠComm on
Ġrest ruct
Ġadv iser
Ġbas ically
ĠSchool s
Ch ris
Ġel abor
Ġinvestig ations
Ġanal y
ĠCorp s
ĠAng els
Ġemer ging
Ġdraft ed
ĠCap itol
Ġclin ic
ĠAh med
Ġod ds
Ġconcl usion
ĠBry an
ĠPier ce
ĠBull s
Ġtroub led
Ġsubsc ri
5 24
5 28
5 26
9 44
l ow
r as
on er
Ġf isher
Ġp ontiff
Ġd iesel
ĠC abinet
ol o
ĠB or
ĠF inal
ĠL ank
ĠL LC
um an
Ġtr ig
Ġun n
iz z
iss a
80 1
te en
Ġsl ip
Ġrest ore
ĠCol omb
Ġprom ising
Ġhom eless
Ġball ots
Ġform ally
Ġmother s
Ġbreak fast
Ġhost age
Ġcomplet ion
Ġpub lish
Ġfocus ing
Ġjail ed
Ġhear ings
Ġlif etime
Ġorganiz ers
Ġtrain er
ĠNet herlands
Ġinsurg ency
Ġbur st
bre aking
Ġbow l
Ġhar ass
Ġprosp ects
Ġphotograp hs
Ġblo g
Ġcateg ories
ĠDu ke
Ġspark ed
Ġpresc ription
ĠBase ball
ĠNev ada
3 67
3 97
6 67
6 93
7 67
7 47
8 63
8 93
8 77
D R
o ch
r idge
in ery
Ġw reck
Ġb om
is an
om y
ent on
Ġl ying
Ġn ort
ec e
ĠB ond
ĠH amp
ĠL ive
Ġj ew
Ġsp an
ĠSt aff
ia h
ĠO ri
Ġover time
Ġme al
Ġbo ats
Ġback ing
Ġreg ions
Ġass et
Ġcar riers
Ġcourt room
ĠNational s
Ġtown ship
Ġconsider ation
erem y
Ġbox es
zz a
ĠBel g
Ġconserv ation
abb ing
Ġpriz es
rep rene
bro ok
Ġrapid ly
Ġhun ting
Ġunivers ities
ĠStand ard
Som etimes
Ġinnoc ent
Ġvulner able
Ġours elves
Ġguit ar
1 000
3 63
3 43
3 93
3 73
4 97
5 29
5 88
6 63
7 63
8 43
8 47
F ore
h attan
r aska
s ky
Ġt ables
er on
Ġs id
Ġs ued
Ġw ages
is k
Ġp ond
Ġre iter
Ġl ined
ĠM ack
ĠM ills
ow ing
ĠB on
ĠP ear
Ġ1 10
ĠD anny
ĠR acing
ĠG un
Ġch ase
ĠN av
um in
ber ry
Ġint ens
Ġme als
ĠV enezuel
12 00
Ġdec iding
Ġass ured
Ġtake over
ĠAr n
36 9
Ġser ver
Ġsub mit
Ġrele g
Ġagre ements
Ġquarter ly
Ġstop s
Ġstri p
Ġdouble header
Ġhope ful
Ġpromot ed
Ġsal aries
Ġcivil ians
Ġretail er
Ġattract ed
Ġaim s
Ind ia
Ġsurround ed
Ġexhib it
ĠConserv ative
Ġmotorcy cle
Ġagg rav
ĠSud an
6 44
7 97
7 43
8 67
8 33
H en
m other
r at
ou p
ĠM ort
ĠB est
ain ts
ĠH isp
ĠJ esus
oc ese
Ġgo alk
ĠK an
Ġun w
Ġany way
ious ly
85 1
85 2
ier re
Ġfl aw
Ġins ists
Åĵ It
Ġfac ts
Ġprof ile
per form
Ġorgan ised
Ġsit uations
ett a
ER S
ĠSun s
Ġcrow ds
ĠReg ion
Ġremember ed
Ġbul let
Ġrecommend ation
Ġachieve ment
Ġapprec iate
LO S
Ġdistribut ed
ĠVer izon
third s
usal em
Ġorganis ations
C or
N or
P C
b acco
j an
Ġto bacco
ot al
Ġst un
Ġst ability
em ic
ĠW ol
ĠL isa
ĠN asdaq
ist ol
ab y
Ġtr ash
av a
Ġpr ide
ink ing
ĠInd ex
Ġdep th
ĠRe ed
Ġref uge
Ġintern et
Ġbreak s
Ġsuggest ing
Ġengine ers
ĠMem phis
Ġinsp ired
Ġmotor ists
ĠMel bourne
Ġproceed ings
Ġintegr ated
GE LES
ĠSar ah
Ġmethod s
Ġvirt ually
Ġearth qu
ĠHear t
ĠPut in
Ġinters ection
3 44
6 47
7 93
8 44
8 97
N ever
P lease
p age
Ġto pped
Ġh ug
le et
am an
ot ic
un a
ĠB y
ĠB end
ĠR anch
ĠL en
ĠL ang
Ġsh irt
oun ce
19 99
19 70
19 95
ĠK ey
Ġun h
Ġam ounts
ĠTh ree
oy le
ush arraf
Ġrece iver
Ġ19 60
Ġche er
Ġra ises
Ġold est
Ġless ons
ĠPr ice
Ġsen ators
Ġsuccess or
Ġcred its
ĠEl izabeth
Ġthrow s
Ġdise ases
Ġemb assy
Ġsym pt
ĠLu is
Ġeth nic
ache lor
Ġswim ming
ĠAN GELES
Ġenthus i
ĠCru z
Ġtoug her
Ġphil osoph
A K
J ones
R el
s chool
Ġ 78
Ġt or
Ġa er
Ġs amples
re ts
Ġc raz
Ġto ler
Ġm akers
Ġd ual
Ġre ference
Ġn urse
ĠS ym
ĠM S
ri ots
ĠR ain
ĠF er
ĠG reek
Ġsh ips
Ġsh ipping
25 55
19 98
27 55
qu et
20 55
gh ai
ĠK a
ĠSt at
ĠO m
ens en
rop olitan
37 9
ĠSp e
Ġmil k
Ch ar
Ch ief
Ġeng aged
Ġrev olution
mark et
ĠRichard son
ĠGre ens
Mc C
Ġconsult ing
Ġdisplay ed
Ġsym p
Ġcolle ges
ĠCub a
Ġupd ated
Ġnurs es
ĠIndust ry
Ġpregn ant
Ġmut ual
William s
Ġpubl isher
Ġentit led
ĠHisp an
3 77
8 66
A B
U p
V P
k ers
s l
Ġs isters
Ġc ycle
Ġb un
Ġm o
om o
ay ne
Ġl awn
ĠS lo
et her
ĠP GA
ĠP owell
Ġcon cess
ĠR ail
ĠF erguson
18 55
23 55
29 55
ant an
ere k
Ġcl ock
Ġshe d
Ġdis order
22 00
22 24
ib an
Ġstate wide
Ġreg ulation
An g
sh ore
Ġtrans action
Ġmet res
ĠMan hattan
Ġhum ans
Ġsect ors
Ġansw ers
Ġrequire ment
Ġmat ched
Ġcapt ure
Ġcitiz en
Ġautom atically
arr ass
Ġjournal ist
ĠColumb us
Ġdepart ure
comm unications
Ġcoup les
Ġprepar ation
Ġsurviv ors
D el
M uch
P ort
c ourt
d i
g ow
j o
r um
Ġt ail
Ġw ides
Ġm aj
om er
ad i
ĠS alt
ĠA ren
Ġan x
ul s
Ġv arsity
15 55
25 00
19 55
14 00
14 55
13 55
17 55
16 55
28 55
26 55
10 55
Ġab ortion
Ġtr aged
Ġthey Ã¢
ire z
He alth
av or
ound ing
11 00
12 24
Ġcons ensus
88 4
83 9
Ġlot tery
Ġperson ality
Ġsw it
inc ome
Ch rist
Ġpost season
ĠBar n
Ġjud gment
Ġenjoy ing
Ġacqu ire
Ġdisapp eared
Ġbomb s
imb led
ĠSuper ior
Ġroll ing
ĠNe xt
Res idents
Ġmoder ate
G M
G iven
S y
c ap
i our
t ies
u z
Ġt ear
it arian
Ġb ids
ar n
Ġn ose
Ġbe ll
am bers
ig ious
ĠM CI
Ġan ch
Ġan ger
Ġr ice
Ġcon g
est on
ĠH at
ĠN Y
ist ent
iv ic
16 00
Ġj oy
Ġtr a
ĠO il
Ġfin ed
11 15
11 24
11 23
11 27
22 18
12 13
12 18
12 28
12 29
Ġback up
Ġstud ied
Ġind eed
88 1
ĠBr ig
36 2
37 1
37 2
34 1
34 2
Ġhom ers
Ġpost s
Ġcre am
Ġgrad es
tain ment
Ġgrand children
Ġrev ised
Ġfill ing
ĠMont gomery
Ġextra ordin
Ġcross ing
Ġrout es
Ġcerem onies
Ġdi abetes
Ġhistor ical
ĠMalays ian
Ġtrail er
Ġproceed s
ĠTurk ish
Ġgall on
Ġargu ments
ĠLyn n
Ġurg ing
Ġbreat h
Ġemp lo
ĠJer usalem
Ġmic ro
Ġliqu id
ĠPant hers
ĠVeter ans
0 3
3 66
d es
h or
h aul
m id
p ts
p ower
u is
Ġ id
Ġthe ory
Ġb ands
Ġb acter
Ġp hen
Ġl ung
Ġg ate
Ġst amp
ĠB ad
Ġr anch
Ġcom edy
ĠR as
ĠR aj
Ġare na
19 50
19 60
um ph
ry s
11 25
11 14
11 13
11 17
11 18
11 28
11 26
11 29
Ġlo ves
22 15
22 14
22 13
22 17
22 23
22 28
22 26
22 27
22 29
12 15
12 25
12 14
12 17
12 23
12 26
12 27
Ġkn ife
21 24
21 26
21 29
Ġdef ended
Ġbr ut
ĠSh ah
36 1
39 2
Ġprot ected
Ġconst ant
Ġinvol ves
82 17
ĠBo ok
Ġaud it
ros se
Ġprotect ing
Offic ers
Ġteen agers
ĠClark e
Ġprefer red
ĠTy ler
Ġrecover ing
ĠFeder ation
Ro bert
Ġconver ted
Ġcoin c
ĠLaur a
ĠUz bek
Ġrestruct uring
imbled on
B usiness
C ard
P ar
w ing
w alk
Ġt ab
Ġt ired
or gan
ol ved
ĠB ald
ĠP ack
ĠR ights
ĠT a
ĠT it
op en
ĠL am
ĠG ill
ĠN BC
end ar
19 45
20 13
ĠE xt
Ġse gment
pp osition
Ġbut ton
Ġexp ense
Ġcont aining
Ġen roll
11 16
11 10
22 25
22 16
22 10
12 16
12 10
Ġsup ple
21 00
21 15
21 25
21 13
21 17
21 18
21 23
21 28
21 27
88 9
Ġcent res
Ġcour thouse
Ġinvest or
ĠAn ne
olog ists
Ġhom etown
Ġsex ually
Ġrelig ion
Ġteen ager
Fr iday
Ġbrief ly
ĠCle m
Over all
Ġbench mark
ĠLeban ese
Ġpurp oses
ĠAsh ley
ĠProt ection
Ġcompar ison
Ġincent ives
Ġconsequ ences
E E
b ishop
l on
l ights
p read
Ġt ons
Ġt uition
in ho
at ched
Ġm all
ac ent
ĠC ancer
Ġhe Ã¢
ĠM ach
ĠM aster
ĠH an
ĠL iving
ĠN ancy
19 78
19 85
24 55
qu o
ĠE th
Ġse qu
Ġint im
In tern
Ġqu al
Ġco oking
Ġrep airs
21 14
21 16
Ġass ass
Ġbusiness man
83 4
Ġsm ugg
Ġsl ot
Ġsign als
Ġcap s
Ġemploy er
Ġfore ver
Ġcontract ors
Ġdoesn Ã¢
Ġrepl acing
ribut ed
Ġthous and
Ġdeep ly
Ġdetect ives
ĠArm strong
ĠArk ansas
Ġequival ent
C arl
M AN
T w
f ts
o a
r ac
r ine
s erv
Ġc ous
Ġb idding
Ġp od
ar ms
Ġh ill
ut ter
ĠS P
Ġhe s
im m
ill ance
ĠP ot
ĠF A
ĠF all
ĠL es
19 28
20 35
ant e
ĠSt orm
ĠSt rip
Ġcl ay
ĠO K
ĠO ver
ik a
Ġpr icing
Ġdec ent
Ġlead off
Ġret ain
21 10
Ġbr ill
Ġact ress
Ġwant ing
ĠBr id
Ġ8 1
Ġcare fully
Ġsing ing
Ġext reme
off s
ĠAnd re
ĠMan ila
ĠChrist mas
Ġeng ines
Ġsuggest ions
ĠPakistan i
Ind eed
ĠJew s
Ġimplement ation
Ġrecru iting
ĠHer itage
ĠPhilipp ine
Ġspirit ual
Ġdiplom atic
ĠBern ard
turn ed
Ġtrop hy
ĠAst ros
Ġfundament al
ĠSpeed way
ĠDod gers
Ġshar ply
4 66
H E
H am
J P
L ead
P od
S al
h art
n an
Ġs yn
Ġf oster
Ġb uck
Ġh anging
ĠS EC
el lect
ĠB eth
ĠP op
ĠP age
Ġr om
ĠR ah
ĠT s
ĠT ob
ĠF ather
ĠG as
19 00
19 48
19 68
19 65
20 30
20 68
20 38
ĠE qu
Ġab oard
ĠK il
Ġres um
Ġacc eler
ang le
anc hes
Ġany more
ov ich
Ġrel uct
ĠBl ues
Ġmar ch
Ġfeel ings
resent atives
ĠPl aza
Ġcelebr ating
ĠBill y
Ġplant ed
Ġcirc le
ĠJim my
Ġpoll ution
tt p
Ġemb ry
Ġregard less
ĠPol ish
Ġbird ie
Ġnomin ated
ĠMP s
Se ven
Ġordin ary
ĠAbd ullah
ĠMah m
Ġju venile
ĠDub ai
Ġsew er
ĠAthlet ic
larg est
3 76
5 73
7 66
A lex
B rien
G l
N ational
w ait
Ġt ips
Ġf est
Ġf ault
Ġb unt
ar ound
Ġh iding
Ġd ub
om ic
st orm
ol as
ĠM alt
ec ess
ĠB rent
Ġpro s
ĠT err
ĠW imbledon
19 15
19 13
19 17
19 24
19 23
19 75
19 38
28 00
20 99
20 98
20 48
20 45
20 78
20 95
Ġad s
uc cess
ind a
ind ing
ob b
Ġunder w
ĠTh ai
oth y
Ġ7 9
Ġprogram mes
ĠInd y
Ġpay roll
Ġgen u
ĠMc N
Ġpast or
Ġuse ful
Ġshort age
ĠHar rison
ĠPl ayer
Ġsaf ely
Ġnon profit
Ġmid night
Ġresol ved
Ġsu its
Ġflag s
Ġstrateg ies
ĠTri ple
ĠConserv atives
ĠTal iban
ernand o
Ġeg gs
Dan iel
ĠShan ghai
ĠOtt awa
5 44
5 67
C E
C S
L ong
b age
o z
Ġw al
Ġf ur
Ġf ert
Ġb er
Ġb unch
le e
le m
ĠS port
ol i
ot ton
ĠA L
Ġwh oles
ĠI b
ĠT em
ĠJ ane
Ġch ann
ĠN ow
Ġv ess
19 25
19 14
19 18
19 26
19 27
19 29
19 10
19 30
19 35
23 00
20 15
20 25
20 17
20 18
20 24
20 26
20 27
20 29
20 50
20 40
20 70
20 75
20 65
20 80
20 85
Ġsp otted
ĠU A
own er
ĠV is
ĠV ik
Ġqu arters
cent er
Ġstart ers
Ġbl ank
ĠBr un
83 1
39 1
Ġopp ose
Ġtrans p
Ġstand ings
Ġdel ays
ĠCar roll
Ġsol ve
ĠGr ay
Ġyoung sters
Ġexpl oded
Ġdesign s
ĠHar bor
Ġ198 4
Ġ198 6
Ġhope fully
ĠWar riors
Ġwa ited
Ġcheck ed
Ġpopular ity
Ġemb arrass
ĠLu ke
ums feld
Ġrelie ved
ĠLyn ch
Ġtow er
ĠJam ie
ĠExp ress
Ġnerv ous
prof ile
Ġgoalk eeper
5 63
9 66
f und
Ġs oul
ar at
Ġm el
Ġd ynam
le ting
Ġl one
Ġl ists
st ory
ĠS ullivan
ac c
ĠA T
ĠB udd
Ġy uan
ul u
ri est
ĠW alt
ĠJ ail
ĠG erm
19 16
19 40
20 14
20 16
20 23
20 28
20 10
20 60
20 90
Ġnot ing
Ġtr ains
Ġout ing
Ġbut ter
air y
red it
88 2
ĠJo y
orts mouth
83 2
oy a
riv ing
âĤ¬Â ¦
Ġwr ites
Ġext ent
aim ed
Ġmor al
sc ar
Ġdam ages
Ġvers us
May or
Cl ick
Ġdrink s
Ġlaunch ing
UR G
Ġclin ical
Ġperm its
ĠJon athan
ĠMoham med
Ġcommun ist
Ġsymb ol
ĠTurn er
ĠTrib une
Ġing red
ĠDeL ay
Ġwides pread
4 96
5 47
7 96
C opyright
K en
K ing
d in
Ġc in
is ers
Ġp ure
Ġh ide
Ġd irt
le ague
ent le
ĠS U
ĠS anchez
ĠC N
ĠC ond
ĠM and
Ġst one
Ġr aw
Ġal t
Ġcon vent
ĠD ale
ĠJ ar
18 00
26 00
27 00
Ġse aled
Ġsp ray
ĠSt one
Ġall iance
Ġsc an
Ġim pr
ĠV in
Ġpr on
Ġdec or
ĠY ahoo
ĠMar ion
az er
Ġsub d
Ġ20 10
Ġ19 50
Ġfac ilit
ĠBl ock
br id
Ġelect rical
Ġtest ify
ĠTr acy
ĠSen ator
Ġequ ally
acher s
Ġconv ince
ĠAir ways
Ġbit ter
Ġdest ination
Ġdisapp ear
Ġmer ely
Every thing
Ġspeak s
ĠEr n
ĠRoberts on
LAN D
Ġgro cer
Ġdeploy ed
ĠGonz alez
Ġsupervis or
ĠNeb raska
Ġinterp ret
Ġdatab ase
Ġtrig ger
5 93
5 33
C ent
H O
W il
g ets
i ott
l ings
u ment
Ġd rought
id ays
ut en
ot ive
ĠB u
Ġr ider
Ġal arm
ĠD a
ĠR andy
ĠH P
ĠH as
ĠL ib
Ġsh ocked
25 15
25 68
14 99
17 78
23 38
29 00
29 99
Ġoff set
ra iser
ire less
Ġcont ains
ous es
Ġqu ant
Ġcomm em
enc er
Ġpres idency
Ġimp ression
ĠThe y
Ġent reprene
Ġsm ile
Ġ8 7
Ġrece ives
ĠSp art
Ġ19 78
ĠMc D
Ġkill er
Ġturn out
ĠSch warzenegger
Ġexpl ains
iff s
Ġdist urb
Ġaud itor
Ġvers ions
undred s
DA D
Ġappeal ed
Ġregul atory
ĠPac ers
Ġbab ies
Americ a
Ġimplement ed
Ġweak ness
Ġairl ines
Ġobserv ers
ĠLind a
ĠRon ald
Ġtrib ute
Ag ain
ĠCelt ic
Mic rosoft
Ġet c
ICA GO
3 46
3 96
5 97
5 43
6 46
B rian
D ec
E ight
F l
F ree
I Ã¢
N P
O p
V ER
b ase
d og
h al
h ire
v ia
an ing
Ġb ass
Ġin put
Ġh ate
Ġd ust
ĠC y
ĠC arm
ĠC asey
ĠM our
ĠA FP
ag le
ĠW ake
ĠH op
ĠF e
25 99
25 48
14 78
14 85
13 68
17 00
17 99
17 48
17 75
17 38
16 98
16 68
18 99
18 48
18 78
18 68
23 48
23 45
23 78
26 95
27 15
27 38
29 38
10 48
out ing
Ġcl erk
Ġwe Ã¢
ĠO f
Ġsc rap
ĠV ent
iz za
Ġatt ached
ĠY our
ĠFr ont
Ġmin ing
Ġfl ash
Ġdep ends
Ġdep ression
Ġfr ag
Ġfr act
Ġturn over
Ġtrans actions
Ġdeal t
Ġexper iment
Ġland mark
Ġsusp ic
sp eed
bor ough
Ġsell s
Ġ198 1
AS T
Ġhost ing
Ġbott le
Ġdescrib e
Ġintro duction
Ġnegoti ating
Ġinsp ection
Ġath lete
Ġilleg ally
Ġwild life
Ġobserv ed
Ġemot ion
Ġfrequ ent
Ġtemper ature
Ġod d
ĠHawai i
ĠGlo bal
Ġrot ation
ĠHold ings
Ġtravell ing
Ġlicens ed
Ġvacc ine
ĠArgent ina
ĠIns urance
ĠAgricult ure
ĠNep al
Ob viously
6 96
7 46
B R
F in
M ed
O K
s ay
Ġt um
re ction
Ġw ounds
Ġf o
Ġf ing
es h
is ons
Ġin ev
Ġd ressed
Ġg ra
ul es
ĠH ew
ĠH erald
Ġch ronic
Ġle agues
Ġpl acing
25 50
25 60
25 98
25 78
25 75
25 38
14 15
14 24
14 98
14 48
14 68
14 38
14 65
14 95
13 00
13 24
13 99
13 98
13 48
13 78
13 38
17 98
17 68
17 65
17 95
16 99
16 48
16 45
16 78
16 38
16 95
18 50
18 98
18 45
18 38
18 65
18 95
23 15
23 99
23 98
23 68
23 95
28 24
28 99
28 98
28 48
28 78
28 68
28 38
26 15
26 99
26 98
26 48
26 78
26 68
26 38
26 35
26 85
27 99
27 98
27 48
27 78
27 68
29 98
29 48
29 78
29 68
29 85
qu in
10 24
10 99
10 50
10 40
10 98
10 78
10 68
10 38
ĠK aren
Ġyou Ã¢
In t
Ġsc ript
Ġfin ale
Ġlast ed
lud ed
Ġret iring
Ġunder ground
Ġass ume
Ġact ors
Ġcost ly
Ġwr apped
Ġtrans pl
ĠCon c
Ġexpl an
ĠWh at
Ġfight ers
Ġhon our
Ġadm it
ĠFor um
ĠPhil ip
Ġconduct ing
Ġautom atic
Ġyouth s
CH ICAGO
Ġpo et
ĠLiber ty
Ġmeant ime
Ġexpert ise
ĠEag le
ĠOw ens
GH DAD
Ġsurve illance
Count y
Ġdetain ees
ĠHamp shire
Ġtraged y
8 46
8 96
8 76
9 46
F C
S ur
i ating
r aine
or ge
Ġd ug
Ġd iver
Ġre ly
ĠM usharraf
ĠA fter
ĠA IDS
ĠR ou
ĠR ic
ag h
25 24
25 70
25 45
25 65
25 35
25 95
25 80
25 85
14 30
14 40
14 70
14 45
14 75
14 35
13 15
13 30
13 50
13 45
13 75
13 65
13 35
13 90
13 95
13 80
13 85
17 15
17 24
17 30
17 50
17 60
17 45
17 35
17 90
17 85
16 15
16 24
16 30
16 50
16 75
16 65
16 35
16 90
16 85
18 15
18 24
18 40
18 75
18 35
18 80
18 85
23 24
23 50
23 75
23 65
23 35
23 85
28 15
28 50
28 40
28 45
28 75
28 65
28 35
28 95
28 85
um acher
26 24
26 50
26 45
26 75
26 65
26 80
27 24
27 50
27 40
27 45
27 75
27 65
27 35
27 95
27 85
29 15
29 24
29 40
29 60
29 45
29 75
29 65
29 35
29 95
10 15
10 70
10 45
10 75
10 65
10 35
10 95
10 80
10 85
ine es
Ġint ellect
Ġte a
og ether
ang el
Ġact ed
duc ts
ĠSh awn
Ġvis ible
Ġdr ain
Ġsusp icious
Ġden y
BA GHDAD
Ġindic ation
Ġtarget ing
Ġsurv ival
Ġfle et
Ġtrend s
Ġbehav iour
Ġmaint aining
ĠOw en
ĠNot re
Ġvill ages
ĠKat ie
Ġwrit ers
ĠDat uk
Ġsympt oms
Ġchann els
4 94
5 83
C IS
G re
H AR
N one
er ia
Ġb ol
Ġto urs
om ach
ĠC urt
ol k
Ġst abbed
ĠB os
ĠB ear
Ġit em
ul um
ĠR ow
ĠH onda
ĠJ a
ĠG OP
Ġv owed
Ġsh adow
25 30
25 40
25 90
14 50
14 60
14 90
14 80
13 40
13 60
13 70
17 40
17 70
17 80
16 40
16 60
16 70
16 80
18 30
18 60
18 70
18 90
23 30
23 40
23 60
23 70
23 90
23 80
28 30
28 60
28 70
28 90
28 80
26 30
26 40
26 60
26 70
26 90
27 30
27 60
27 70
27 90
27 80
29 30
29 50
29 70
29 90
29 80
10 30
10 60
10 90
are z
ub s
Ġcl er
Ġres ource
Ġun changed
Ġint ends
Ġshe et
Ġen orm
lo oking
Ġcomm itt
Ġno ise
Ġsecond ary
we alth
ĠMar iners
Ġsur rend
ĠBr is
ĠAr thur
ĠCo ach
Ġsom ewhere
Ġinf ected
Ġbre ad
Ġel bow
Ġaff air
ĠPl ace
bor ne
Ġfre ed
ograp hic
ĠX VI
Ġrefer ee
Ġorig in
Mar ch
Ġexam ination
ĠBer lin
ĠCharl ie
Ġscr ut
Mart in
ĠBrad ley
ĠBut ler
ĠSteven s
ĠWat son
Ġrenew ed
Ġcongress ional
Ġsemif inals
Ġunanim ously
Ġsy nd
Ġaggrav ated
Ġextraordin ary
B et
D un
H ouse
L ee
M ac
R et
R yan
T om
Y es
l ist
m ade
t ax
ou ble
Ġh itters
ic ate
Ġg am
ur ation
ig e
Ġst omach
im ents
ĠA ber
ĠA ction
ĠP o
op ing
ĠJ ama
19 88
Ġout r
Ġfin es
ition ally
Ġacc ord
Ġpre st
Ġbu ff
Ġbr ush
Ġinvest ed
Ġpublic ation
Ġpost ing
Ġmen u
Ġsol ic
Ġviol ated
Ġ198 7
Ġcampaign s
Ġfood s
Ġprison er
Ġz oning
Ġrare ly
ĠBrook s
Ġmand atory
Ġrevers e
Ġaccommod ate
ĠNaz i
Ġpip eline
ĠWel sh
rah im
Ġdesper ate
Ġkilomet res
ĠTreas ury
ĠHist or
dem ean
Ġworksh op
ĠArn old
5 77
A ir
F ederal
H ope
M us
M ont
N AS
f our
n olds
t ra
Ġ 99
Ġb ru
ar q
ou b
Ġh idden
Ġg aining
ac ular
ol y
ĠA wards
ĠB ed
ĠB usch
Ġpro te
ĠR oll
ct ors
ĠL ine
ĠG ate
20 88
Ġnot ified
ĠK az
ub a
ĠCh an
ĠCh uck
ry stal
Ġsup erm
Ġdown load
Ġass emb
Ġtri umph
Ġprogram ming
rib ed
Ġcare ful
Ġcur ric
Ġter rif
ĠCo al
Ġche f
Ġelect ronics
Ġconst antly
Ġtechn iques
Ġval ued
Ġfun ctions
Ġpark ed
Ġvol ley
Ġident ification
Ġaud io
Ġred e
Be ing
Ġabs or
Sp eaking
Ġut il
Ġscreen ing
Ġdefend ants
ĠTra il
ĠEnter tainment
Ġearthqu ake
C amp
G reg
J unior
K evin
S un
k ing
s earch
it ious
le ans
ĠS em
ĠS ide
ot he
et a
ig uel
Ġr if
ĠI v
ĠR aid
ĠL anc
ĠN SW
art ial
Ġsh ake
19 97
ĠE s
ĠK ay
ep s
Ġbo oth
Ġco ached
Ġcr imin
ounc ill
Ġevery where
ull er
riv ate
Ġput t
Ġtop ic
Al ong
ĠHe ights
ĠSouth west
Ġfore casts
Ġdesign er
Ġpriv acy
elt a
Ġclos est
ops y
Ġport ray
Ġtourn aments
Ġlaws uits
ĠLa uren
aven port
rav is
ĠOl iver
Ġship ments
ĠBrazil ian
Ġadvoc ates
Ġi Pod
ĠJess ica
Ġdisag re
Ġrand om
Ġlegit imate
arq awi
3 94
7 94
G old
I I
M iller
O D
u ert
in ces
er ver
on i
or an
Ġb ilateral
ar c
Ġm ad
Ġd ates
Ġd ating
Ġl un
Ġl apt
Ġg ard
et he
ers e
Ġthat Ã¢
ĠB an
ĠB hd
ĠB rett
ĠP orter
ĠD rew
ĠR om
ag ger
ĠW es
ĠH ind
ĠF ame
ĠF RAN
ĠL P
ist ance
Ġcomp at
ĠK am
ĠSt u
ĠSt ra
ĠCh avez
ah a
58 6
sh irt
Ġ9 11
Ch ildren
Ġsent iment
Ġbene ath
Ġ198 2
ĠEd die
Ġview ed
Ġquestion ing
reg ation
duct ions
Ġdev oted
Ġseek s
Ġnorth west
ĠMont real
Ġlic enses
Ġsuper b
Ġabs ent
Ġcal endar
Ġexam ine
Ġbul k
Ġdin ing
Bl ack
Ġgar bage
ĠDef ence
ici ary
ĠCast ro
Ġfrustr ated
Ġhighlight ed
ĠRoc hester
Ġdelight ed
Ġsid ew
antan amo
Ġphen omen
ĠBris bane
B o
C al
F I
W ar
f ound
h all
k inson
s ized
z ed
z ech
Ġt ying
Ġp or
Ġp ries
ing u
Ġh alt
le ton
ay an
Ġre ass
ot ing
ĠM ead
ir m
ĠB yr
ĠP ur
Ġ1 80
os er
est one
ag ar
ĠW inn
ĠF ish
all ing
ast e
ĠK enn
Ġun beat
ĠCh irac
ĠIn v
ĠTh om
ier ra
enn ial
87 2
Ġsent encing
Ġdr um
ĠCon f
Ġsen ator
Ġpriv ately
ĠAb b
Ġren tal
Sh ares
Ġbox ing
Ġrank ing
ĠComp uter
Ġshut tle
Ġmis demean
Ġdemonstr ation
Ġteen age
Ġestablish ment
Ġer up
cel ona
Ġinstall ation
Ġconven ience
Ġfant astic
Ġepis ode
ĠLad en
Ġinstru ment
Ġnom inees
ĠBenn ett
Ġbrill iant
1 250
1 230
2 180
2 190
8 64
B ro
E ast
F resh
P rior
h aw
i op
w ind
on gh
Ġs ed
Ġc af
Ġp ink
ing e
Ġth orough
Ġe Bay
ir ie
ver ning
ch air
ĠP y
ĠR ud
ĠW end
ĠH ass
all en
18 88
um per
Ġgo verning
rou s
Ġcomp are
Ġwor ries
ĠK le
Ġun ity
ĠV iew
Ġro de
Ġgr aph
ĠMar s
ual ity
Ġfl ower
ĠMon roe
Ġeff iciency
br is
ĠPark s
Ġpar ish
Ġlet ting
Ġprocess es
ĠOr leans
Ġgrand mother
Ġmult im
ĠGl as
Ġnegoti ate
Ġlif estyle
Ġregul ators
ero ids
Fr ank
Ġasp ect
ibb ean
Ġdram atically
ĠMedic aid
Ġsan ctions
Ġdiscip line
ocol ate
ĠHoll and
Ġdevast ating
Ġpock et
Ġhurric ane
Ġdivid end
Ġburgl ary
Ġdiscrimin ation
Ġelabor ate
1 180
2 150
2 160
2 280
2 290
3 49
5 66
6 94
8 94
B en
C ost
C rit
P eter
P AR
W here
b anks
o ons
p iece
r ated
Ġt ires
er ts
Ġw aves
Ġf ake
Ġb achelor
Ġd ign
Ġd ying
Ġl ady
ĠC apt
am y
ĠP ra
ri el
ĠD w
ĠR io
ĠW iz
ĠH ilton
ĠJ ays
ĠL akes
19 67
14 88
13 88
17 88
28 88
Ġde bris
Ġcomp r
Ġcomp leting
Ġad apt
ĠO S
Ġinc umb
Ġcan c
Ġcan Ã¢
iz umi
Ġinv itation
Ġbl aze
ah t
rib e
Ġoper ational
ĠRo om
89 1
89 2
Ġra id
aid a
ĠCon vention
AN D
ĠChrist ians
Ġmid field
ĠGu antanamo
Ġpract ical
Ġcomb ine
Ġwasn Ã¢
Ġpurch ases
Ġdest ruction
Ġz ero
Ġclean ing
Ġexist ence
ĠPort ug
ĠBer k
Ġrestr icted
ĠAnn an
ĠEll is
Ġsubsid iary
ĠSum mit
Ġlength y
Ġguarant eed
ĠAlb any
Ġstro kes
Ġaccomp any
Ġsemif inal
Geor ge
Ġrehabil itation
ĠAub urn
1 150
1 140
1 130
1 160
1 280
1 240
1 190
1 270
1 170
1 260
1 290
2 250
2 140
2 130
2 230
2 240
2 270
2 170
2 260
8 74
C ong
I E
N obody
P et
R C
b ing
r anked
Ġt one
Ġa uth
an ne
Ġp atch
Ġto il
Ġm isc
Ġg aming
ĠA my
ĠD ig
ĠD odge
ĠR al
Ġv ocal
od ox
Ġex ternal
25 88
19 93
16 88
23 88
26 88
27 88
29 88
10 88
Ġj azz
Ġcl ick
Ġcl oud
ĠCh o
Ġfir ing
ert y
ĠY ellow
omm y
Ġplan et
au er
Ġsl ide
ĠInd ies
ĠAl f
arm a
Ġext ending
Ġfil ib
Ġconcer ning
Ġyoung est
Ġform ula
Ġavail ability
eg u
Ġpack ages
Ġgradu ating
Ġaddress ing
ugh t
Ġprior ities
Un til
ĠLouis ville
Ġdemonstr ations
Ġadj acent
ĠCam eron
Ġintegr ation
ĠChap ter
Ġobject ive
ĠBre nd
ĠIndones ian
ript ions
Ġsettle ments
Ġeval uation
Ġsubscri bers
ĠLank a
rys ler
Ġintim id
CIS CO
7 49
b it
b ian
c ount
d een
in ary
re ced
Ġw inger
it is
Ġb orders
Ġh ttp
as p
st ro
ĠS eb
ĠC old
ĠM idd
Ġst ir
Ġst eroids
ow ay
ĠA FL
ĠB elt
ĠR ot
rom e
ĠL ight
ĠL ex
15 00
15 78
20 93
Ġcomp ly
ĠK ir
ĠK um
Ġlo yal
son s
gr ad
Ġrem embers
Ġcol ors
Ġinst ruction
Ġinvestig ated
Ġattack ing
Ġform ation
ĠSte in
roll er
Ġphys ically
Ġrob ust
Ġamb ulance
Ġ197 9
Ex per
Ġdocument ary
erg art
Ġfaith ful
ĠGall ery
ĠMid west
Ġflood ing
ĠTer ri
ĠFre edom
ĠGh ana
ĠMarc us
Mon day
Ġveget ables
Ġremov al
Ġstruct ures
ĠBud get
Ġaccur ate
ĠVenezuel a
ĠAren a
Ġgenu ine
ĠIb rahim
ĠFRAN CISCO
reced ented
6 49
D es
J an
M el
P ut
S ee
W atch
f rom
l s
s ville
Ġt ap
Ġs ore
Ġs orry
ĠS now
ĠC ult
ol and
am ine
ĠA pr
ter ing
ter ror
ĠB ible
ĠP M
ĠP ortsmouth
Ġ1 40
ĠR u
ĠW is
ĠH it
ĠH unt
ĠF inals
ĠL loyd
ast y
Ġpl un
15 99
15 98
15 48
15 68
15 38
24 00
24 99
24 50
24 60
24 98
24 48
24 78
24 68
24 75
24 38
Ġde er
ra wn
port ion
ĠCh ad
Ġexp end
Ġover haul
ĠV erm
Ġro ots
og g
Ġatt ributed
Ġhome owners
Ġ10 1
Ġreg ret
Ġbr anches
Ġmark ing
ĠSh aw
Ġ8 9
Ġkill ings
Ġcompet itor
Ġdeal er
Ġelect oral
Ġdiscuss ing
Ġmatch ing
ĠSm art
Ġfig ured
Ġsqu ee
Jo e
raw ford
Ġrock et
Ġsn apped
ĠRock ies
Ġcritic ised
Ġsurvey ed
Ġton nes
Ġexam ined
Ġcollect ing
Ġdomin ant
Ġreserv ations
ĠStud ent
Ġarrang ed
Ġaver aging
Ġvirt ual
Ġdiscl osed
Ġconfirm ation
Ġsteal ing
itzer land
Ġremark able
Ġtoss ed
Ġawa iting
Ġhaz ard
Ġbacter ia
Ġcurric ulum
Ġcrimin als
8 79
D id
H ave
H undreds
I ran
h ad
j a
j ad
p ark
s or
s elling
Ġ #
Ġ x
Ġ 98
Ġ 93
Ġa ce
Ġw is
Ġp ill
al an
Ġg rip
ĠC IA
et on
ur red
ĠB uc
Ġr u
ĠD erek
ĠT ax
ĠN ever
15 30
15 50
15 45
15 75
15 65
15 35
15 90
15 95
15 80
15 85
19 44
19 47
19 73
19 77
19 33
19 58
24 70
24 45
24 65
24 35
24 95
24 85
um m
20 73
20 58
Ġcont ext
Ġbl oc
istr ate
Ġstr ange
Ġsl ump
Åĵ This
Ġcol our
ĠComm ons
86 2
Ġrele vant
Ġel ite
Ġpar ole
Ġstop ping
Ġtele communications
Ġview ing
Ġchair s
Ġconv oy
Ġdoub ts
ĠAir bus
Ġaccount ed
Ġmanufact urer
Ġbatt ling
Ġsil ence
Ġmount ains
Ġrestr ict
Ġneighborhood s
Rep ublic
ĠRev olution
Ġadvis ory
Ġclimb ing
Conn or
Ġcomplic ated
Brit ain
Ġpostp oned
aceut ical
Europ ean
Ġphilosoph y
Ġcommitt ees
Ġunbeat en
0 2
5 37
8 49
H el
I O
J ul
M ad
d ep
f ers
f ood
g ate
h op
he ed
in ting
on ia
Ġw ishes
it ement
Ġb ust
Ġp ose
Ġp ets
Ġd ancing
Ġg ri
ig s
ĠM as
im ir
ĠA ur
ĠB M
Ġr ic
ĠI ron
em pl
est ed
ĠW hen
art ing
Ġsh y
15 40
15 60
15 70
19 63
19 43
24 30
24 40
24 90
24 80
20 44
20 67
20 63
20 97
20 43
20 47
20 33
Ġyear Ã¢
ĠK in
ans on
ĠV i
Ġar ra
ne x
any on
Ġcount ing
Ġpres ents
Ġcour age
atur ally
ĠSh ane
Ġdisc overy
Ġ8 2
53 2
87 1
86 1
Ġche aper
Ġsent ences
Ġdr illing
Ġpat ent
Ġeconom ist
Ġproduc es
Ġshare holder
Ġtrad ers
Ġtrad em
Ġmiss ions
ole e
Ġweekend s
Ġca ut
Ġtreat ments
Ġassist ed
Ġtw in
Ġdescrib es
Ġbatt les
Ġartic les
Ġult imate
ias m
Pr ime
Ġess entially
Ġapart ments
ĠSum mer
Ġdeleg ates
Ġaccompl ished
igg ins
Ġsatis fact
ĠEgypt ian
Ġkidn apping
Ġoccasion ally
Ġflex ibility
Austral ia
ĠMarl ins
Ġvolunt ary
Ġdre ams
Ġdispl ays
ĠHispan ic
Ġmaj ors
8 69
D E
G ov
M em
Y our
c ard
g ood
h l
o is
v ised
Ġ 000
Ġw ars
or ious
Ġo cean
Ġf ed
Ġf ighter
Ġm our
Ġl ibr
Ġn ick
ĠC ore
ĠC row
ĠM ind
Ġst y
Ġsa il
ĠI mp
Ġcon fer
ĠD ell
ĠR iley
ĠJ eremy
ĠN ight
ap y
Ġab used
ĠK ath
ĠK night
ip er
ĠO scar
Ġlast ing
Ġdis h
Ġcomm od
ob a
Ġinter rog
Ġbu zz
ĠTh ird
Ġdes erve
Ġent ries
Ġloc ally
ister ed
ific ations
Ġopp osing
54 2
Ġspe akers
for cement
ĠAss istant
Ġfire works
Ġexpl ore
Ġbook ed
Ġfun ny
ĠAssoci ates
the less
With out
go vernment
Ġhum or
Ġris en
Ġcelebr ations
Ġaccept ing
Ġreview s
Ġrespond ing
ĠDel aware
Ġvac ant
Ġamb itious
ĠRoy als
Ġboost ed
Or gan
Ġspread ing
ĠRam irez
Ġremind ed
ĠTra ff
Ġemphas is
Ġunp recedented
ĠKu wait
Ġscholarship s
ĠSwed en
Ġoccas ions
Ġcertific ate
utr ition
Democr ats
Whe ther
5 46
5 36
F eb
M ary
R od
S ales
b at
b es
c os
f ur
l ies
Ġ 83
on ly
Ġs ample
Ġc emetery
it ary
Ġp riest
Ġd ash
Ġth ick
Ġl od
ĠS oren
ac a
ĠM ission
Ġst er
Ġst unning
ĠB att
Ġr ides
Ġr aced
Ġr ipped
ĠI f
em ed
em ble
ĠT ul
ĠW i
ĠF T
ĠN ixon
Ġle ts
oc ate
Ġtr im
Ġcomp onent
ĠU E
Ġover c
erv is
ĠV lad
Ġro yal
Ġpre ca
Ġpr ayers
ob e
ob s
Ġcount ed
Ġserv ers
ĠThe re
Ġstr ain
Ġinvest ing
58 7
Ġsign ature
Ġsub urban
Ġmed ian
56 2
Ġ9 1
Ġsom etime
Ġlist ing
ĠCar ibbean
Ġsk ill
Ġdist inct
Ġdiv isions
Ġmusic ians
ĠPat riots
Ġaccept able
la us
onn ell
Ġreview ed
Ġslow ed
Ġdeliver ing
Ġneighbor ing
Ġill ustr
ĠSal v
US A
Ġten ure
Ġmedic ation
ĠBoy s
Ġcert ified
part y
Ġlock er
ĠIndust rial
Comm ission
Ġadopt ion
ĠFil m
Ġinnov ative
ĠMarg aret
Ġboge y
Ġcraz y
Ġexplan ation
0 7
5 96
A ug
B oard
C ap
N G
N S
W ood
b u
j ust
m ans
s ee
Ġ 96
he y
er ious
Ġp ct
Ġp unch
as ks
Ġre nd
ĠC itiz
ol an
ol ar
ĠM esa
ers en
ow der
Ġsa fer
ĠP os
ĠP urd
Ġ1 30
ĠI l
ul pt
Ġcon vert
ĠT ory
ĠG i
ĠN atural
ist le
19 83
26 67
ab i
Ġse al
Ġun t
Ġun ear
Ġcont ing
Ġher itage
Ġam ateur
ĠTh at
we et
ov ic
Ġass ert
Ġdon ate
Ġmed als
Ġter rible
57 1
Ġask s
84 2
Ġ9 2
Ġref lected
Ġactiv ist
Ġtit led
aur ant
Ġgener ations
ĠSte el
Ġap ology
Ġaccess ible
Ġpurch asing
ĠPar ish
Ġindic ates
Ġsouth west
ĠGl enn
Ġphys icians
Ġcrowd ed
Ġtro op
Ġhear ts
ĠGre ater
Ġwitness ed
Ġreserv ed
Ġopin ions
ĠRay mond
Ġeth ics
ĠDev ils
Ġfrustr ation
ĠBry ant
Ġtermin al
Ġtroub les
ĠCelt ics
Ġsear ched
ĠNad al
Ġincred ible
Ġlobb ying
ĠOri oles
Char les
uten ant
0 8
B ased
L P
M iss
T ickets
t ech
w as
Ġt ally
le en
Ġre imb
ĠS aints
ĠC ass
am ination
ĠM ust
ĠM aur
ec ca
im ental
ver e
un al
ĠB ailey
ĠP un
th odox
ĠF ive
ew ood
ĠL af
ĠL ogan
Ġv ary
end o
19 05
16 73
23 44
27 44
Ġj ockey
Ġtr act
ia z
ber ra
ail ing
Ġsc ared
Ġinter vention
pr int
Ġbr id
58 9
az ed
rib utes
Ġwr ist
Ġinst ant
57 2
54 1
Ġev il
84 1
ai ro
Ġperform ers
ced es
Ġcre ates
Ġfinanc es
Ġpriv ile
Ġgrad ually
Ġcrit eria
Ġ198 3
Ġrepl ied
Ġaut opsy
la ud
Pro f
Ġbask et
Ġinsp ect
Ġwond ering
ĠNe il
ĠSim p
ĠAndrew s
Ġep id
Ġconsist ently
Ġdefend ant
Ġconnect ions
Ġenthus iasm
ĠJen kins
Ġisol ated
ĠGirl s
Ġber th
Hope fully
Ġsidew alk
ĠGlas gow
olee zza
5 76
F OR
H ad
d ollar
y ang
at ar
Ġc y
an ium
Ġb rew
Ġp ointing
le cts
ut ierre
Ġe cho
el ong
Ġst ead
ĠB ask
ce ived
ĠP erez
Ġcon j
ĠT ur
ĠW orth
if ies
ĠF itz
ĠN athan
Ġv ault
25 47
25 93
ard ed
14 44
14 93
13 63
13 47
13 33
17 63
17 97
16 44
23 47
28 44
28 63
28 43
28 93
26 44
26 97
26 93
27 33
10 44
10 67
ĠE SP
Ġj am
Ġoff ender
ount ain
Ġsc ulpt
lo ved
lo aded
ft ime
Ġgr ave
Ġunder way
Ġind ict
ug ar
Ġdef ined
Ġfl ames
58 2
58 4
Ġsl ower
ĠAl onso
ric ia
Ġpass age
Ġsever ely
ĠCo ff
Ġed ged
59 2
St aff
Ġconcer ts
ĠAd vis
af ari
Ġsol ar
Ġkind ergart
Ġfriends hip
Ġgrand father
Ġdisp os
Ġboy friend
ĠX box
olic y
Ġaddress es
Ġprevent ed
Every body
yl um
ĠChe v
Cl ark
Ġbird ies
ĠQue bec
Ġunl ike
Ġacadem y
Ġmarg ins
ĠRel ations
Ġign ored
Ġspect acular
Ġment ally
Ġhal ftime
Ġrub ber
new s
hard t
ĠGard ens
Ġcondem ned
Ġscre ens
Ġjew el
Ġreiter ated
mid t
Ġenorm ous
ĠRaid ers
ĠStu art
utierre z
5 74
M il
M ur
R ock
S und
W ashington
h ost
i w
m ails
n is
p arents
Ġt ensions
or ia
Ġc apped
Ġf asc
ro at
ĠS aint
ac rosse
ation ally
ĠB ec
ĠH and
ĠH ernandez
res no
art ed
25 44
25 67
25 63
25 97
25 43
25 73
25 33
14 67
14 63
14 97
14 43
14 47
14 73
14 33
13 44
13 67
13 97
13 43
13 93
13 73
17 44
17 67
17 43
17 47
17 93
17 73
17 33
16 67
16 63
16 97
16 43
16 47
16 93
16 33
18 44
18 67
18 63
18 97
18 43
18 47
18 93
18 73
18 33
23 67
23 63
23 97
23 43
23 93
23 73
23 33
28 67
28 97
28 47
28 73
28 33
26 63
26 43
26 47
26 73
26 33
27 67
27 63
27 97
27 43
27 47
27 93
27 73
29 44
29 67
29 63
29 97
29 43
29 47
29 93
29 73
29 33
10 63
10 97
10 43
10 47
10 93
10 73
10 33
ge ant
Ġout fielder
ie v
Ġcont ention
Ġsc attered
Ġwhen ever
Ġrec reation
Ġrep ublic
ĠUn ivers
pr ises
Ġgr id
ting ton
55 9
ĠNew ton
ah an
ather ine
enn ium
Ġvis ual
56 1
Wh ite
59 1
echn ology
Ġgreat ly
Ġconsid ers
Ġagre es
ĠCon struction
Ġpress ing
eor ia
Ġtreat ing
riz z
Ġconsider able
ĠWood ward
Ġur ge
Ġcoll ision
ĠSw itzerland
Ġqualif ier
ĠAugust a
Ġtrust ees
ĠPet e
Ġbi ot
Ġcatch ing
ĠStan ford
Ġrat io
ĠTw ins
ĠNAS A
Ġeg g
Ġhousehold s
Ġpregn ancy
Ġrenov ation
ĠRey nolds
Ġham mer
Ġcollabor ation
Ġsatisf ied
Ġgreet ed
ĠForm ula
Ġcous in
Ġprest igious
. ;
5 34
B oston
C lear
D T
G erman
K im
N on
P arents
k ind
l ap
r ants
Ġt ens
in cess
on en
Ġs alt
Ġc ub
Ġf erry
it ational
Ġb es
Ġb ure
Ġp orn
il er
ro c
ut ral
ĠS ue
ĠS ex
ĠC BS
ĠM yers
Ġst ance
Ġst aged
ri k
ri pp
Ġcon ceded
ĠW ag
ĠF oster
ĠL ar
Ġv it
Ġsh ipped
ort ed
27 05
20 77
20 83
Ġj ersey
ack er
Ġout fit
Ġad min
ail able
av in
Ġ3 50
ĠUn it
pr ing
ont e
Ġmin im
Ġem issions
Ġtri bal
Ġdon ors
hen tic
Ġpublic ity
ins ula
Ġconf usion
53 1
ĠBl ake
200 6
Ġhom eland
Ġcompet ed
Ġdidn t
ĠTr aining
ĠQ west
cl osed
Ġexpl aining
Ġground ed
umb ai
Ġcred ited
Ġlegisl ature
Ġcheck ing
Ġarg uing
ĠMic helle
ĠCr ime
hy th
ĠRock ets
Un fortunately
isco very
ĠBlack s
Ġ197 6
Ġdetermin ation
ĠPer th
Ġsil ent
ĠCub an
Ġoccup ation
Ġoccup ied
Ġgall ery
Ġscen ario
ĠDaniel s
ĠMedic are
Add itionally
Ġinvent ory
Ġmotiv ated
Ġdecre ase
Ġpup ils
Ġprincip les
ĠDiamond backs
Jud ge
Ġgif ts
ĠSU V
Ġpron ounced
Ġscrut iny
Ġsuperm ark
B ern
M CA
R ay
S ing
S am
Y oung
Y esterday
a fter
r ons
y ou
Ġ 94
at ile
Ġf u
Ġb aht
is ive
Ġp ound
Ġp ione
Ġh o
Ġd iving
Ġl uc
Ġn av
ĠS n
ot ion
ĠM ost
Ġst im
Ġst eep
ĠB ab
ĠP oll
ĠI S
ĠI van
our se
ĠL ow
Ġch ased
ĠN ets
15 88
Ġex amples
16 05
24 88
28 58
ab ul
ĠE aster
Ġj ack
Ġor ange
Ġoff season
Ġtr apped
ĠK enny
ra ham
ĠO x
Ġrec k
hed ral
erv ille
gr aph
Ġunder going
Ġimp ose
Ġhelp ful
Ġnow here
Ġsur plus
Ġfl our
Ġvot er
let te
ĠRe port
ĠSp encer
Ġche ese
ĠEn ron
Ġav iation
lin t
Ġinf ant
Ġfar ms
All en
Ġpolic emen
Ġground er
que z
Ġsoon er
ĠDay ton
Ġrespons ibilities
Ġsect ions
Ġvide ot
Ġhol y
Ġspeed s
Ġdeter ior
Ġrock s
leg iate
Un ited
ĠGre ene
Ġpo ison
Ġpil gr
Ġconfident ial
Ġtext ile
Ġtext book
Ġwood en
ĠDes ign
ĠIndust ries
ĠWork s
ĠSpring field
Ġaccus er
Ġaccus ations
Ġcrop s
ĠBurn s
Ġannounc ing
ĠIndep endent
ĠBrother s
Ġbom ber
Ġnort heast
Ġsuspic ion
ĠCoal ition
D oug
F rench
F lorida
G reen
H ome
Q aida
S L
W orld
in ely
Ġs outheast
ed ar
Ġo xy
Ġf ights
it ated
Ġb ounced
ro eder
Ġg entle
ut ing
ĠC lear
ig hed
Ġas ylum
ĠT ories
ĠH ope
ĠH off
ĠF ernando
ĠG et
Ġch at
25 58
25 05
14 58
13 58
17 58
16 58
18 58
23 58
26 58
26 05
27 58
29 58
29 05
10 58
are st
are tt
Ġcomp iled
Ġcomp onents
Ġout break
Ġfin ishes
Ġen rolled
Ġsome how
Ġdec e
oll ah
Ġback s
Ġret ained
au x
ĠJohn ny
Ġ8 6
Ġrest ored
Ch icago
ĠQ aeda
ĠGr ace
ĠHar vard
Ġsuggest ion
Ġpain ted
Ġapplic ants
ĠHol mes
Ġbomb ings
ĠHam as
Ġprevent ion
Ġlif ting
ĠCons umer
ĠCanad ians
Ġdemonstr ate
Ġdemonstr ated
ĠNor man
Ġpil ots
ĠEll iott
Ġtim ing
Ġchem icals
Ġdisappoint ment
Rec ently
Ġcru ise
ĠEnter prise
Ġpaint ings
ĠFil ip
Ass oci
ĠKurd ish
Ġpersu ade
Ġlandsc ape
ĠRivers ide
Ġenem y
Ġanc ient
Ġadequ ate
Ġrefuge es
Ġemplo ys
Intern ational
ĠRou ge
Crit ics
ĠWiz ards
Sund ay
0 9
E v
I F
c at
f ive
k ar
m ind
Ġt ee
Ġt emp
Ġt ender
he lp
in f
in h
Ġc ab
Ġc ater
Ġf old
ar ia
ou x
as ant
Ġm ere
Ġd iamond
st e
ĠC ad
ĠC oug
ĠC zech
ĠC rawford
am ework
Ġst abil
ill on
us ions
ĠB ird
ĠB eng
ĠP le
Ġr ated
Ġr ivers
ĠD ian
ĠR umsfeld
ĠT all
op ed
ate ful
ĠN i
ĠN ation
14 05
13 05
17 05
18 05
23 05
28 05
ĠE mp
Ġor che
Ġsp are
se at
are a
ĠU W
Ġint end
ass i
Ġen v
Ġdis rupt
Ġacc using
iss ue
ink s
Ġund ers
gr at
ov sky
Ġsur ged
ual a
Åĵ ItÃ¢
con i
200 4
Ġkeep er
Al most
ipp ers
Ġbre ach
ĠDep ot
ĠPh arm
Ġsk i
ĠGr an
ĠCan berra
ĠBar celona
Ġlow ered
Ġpriv at
ĠHar vey
Ġviol ating
Ġant ib
Ġreb el
room s
Ġglo be
Ġenjoy s
Ġacqu itted
Ġjump ing
Ġbott les
Ġens uring
Ġcorpor ation
ĠGre ece
Ġbatt led
Ġbed s
Ġprinc iple
Ġiniti ated
ĠLeg ion
Ġperfect ly
Ġsport ing
Ġsoph istic
Ġuns uccess
Ġfeed ing
ĠJac ques
Ġhy brid
ĠFred er
Part icip
ĠElect ric
ĠCole man
Ġarchitect ure
Ġflex ible
ĠGriff in
Ġfier ce
ĠNiger ia
Ġimpr ison
ĠConf eder
ĠUE FA
5 94
5 64
B el
E r
J ose
R oy
R ead
V is
c ore
c ue
d am
h ind
m aster
n ation
r ate
s ize
t wo
z o
Ġs idel
Ġw ard
Ġo un
Ġf ool
Ġp add
Ġg est
ĠC anyon
ĠM G
ĠM ol
ĠM unicipal
ĠA qu
ĠB JP
ĠP uert
Ġ1 25
her ty
ĠR ays
ĠT ravis
ĠF DA
ĠL ak
ĠL ie
Ġch ocolate
19 66
14 83
Ġsp aces
Ġoff shore
Ġun con
Ġsc ream
ass ion
ian g
Ġpre ceded
Ġpr ay
Ġcons cious
Ġunder go
ib s
Ġimp rop
Ġass ignment
te gr
Ġprov inces
ĠSh ir
Ġcap ability
by ter
Ġ9 00
Ġpolit ically
Ġchief s
Ġimportant ly
Ġstar ring
Ġcho osing
Ġdesc ription
Ġrad ical
rup ted
han ie
ĠShe ikh
ĠCr us
ĠJeff rey
ĠEm b
Ġtransport ed
Ġesc al
ĠHaw ks
Ġexecut ion
ĠCharl eston
ĠIran ian
Ġresear cher
friend ly
Ġcoast al
Ġpra ise
ĠSu z
Ġacquis itions
ĠFeder er
Ġsponsors hip
Ġpharm ac
ĠNort heast
ĠHon or
Austral ian
Ġmolest ation
Ġmyst ery
ĠChand ler
Ġavo ided
Ġfortun ate
ĠEmer gency
ĠRest aurant
ĠAber deen
ĠRal ph
' ,
B ank
B orn
C am
D etroit
E P
L L
T or
b ird
c les
l ass
n ames
Â Ń
Ġa qu
he ll
or se
Ġb rows
ou ver
st able
ĠC os
ĠC aval
el ed
Ġhe ll
ĠM obile
Ġst alled
ĠA lp
un s
ch i
Ġr ings
ear chers
ĠI M
ĠR y
ĠR uth
ĠT ac
ĠT uc
ĠW ash
ĠH ob
ĠH ollow
Ġpl ug
Ġex ch
25 77
25 83
17 77
16 77
18 77
26 77
Ġk m
ub ar
Ġall ies
ber to
ĠO t
act ed
ĠV ern
ater n
Ġmon ument
ield s
ĠMar ie
And rew
Ġent ert
Ġins ist
Ġhead lines
ph ony
Ġtax i
Ġev ident
rest on
Ġmove ments
Ġref lects
Ġair pl
ĠSch umacher
ĠBar nes
Ġsure ly
Ġnation ally
Ġaut hentic
Ġap iece
Ġdifficult ies
Ġport able
Ġfast ball
udd in
Ġcontribut ing
Mar co
Do ctors
Ġapproach ing
ĠPet erson
Ex p
Ġassault ed
ĠBur ke
umn i
Ġlabor atory
Res earch
Ġstorm s
Ġhar vest
Gr and
Ġmagaz ines
ĠLind say
Ġdedic ation
Ġapprec iation
Ġsleep ing
Ġenh anced
Ġpled ge
do ing
Ġbreat hing
ĠCost a
Japan ese
Ġexcess ive
Ġassum ed
Ġincent ive
iat ric
enz ie
Eng land
ĠGib son
Ġinaug ural
ĠPrinc ipal
ĠPatt erson
ĠRap ids
ĠLuther an
quer que
ĠCommon wealth
Ġdub bed
Ġpries ts
byter ian
C ertain
L eg
N C
O per
S a
T ake
a uthor
l isted
m atch
p ack
p ost
r ative
Ġt ension
Ġw are
at oes
Ġb ay
es ity
Ġin app
Ġh arsh
Ġd iversity
st ring
ĠC ust
ig en
ĠM iguel
Ġst ays
Ġst int
Ġst iff
im mer
Ġsa uce
ĠP in
ĠP ap
Ġcon gest
Ġcon grat
ĠD ul
ĠD iana
ĠT un
ĠT rop
ĠW W
ĠW r
ew ell
ew ater
ĠJ ol
ould er
Ġex ha
14 77
13 77
13 83
17 83
16 83
18 83
23 77
23 83
28 77
28 83
26 83
27 77
27 83
29 77
29 83
10 77
10 83
20 66
Ġsp o
ĠO mar
Ġte eth
ĠV anc
Ġpr iced
Ġdec lining
Ġind oor
Ġbl essing
Ġprov isions
ĠJohn ston
let cher
Ġbas ement
ract ed
Ġkill s
St ep
Ġhold ers
Ġline back
Ġtechn ique
ĠCar p
Ġsuccess ive
Ġprocess ors
sp ons
Ġcor rid
ĠHar per
Ġtele com
umb ling
yn n
Ġreb ound
Ġdifficult y
Ġdisp utes
ĠShe ll
Ġsn ap
ĠChe ster
Ġgovern ance
arden ne
Ne ill
ĠTechn ologies
ĠTy son
ĠGM T
Ġinstruct ions
ela ide
ĠNash ville
Ġrecon struction
Ġoblig ations
ĠRaf ael
Ġdivers e
Ste ve
ĠCour se
Ġgym n
erb ai
ĠDur ham
Ġdu o
Ġvig il
Ġhyd ro
Ġfab ric
Ġunn ecess
Hen ry
Ġstun ned
Ġintellect ual
ĠNever land
Ġluc rative
Ġoxy gen
0 1
5 49
? '
F O
F re
F amily
K e
L ondon
M ax
P ac
R og
S I
T OR
h ar
h as
o j
w he
y alty
Ġ 88
Ġt ar
re ated
Ġw ider
Ġp uzz
al le
ro se
ĠS ad
ĠC ul
ĠM d
ĠP av
ĠP olicy
Ġan nex
Ġal ly
ri ver
ĠD C
ĠD avenport
Ġpro cl
ag s
ĠF resno
our ing
ĠL ump
ĠN ar
Ġv oc
ust y
Ġab st
Ġag ing
und ee
Ġac re
ĠCh ile
ord ination
Ġte aches
ose x
ick ed
Ġrec ycling
ĠV illa
Ġsec urities
Ġpre ced
ang a
anc o
anc ies
Ġbu g
Ġunder lying
Ġshould ers
ĠMon aco
ush ing
Ġcur b
ĠComm un
Ġ19 45
Ġ19 75
Ġtrans it
Ġhom icide
Ġaff ects
Ġmiss ile
Ġequ ipped
yp e
Ġoffer ings
Ġexc itement
Ġperiod s
ris k
Ġremain der
Ġproduct ivity
Ġkick s
ĠWe ber
ĠChief s
urk ey
Ġ197 2
Ġcollect ive
Ġgold en
Ġscient ist
Sen ate
ns ic
Ġgall ons
ĠRec reation
Ġarriv ing
ĠRick y
ĠMedic ine
col m
Ġrid ic
Look ing
Ġli ability
Ġmerch and
Ġenroll ment
ĠSpart ans
Ġfing ers
vere ign
5 39
5 69
5 79
K Y
M er
N othing
O il
T en
T im
T ex
a head
b ank
e ated
h ran
l ain
n esty
Ġ ump
Ġt empor
Ġa ides
Ġs ib
Ġc os
is le
Ġp ipe
Ġp etroleum
ar ity
Ġto pp
Ġin h
Ġin ner
Ġm ask
Ġd umped
ent in
Ġl ing
ve t
ut ton
ĠS ound
ĠS ierra
ig o
ĠM ul
ĠM ess
ĠM VP
ĠB ack
ld er
ĠP ub
th y
ĠI C
ĠI V
ĠD aw
ĠT as
ĠT ol
op ard
ĠW a
ĠF ab
Ġch a
ess ional
od a
Ġex ists
19 37
qu est
ĠE c
Ġper ception
Ġover turned
ach t
ĠV ick
Ġthan ked
ang o
ult on
Th ursday
Ġdec k
Ġcons ent
55 6
55 8
And erson
Ġmanag es
uss els
ĠComm and
ĠCent ury
Ġwar rants
Ġeconom ists
lor ia
Ġsk ipper
Ġprocess or
Ġmod ified
Ġcontract ed
Ġeduc ate
sc oring
ĠEx pl
ĠSup ervis
Ġcompl aining
Ġcred ibility
Ġstrugg les
mon ton
Ġspeed ing
Un like
Do es
ĠEm ploy
Ġinflu ential
Ġsubsid ies
Go vernment
ĠWild cats
ĠDev il
Ġadvoc ate
ĠHay es
Ġjur is
Ġmand ate
ĠProf essor
Ġwound ing
Def ense
Ġtreas urer
ĠWy oming
Ġdeserv es
ĠUk raine
Ġsemin ar
Ġadvent ure
Ġreleg ation
ĠUzbek istan
Ġreluct ant
ĠCond oleezza
Ġgrocer y
ĠThom son
Ġauth ors
ĠMidd les
ĠVlad imir
ĠESP N
M en
M ON
N ick
S w
U T
g io
i ere
l us
l ie
m un
p in
p resident
r ington
s up
Ġs in
Ġc ope
Ġc ats
ed o
Ġo usted
es y
es ome
Ġp ic
Ġd irty
le ep
Ġl angu
st age
ĠS ection
ĠC able
ol ves
et e
ĠM t
ir it
th at
est o
ĠR id
ĠF riends
ĠL owe
ĠG DP
ĠN ob
end ra
19 96
19 53
iv ities
ĠE ven
ĠE sc
ĠK arl
ine jad
Ġun rest
ĠCh ase
Ġint ensive
Ġnew est
amp ed
Ġso vereign
Ġop ted
gr ader
55 4
55 7
Ġcar ing
Ġshow down
io x
Ġloc als
Ġsm ell
ĠSh op
ĠAn na
ĠAl a
ins ki
Ġsub jects
Ġwar nings
Ġrele ases
aul ts
Ġorgan ic
Ġeconom ies
Ġref using
Ġland s
Ġfar mer
Ġauthor ized
ĠSm all
Ġeng age
ĠPal mer
wh ich
Ġcelebr ity
ĠFor ces
Ġtw ist
Ġpain ful
Ġdisp uted
Ġbroad er
More over
raw l
Ġkick ing
Ġregard ed
Ġkid ney
Ġpurs uing
Ġintegr ity
Ġwood s
Ġwarm ing
Ġrail road
Ġconvers ations
Ġsweep ing
ĠId ol
Ġrac ial
Ġcounsel ing
ĠPhill ies
Ġunderst ands
ĠKo izumi
fortun ate
Mor gan
Ġtun nel
sec ond
ĠHend erson
Ġingred ients
Ġsurrend ered
ĠWend y
ĠHass an
ĠPra irie
ĠVanc ouver
B as
B oy
D i
D en
E ll
E vent
G od
K eep
L B
b ig
c ost
d ig
p ur
u et
w ord
Ġ icon
Ġt ech
Ġt anks
en h
at ah
Ġb out
Ġp ants
al ion
Ġm oon
Ġm ature
Ġl in
Ġl ending
ac les
ĠB un
ĠB ak
ld quo
ĠP eoria
th al
ment ed
ĠJ ake
ĠL ear
ĠG ay
Ġv ibr
15 33
19 46
19 76
19 36
24 44
24 43
ud es
20 96
20 37
Ġj unk
Ġsp ends
Ġab duct
ĠK uala
ĠSt akes
ĠCh ancellor
Ġsc ope
Ġpol ling
Th omas
ĠIn sp
Ġgr ateful
ĠTh under
app er
we go
55 1
55 3
Ġbr on
Ġevery day
Ġhand ic
Ġph r
ĠCl ay
Ġresp ected
Ġrece ip
Ġfr amework
Ġgen etic
ĠIs lands
Ch arl
Ġroad side
With in
Ġbar rier
back ed
ĠSup port
umb led
OR E
ĠRes ort
Ġreb uild
che ck
Ġnetwork ing
RA M
Ġlic ence
Ġcorpor ations
Cl ass
ĠDen mark
Ġexecut ed
ĠInter ior
Ġpo ised
Ġactive ly
ĠDar fur
Dav is
Ġemot ions
ĠWind sor
Ġexplos ive
Ġcrack down
Sec urity
ĠBrook lyn
Ġcontain ers
Ġinstruct or
ĠHur ric
Ġmurd ered
Ġshif ted
Ġdrag ged
Ġanonym ous
Ġmos que
Ġcorrespond ent
Ġdivor ce
Ġpublish ing
Ġgraph ics
ĠAur ora
Ġbure auc
A round
D irect
M ill
Z arqawi
b ul
d ec
h ome
h orn
z ing
Ġt ill
Ġt ire
in as
Ġs ang
Ġc ouncill
it ig
Ġb ump
Ġp osed
Ġp ensions
Ġh ailed
Ġm aid
ic z
om ers
le ft
Ġn aturally
Ġg ren
ĠS BC
ĠC O
ĠC eb
el i
ec essor
ĠA B
ĠA id
Ġwas h
Ġwas ted
ĠP ont
ĠD om
ĠR ams
ĠT oday
ĠT ommy
op es
ain es
ĠH ousing
ĠF le
ap ova
15 44
15 67
15 63
15 97
15 43
15 47
15 93
15 73
19 94
24 67
24 63
24 97
24 47
24 93
24 73
24 33
Ġde emed
20 46
20 53
Ġup beat
Ġne p
ĠO d
Ġun av
ik k
iz ers
itt y
orm al
Ġar ray
ĠThe ater
Ġbr ide
ĠBr itt
Ġopen ly
Ġnight m
Ġcontin u
sh irts
osp el
ĠSc out
less ly
ĠAd rian
Ġbill ions
Ġdist ingu
sc reen
Ġfoot age
ĠGu y
Ġplant ing
ograp h
Ġfocus es
Ġmag ic
Ġtraff icking
Ġtradition ally
Ġclean up
Ġgolf ers
ĠSand ers
ĠCast le
Ġeditor ial
Invest ors
Co ach
ĠAlb u
ĠMet ropolitan
igg ered
Ġkidn apped
ĠBloom berg
ĠAut om
Ġce ase
ĠBah rain
Ġcasual ties
Ġanonym ity
Ġexplor ation
Ġtact ics
ĠPad res
Ġbic ycle
Ġcancel ed
ĠStat istics
ĠNext el
Sy rian
ĠEth iop
Ġwholes ale
Ġtranspl ant
ĠKenn eth
Ġmisdemean or
allen ge
Ġcaut ious
ĠLaf ayette
hyth m
Ġtempor arily
C alif
J ason
J osh
J uly
N ov
p it
u ki
Ġt empt
Ġt asks
Ġs ne
Ġs add
Ġb ureau
Ġb esides
Ġin ject
ou ch
Ġh amp
Ġm ild
Ġd ent
Ġth under
Ġre op
Ġn ic
ĠM ap
ĠM ove
ĠM ats
ĠA G
ĠA AA
ĠP S
ĠI N
ĠR osen
ag ic
ĠF ro
ĠJ oint
ĠL akers
ĠG P
ĠN ag
18 66
27 66
ab s
20 76
20 36
20 87
Ġse g
Ġsp ac
Ġk iss
Ġtr out
Ġtr iggered
Ġcomp ound
ĠK ate
ĠU s
ous ands
Ġsc ar
Ġinto xic
lic ts
Ġinter ven
other apy
Ġstr ained
ĠBr istol
duc es
Ġsm ashed
ative ly
Ġsub stitute
Ġtop ics
Ġ19 40
Ġcountry Ã¢
ck er
Ġadv ances
ĠMin n
Ġtrans mission
Ġcharg ing
Ġmain land
Ġmain stream
Ġref use
ĠWill is
Ġdifferent ly
Ġbar bec
Ġbreak through
cast ing
Ġlight ing
Re venue
Ġsett lers
ĠWeb b
Ġpred ecessor
mark ed
Ġstreng the
Ġ197 4
Ġbal anced
Ġclin ics
Ġsuppl iers
ĠLiber als
Ġestablish ing
Ġpurs uit
Ġbow ling
ĠHun tington
Ġcommunic ate
ĠGil bert
Ġvend or
Ġliter ature
Ġrelax ed
Ġast ron
ĠNic ole
Ġtub e
Ġtort ure
Ġsubsequ ently
charg ed
Ġbrut al
Ġconvent ional
Ġinev itable
ĠCurt is
ethe less
PAR IS
ĠBask etball
ĠAlbu querque
C B
C are
F ar
H ill
I ll
I ON
L ife
L IN
O ct
P P
U C
W ednesday
b illion
c r
f ill
g ian
h ot
h ma
l ink
o os
p ay
v i
w all
Ġa ide
Ġthe atre
on el
Ġs ounded
Ġc ock
Ġc ement
Ġc argo
Ġf ond
Ġb old
Ġin ch
al ore
st am
Ġbe ars
Ġe lement
ĠS T
am er
el man
ĠM ut
ĠM ult
ĠA CC
ĠB enson
ĠP il
ĠI RA
est ing
Ġcom merce
ĠF is
our cing
Ġch art
ĠN AT
art a
ort ium
25 66
19 87
14 66
13 66
17 66
16 66
23 23
28 66
26 66
29 66
10 66
Ġor ient
Ġtr illion
Ġout lets
ĠK os
ub ble
ong yang
ĠSt ars
ie g
ie ves
Ġexp ed
Ġcont emporary
ĠV e
Ġkn ocking
row th
Ġrep ro
Ġind icted
55 2
Ġhigh lights
ĠAr lington
az ar
As h
Ġfund raising
ces ter
uff ed
Ġob esity
Ġreal istic
lin ary
ient ists
Ch inese
Ġpolit ician
Ġhalf way
Ġsum m
ĠWh o
ĠAustral ians
ĠPl ant
Ġjoin s
Ġtrack ing
par ts
ĠBro ck
Ġdam aging
Ġblock ing
Ġreview ing
ĠBay lor
AT LAN
Ġfresh men
Ġslow down
Ġappeal ing
Ġrob bed
Ġprem ises
Ġpull out
ĠField s
Ġseed s
Ġswe at
Ġquiet ly
Ġnarrow ly
Ġneighbour s
Ġtaxp ayer
Ġdesk top
Ġsupervis ors
Ġremov ing
Ġce iling
Ġuncertain ty
Ġconsolid ation
Ġmos qu
ĠMick elson
ĠLeon ard
Ear ly
Ġresum ed
ĠTem ple
ĠVin cent
Cong ress
Ġtradem ark
Ġunear ned
ĠWag ner
C ast
D own
G ary
H ardenne
L ou
L ear
P ublic
P akistan
T uesday
V ol
f are
k ies
n ik
v as
Ġw ickets
at al
Ġc ure
Ġc ord
Ġb ite
Ġb other
Ġp ave
ar ation
Ġin her
Ġe ased
ur i
Ġst ored
us c
ĠB P
ĠB T
ĠP ers
ĠP ass
if ty
Ġch asing
ĠN HS
Ġsh ame
15 58
19 74
19 57
19 86
24 58
23 66
ab out
10 27
20 57
ĠK ane
und y
Ġwe aker
Ġun fortunate
In it
Ġrec alls
Ġpart ially
Ġacc um
enc ia
Ġgr ay
ov ing
Ġbl own
ey es
Ġshow case
ĠSh ore
Ġdep endent
Ġiss uing
Ġcare ers
Wh atever
ĠSc r
Ġfinal ists
Ġrele asing
Ġless er
ĠAd d
ĠAust ria
Ġsk ept
ĠPro secut
Ġmar athon
Ġmod e
ĠSch roeder
ĠMan uel
Ġdeb ts
go ers
Ġsaf egu
ĠEd monton
Ġgener ous
Ġbuy er
eff ective
ĠMor rison
uk a
Ġgun men
Ġsignific ance
Ġhol idays
Ġphys ician
Ġtravel s
igr ation
Ġachie ving
ĠCor by
Ġappoint ments
Ġsepar ated
ĠSam uel
Ġvo ices
ĠOn line
Ġathlet ics
gen eration
Ġcommit ments
Ġimplement ing
Ġsuit able
Res earchers
ĠPe ace
Ġtrail ing
ĠWal ter
Ġprosp ective
Ġblo ody
ĠAz erbai
SAN TA
ĠPres byterian
Mark et
Ġdress ing
Ġrecruit ment
Ġforg otten
Ġmurd ers
Ġhel met
ĠBuff alo
ĠPed ro
Bet ween
ĠInv itational
Ġincumb ent
stro ke
Exper ts
ĠTuc son
Ġunnecess ary
Ġjuris d
A h
B ER
C helsea
D ay
E conom
H I
K n
K ar
M ake
R ather
S ep
T op
f r
j ud
p y
t aking
z one
Ġ 97
Ġa x
in qu
Ġp owder
Ġh ub
Ġd awn
Ġl ately
ro ved
st ant
ot ers
Ġis lands
un ct
ĠB ren
Ġ1 60
ĠD U
ĠD onna
ĠR ace
ĠR ash
ĠT ask
ag en
ag her
ak y
ĠH utch
ĠL odge
ast ed
ort on
15 05
ist ries
19 56
17 16
17 76
17 37
24 05
ust ers
Ġwhe at
ĠK ap
ub er
Ġwe ighed
ĠCh allenge
Ġrec re
Ġapp laud
oin ter
Ġpart ial
ĠY MCA
Ġrep ay
Ġret reat
ah l
Ġrel iable
ĠBr ight
Ġfl own
ĠLe ft
Ġwr ap
per cent
Ġhealth care
Ġinvestig ator
work ing
Ġpop ulations
Ġmar ry
Ġfail s
AP OL
ĠRep resentatives
Ġexc use
ĠRes cue
Ġfirm ly
Ġmeas ured
Ġgl imp
Ġglo ve
Ġforeign ers
Ġdraw s
Ġslow ing
Ġrespond ents
Ġstation ed
ĠHow ell
Br ad
Ġcounter parts
Ġsuppl ier
Ġelimin ating
Ġscr atch
ĠDun n
Ġassess ed
Ġprompt ing
Ġconvers ion
Ġconcl ave
Ġven ues
Ġconcentr ation
Ġlit igation
Ġclassroom s
olph ins
Ġevac uation
Ġlicens ing
ĠEngine ering
Che ck
Ġpap al
ĠBelg ium
Never theless
ĠSpe aker
Ġanch or
Ġassass ination
ĠMalt a
Ġpros per
ĠSimp son
Ġkindergart en
ĠLump ur
APOL IS
9 11
A Y
B UR
E U
G reat
H AM
P ost
P ORT
b ats
g reen
t able
u er
v or
Ġt une
Ġa ired
Ġc orp
Ġc otton
Ġf ame
Ġb io
Ġd imin
Ġbe loved
ĠS lam
ĠC A
ĠC S
ĠC a
Ġhe els
ĠM ake
ĠA ce
ĠB i
ĠB og
ĠB AR
ĠP etro
ĠP ione
ĠP etroleum
Ġr up
Ġal ike
ĠD ixon
ĠD elta
ĠD undee
ĠT k
ĠT ucker
ĠW atch
ĠW ireless
ĠH ann
ĠJ ak
ĠL ot
ĠG utierrez
Ġby pass
Ġsh attered
Ġpl ain
25 28
25 37
14 16
14 23
14 28
14 26
14 29
14 37
13 18
13 27
13 37
17 26
10 16
10 37
20 56
20 86
ĠE uro
se ven
Ġtr ails
Ġtr ailed
ok ia
so le
ber ger
ĠO g
ĠO pposition
ik ing
Ġcont rolling
Ġbo ot
anc ers
Ġcar bon
ĠNew sw
Ġtri o
ĠBr and
ĠSh annon
58 1
Åĵ There
Ġdisc our
Ġfr ight
Ġinform al
Ġstrong est
Ġbud gets
Ġdoesn t
ĠOr der
riz e
Ġste pping
ĠBill ings
ĠWeb ber
Ġboy cott
add y
Sh ould
Ġsem ester
Ġfavor able
Ġassoci ations
ĠMic he
Ġlink ing
Ġinsp iration
ground s
Ġconsult ants
Ġbrief ing
Ġten ants
Ġcolle ague
ĠYank ee
ĠGreg ory
ugg ets
Ġresc ued
ĠViet names
comm ittee
Ġbound aries
ĠEver ton
Ġinvent ories
ĠInvest ment
ĠJess e
ĠMajor ity
Ġrush ing
Ġunanim ous
ĠHist ory
Em ploy
Ġsurprising ly
heim er
Ġlegend ary
Ġsustain able
Ġharass ment
Ġconcess ions
Ġswit ched
Ġfert il
Ġdisappear ance
Ġoutr age
Fresh man
Ġsophistic ated
Event ually
ĠVietnames e
B ow
D F
J a
K U
M T
S ure
T ony
b uilding
d r
l ay
m m
m ine
s he
v ine
Â ¡
Ġt urf
in ob
Ġc ant
Ġf ares
Ġh ij
Ġm old
Ġd airy
il ies
Ġth umb
ent e
Ġre ign
st ruct
ut ure
ĠC rystal
ĠA er
ĠB erry
ĠP am
Ġ1 15
ĠD ew
ĠD ata
ĠD oyle
ĠR F
ĠR ugby
ag l
ĠH ick
Ġle ap
Ġpl aint
25 16
25 18
25 26
25 27
25 29
25 53
19 64
14 18
14 27
14 53
iv a
13 16
13 28
13 26
13 29
13 46
13 96
17 18
17 28
17 27
17 29
10 18
10 28
10 26
10 29
10 76
10 53
20 94
out ed
Ġk ne
Ġout lined
Ġper pet
ĠCh arter
Ġcont amin
ick er
Ġsc orer
Ġwork force
ll a
ish i
ident ified
ov an
Ġhigh s
ĠAl v
ott o
ham mad
ĠPark way
Ġtrad es
Ġpar am
ĠDav ies
Ġvol umes
Ġocc urs
omin ated
ĠCouncil man
Ġneg lig
ĠEl s
Ġden ies
Ġworth y
Ġvide os
Ġdefe ating
ĠMcC ar
ĠKing dom
Ġattract ing
Ġaim ing
ĠCard iff
Ġadvert is
gen eral
Ġmount ing
Ġwithd rawn
Ġsun ny
Ġupd ates
Ġexplos ives
Ġprec ious
ĠWork ers
Ġconcentr ate
unning ham
Ġprohib ited
Ġwealth y
Ġpap acy
ĠDet ective
Ġsubsequ ent
ĠUr ban
ĠColomb ia
ĠGreens pan
ĠFT SE
ĠPos ada
Ġreimb urs
ĠCoug ars
Ġlineback er
Ġnep hew
ATLAN TA
D istrict
G ame
L o
N asdaq
O s
R P
R eal
e i
e ah
f ly
f its
f ighter
n ut
p owered
t es
Ġt ur
in ated
Ġs ink
Ġw ip
or ous
Ġb ones
Ġp el
Ġp izza
ing o
Ġl ag
ĠC ats
ĠM es
ĠM errill
ĠB our
ĠB row
ĠW als
ĠH ampton
ĠL ag
ĠL ance
ĠN a
15 77
15 83
25 23
25 46
25 96
25 76
25 36
oc c
19 89
14 46
14 96
14 76
14 36
13 23
13 76
13 36
13 53
13 57
17 23
17 46
17 96
17 36
17 53
24 77
24 83
ab ling
10 23
10 46
10 96
10 36
out heastern
ĠE arl
Ġsp y
ok en
ĠK ids
ĠK urt
Ġcl ashes
ĠO re
Ġac id
Ġinc l
ven ge
Ġcont ender
Ġman ip
Ġ3 60
Ġapp lying
ress ing
ne apolis
Ġinter f
Ġund is
ood y
ug ly
ĠJo el
Ġshow ers
att led
ĠSh arp
Ġfound ing
ĠRe f
Ġconf licts
com p
Ġev olution
ĠCol in
ĠSc he
Ġtrans formation
Ġob jects
Ġinj uring
ĠTr ack
Ġspecial ty
Ġhost ile
ĠAm anda
che on
onn y
ĠRiver a
Ab d
ĠQu inn
Ġcouldn Ã¢
Ġprofit able
Ġmix ture
Ġgre ens
Ġroll s
Ġcat ches
arent ly
ĠMe eting
Ind ian
Ġclin ched
Ġwilling ness
Ġdefin ition
Ġinsurg ent
ĠAnn ual
Con struction
Ġasp ir
Ġtim ely
Ġsche mes
ĠEar n
ĠDes ert
ibb ons
ĠWild life
Ġhelicop ters
ĠAz iz
Ġtrib es
Ġsucceed ed
ĠCirc le
ĠJul ie
raf ts
ĠDub lin
Ġliqu or
Ġinnov ation
Ġreject ion
ĠGonz ales
ĠOper ation
Ġpattern s
Ġdrunk en
Ġdemol ition
keep ing
Ġfro zen
Ġunh appy
Ġsmugg ling
Ġsubd ivision
Ġterrif ic
Ġerup ted
ĠPurd ue
Ġindict ment
A IDS
E ric
F F
F uneral
H as
M ajor
O pp
P e
R L
R ice
R ober
Y U
c aster
e lected
p o
p her
u ers
u ke
y es
Ġt ale
he nd
at ics
Ġc ad
Ġc ops
Ġo v
es ar
ar ts
Ġto ys
Ġto xic
as i
Ġd angers
st airs
ĠS ter
ĠC C
ĠC ord
Ġst abbing
Ġat op
ĠP f
ĠP reston
Ġr ains
Ġpro portion
ak ness
ĠF inn
ĠL og
ĠG am
ĠN urs
Ġle vy
Ġsh ook
Ġsh orter
19 54
19 84
13 87
qu is
qu alif
qu ality
10 57
ud er
Ġj oked
Ġoff ence
ich ita
Ġexp ression
Ġcont acts
av ier
ace y
ass er
ian ces
ict ory
Ġlo vers
Ġinv ite
Ġgr ap
Ġimp er
Ġmin imal
Ġcar n
Ġrel ating
Ġdon or
Ġloc ate
Ġsm iling
ĠAl t
Ġwon Ã¢
Ġdirect ions
ĠCl ayton
Ġcost ing
Ġext rad
Ġappro aches
Wh ich
by e
Ġhard est
Ġstat ue
Ch annel
ĠPr im
Ġsk illed
Ġalle ging
ĠHar iri
Ġclear ing
Ġpolic eman
Ġbar red
Ġbar riers
Ġtotal ed
ĠOr thodox
Ġreb ate
Ġemer ge
Ġur anium
oph omore
Ġdest inations
ĠGl azer
Ġz oo
ĠMcC l
Ġimm une
ĠMic ro
Ġretire es
ĠIll ini
Ġpoor ly
ny der
Pl us
Ġdetermin ing
Ġachieve ments
Ġtim et
Ġextrem ists
Ġcert ification
Ġsuperv ision
Ġrail way
Ġinstit ute
Ġpartnership s
ĠIm m
Ġdiscl ose
Ġdiscl osure
ĠMoham mad
Ġliter ally
Ġhal ted
SB URG
Ġconstruct ed
ĠJen nings
Ġborrow ing
anj ani
Ġhurric anes
ĠDh aka
ĠBrew ers
ĠShar apova
Sim ilar
Rem ember
Ġdynam ic
ĠBM W
ĠTac oma
Ġexch anges
igen ous
Ġmerchand ise
ĠCeb u
B ook
C le
D O
E ver
G B
J un
M U
R am
W al
b one
b itr
c or
c over
g ies
j amin
r ise
t i
ed ge
Ġf iber
it ate
Ġb orough
Ġp es
Ġp iano
al og
Ġm ud
Ġm ans
Ġl acrosse
Ġg ig
ad ise
ĠS C
ac cept
ot ics
ĠM ug
ĠM az
ĠM eg
ĠM AR
ĠB ee
ĠB ever
ĠB aton
ul ent
ĠD iscovery
Ġcom ed
Ġcom ic
ĠR ound
ain ted
ĠH ood
ĠF ac
ct ic
ĠG ab
Ġch arm
ĠN E
Ġle af
Ġsh oppers
Ġpl ates
25 87
25 57
19 34
14 87
14 57
17 87
17 57
27 27
10 87
20 64
20 74
20 34
20 54
20 84
Ġwor ship
Ġun cle
Ġun identified
av an
Ġsc are
Ġdis ability
ru ce
ult ane
Ġseason al
Ġset back
ĠBr ussels
ĠAl am
ush y
ĠCl iff
Ġsupport ive
Ġleg ally
Ġpass port
Ġvis a
ĠEn forcement
ĠHe ath
Ġsim pl
ĠQ atar
ĠAd elaide
work ers
ĠHigh land
Ġseem ingly
Ġart ific
Ġval ley
Ġdist ribute
Ġread er
ĠChrist ine
Ġeng agement
Ġident ifying
ĠJan et
ij ay
Ġcard inal
Ad v
ĠRob b
Ġwrong doing
ĠTe hran
Ġstrike out
ĠCons ult
IL L
Ġvo iced
Ġexcept ional
ĠScot ts
Fr ance
Bl ue
Ġaltern ate
Ġcooper ate
ĠOs wego
ĠHa hn
ĠBuck s
Ġadvoc acy
Ġoptim ism
Ġeval uate
Ġbelong ed
Ġabsol ute
aret te
Ġpharm aceutical
Ġwheel chair
Ġslam med
Ġkilomet ers
Ġupgr aded
Ġaccomplish ments
Ġbarg aining
ĠGene va
Ġtouchdown s
ĠBald win
Ġsupple ment
Ġrom antic
Cent ral
ĠMour inho
Ġassemb led
Ġphenomen on
ĠKum ar
Ġlibr aries
ĠCore y
ĠVern on
Ġbureauc r
A v
A riz
B ry
I d
O l
P ower
Q U
Q ue
S M
S ar
S and
a igning
b ren
c ock
e on
h ole
j i
k ay
k ok
k eeper
n ell
s anjani
t ry
v iv
z ai
Â ½
en berg
Ġc ake
Ġc ared
an ol
Ġf its
Ġf ax
it an
Ġp ile
Ġre vel
ro d
st rom
ĠS id
ĠC edar
et ch
et eng
Ġhe d
ĠM ann
Ġst akes
ir s
im er
im an
ĠA w
ĠA riel
Ġr ational
ul ed
est ers
est ock
ĠD isc
Ġcom merc
ĠR em
ĠR ee
ĠT reat
ĠF loyd
ĠG w
ĠG loria
ĠN C
Ġv iable
19 79
13 86
16 37
18 46
18 37
28 37
um mer
26 37
27 37
29 29
Ġnot ion
ust in
ect ives
Ġsp am
Ġwor n
He ad
Ġun ited
Ġint act
Ġwork out
Ġapp ropri
Ġro ot
Ġoffic iating
Ġinter active
Ġback yard
Ġrep ly
ash a
ug ee
Ġend ang
Ġcar pet
vent us
ah ar
ĠJo h
Ġstr anded
Ġgu ided
ĠBr ady
Ġhead er
Ġsub urb
min ster
Ġdet ective
ĠRe view
Ġinst ances
Ġposs ibilities
ator ies
ĠWill ie
Ġart istic
ĠSch olarship
Ġfinanc ially
ĠMan it
Ġeduc ated
Ġappear ing
Ġread s
Ġshoot ings
Ġconsider ably
Ġcoll ided
pro of
rick et
Ġsurv iving
bo ards
lim ited
ĠApp eals
Ġminor ities
ĠGrand e
Ġautom otive
Ġ197 7
ĠRod ney
uct ions
Ġdemonstr ators
Ġexperi encing
Ġcas inos
ĠStock ton
Ġacknow ledge
ĠDar ren
Ġapprec iated
ĠWell ington
ĠOs ama
Ġpsych ological
ĠTele graph
Ġtrib unal
fol k
Ġcru el
Ġconven ient
ĠFour th
ĠHur on
ĠAv iation
mo han
Ġrum ors
Ġham string
ĠLim ited
Ġrecip ients
Brit ish
Ġpock ets
Ġoccas ional
Ġhel m
onduct or
Us ing
Ġje opard
Ġmo ist
ĠClem ens
ĠMahm oud
ĠVik ings
ĠJama ica
ĠBerk shire
ĠVerm ont
Ġecho ed
Ġjewel ry
Ġsupermark et
ĠEmb assy
Certain ly
F ind
F red
F ORT
G roup
H a
H un
H all
J ess
O M
P rop
S ub
T ra
V a
W ould
b ear
d aughter
n ered
r in
r ics
t iz
u h
er ie
Ġo ught
Ġf eder
is ms
is ode
Ġp orts
ar ium
Ġd up
Ġd ock
Ġd rown
Ġl ig
Ġl ure
ĠS or
ĠS ith
ĠS tern
ur able
el o
ĠM ak
ĠM ail
ĠM umbai
ec a
us hes
ĠB elf
ĠP aw
th rit
ri ft
Ġcon sole
ĠR oth
ĠT ower
and als
ĠW ichita
ĠH is
ĠH ung
ĠH omes
if fer
ĠF en
ĠG az
all is
Ġsh ark
25 56
25 86
ist on
14 56
14 86
13 56
17 56
17 86
16 76
18 53
23 37
26 46
26 96
26 76
29 37
10 56
10 86
Ġj acket
ell ar
Ġwhe els
ff ield
Ġcomp an
Ġout field
ĠK as
port ers
Ġun le
ond er
ach i
ach ment
Ġapp et
Ġso ared
Ġcomm ence
vel t
lud e
Ġfour s
Ġinter face
cent ury
gr aders
ĠTh orn
ug s
au ge
oint ed
Ġprop ri
Ġhand les
Ġcur ve
Ġoper a
Ġcamp aigning
ĠZ h
ĠHe ather
Ġref und
Ġsk ies
ĠBe au
Ġpress ures
ĠSch midt
ĠBo one
ĠWilliam son
ĠFor mer
ĠMor ning
Ġport ra
ĠMal colm
Ġgun shot
Ġrout inely
Ġsal v
ĠRob in
ĠAngel a
ili ation
Ġobs erve
Sc ientists
ĠBel le
ĠTour ism
Ġnomin ations
ĠMag ic
Ġir re
Ġphotograp h
Ġphotograp her
ĠBoy d
Ġmaint ains
App le
Ġconclud e
Ġspr int
ĠHel en
ĠCost ello
Ġlaugh ing
Ġprepar ations
Ġevac uated
Ġmemor able
Pal estin
Ġow ed
Ġdepos it
Ġpoet ry
Ġwis dom
Ġsatisfact ion
ĠPuert o
Ġbarbec ue
inob ili
6 22
B er
F ord
I X
M ot
N T
P ope
m ill
Ġw icket
Ġin mate
Ġm eter
Ġd amp
il o
le ll
id i
Ġg ut
ad ic
ĠC redit
ĠC airo
ĠM ile
ĠM oss
ĠM ull
Ġsa ke
ĠA ld
Ġthat s
ĠB ark
ĠB ash
ĠB order
ĠP ast
Ġr hythm
ĠR at
ĠR oland
ag ued
op per
ain st
ĠW inc
ĠH arm
ĠF a
ĠF o
ĠF un
ct or
ĠJ al
ĠN eg
ĠN aval
ĠN uggets
Ġv andal
15 66
ard i
19 59
iv estock
16 28
16 46
16 96
16 36
16 53
18 28
18 96
18 76
18 36
26 28
26 27
26 36
26 53
ab a
ack ers
ra ib
Ġne uro
Ġres emb
ĠO Ã¢
ĠO sh
Ġ200 9
Ġman if
Ġover r
Ġnew com
Ġen ables
Ġen abling
ĠV ald
Ġpe ers
ang led
Ġdec ides
We b
ĠY uk
Ġ10 5
Ġfe as
Ġfe ver
ĠNew man
ĠLe eds
Ġmed i
Ġcontin ent
Ġ19 68
ple x
200 3
Ġhom em
Ġsw ift
Ġquarter finals
Ġair ports
Ġvisit or
iff le
ĠEd itor
Ġgener ating
Ġkey s
ĠSe oul
reg ular
wh ite
Ġcommission ed
Ġcelebr ities
Ġste ering
Ġwatch dog
Ġaud iences
Ġgrand parents
Ġdescrib ing
Ġprem ature
Ġautom aker
Ġ197 1
Ġ197 3
ĠHaw kins
Ġheavy weight
Ġut ilities
Ġbi ological
Ġcounter part
Ġrecru its
Bl air
ĠMer cedes
Ġmedic ines
ĠMa ver
Ġperm itted
Se attle
yc les
Ġboss es
oren ce
Ġpatrol s
ĠGh raib
Ġurg ent
olit ical
ĠPre akness
Ġdiscip linary
Get ting
Ġinstitution al
Ġrall ies
Mo ore
Ġshif ts
ĠAut o
Ġsurviv or
Sup er
Ġcomplic ations
Ġinstru ments
ĠIndep endence
Ġenem ies
Ġlad ies
Fore ign
ĠRah man
ĠLP GA
Ġgri ev
Ġsty les
Ġconting ent
Ġcub ic
Ġcongest ion
Ġbron ze
ĠAzerbai jan
Ġtimet able
4 11
D ave
I BM
J ac
R on
T er
b il
e h
h ist
p ointer
u v
Ġw ise
at ra
Ġc ivic
is ure
Ġp a
Ġp ence
ou i
Ġh ab
Ġh oney
Ġd im
il ica
om eter
Ġl akh
Ġn utrition
st ock
ĠS ale
ĠS occer
ĠC in
Ġhe aven
ig inal
ĠM ans
ĠM SU
Ġst ew
ĠA br
Ġwh istle
ĠB us
ĠB rom
ĠB ass
ĠP itt
Ġ1 70
th ree
ts on
ĠD eep
ĠR E
ĠW or
ĠW as
ĠH ockey
25 94
19 49
19 39
19 69
14 94
13 94
17 94
16 23
16 27
16 29
16 87
18 23
18 27
18 29
24 66
26 23
26 29
26 87
ab ies
10 94
10 74
ud a
Ġde fer
20 49
20 39
20 69
20 79
20 59
20 89
ant i
ĠK err
ĠK erry
ĠK emp
Ġ( "
ĠO pt
Ġafter wards
Ġcont end
ous sa
Ġover d
Ġsec ular
amp s
Ġpre view
Ġlo ving
ind y
Ġear s
ĠFr ist
Ġgr at
Ġpres idents
Ġmem o
ax y
eb ook
Ġfl av
Ġent ities
Ġsm ok
pl aced
ĠLe aders
orn s
Ġconf essed
rew s
osp ace
ĠZ one
Ġcompet itions
Ġdr ill
ĠTr inity
atter ing
AN S
Ġround ed
Ġpress ed
ĠAll ison
IN D
ĠJack ie
ett i
Ġconv ictions
str ada
Ġste als
Ġden ying
Ġmag net
unte er
Ġsal mon
Ġsuper ior
Ġinsp ector
ĠSal em
stit utes
ĠEm ily
Ġenfor ce
Fr anc
ĠStep hanie
Ġseed ed
Ġmedic ations
Ġtack les
Ġaffect ing
Ġju eteng
ĠProf ile
Ġbon uses
ĠSant os
BO STON
Ġfru its
Ġcry ing
ĠRen ault
ĠRey es
Fort un
ĠArch bishop
Ġast hma
Out side
bel iev
Ġendors ed
Tw enty
Ġpod ium
Ġvess els
Ġcin ema
rection al
ĠHistor ical
ĠBed ford
Ġrede velopment
Ġfilib uster
Ġhazard ous
Ġepid emic
Ġstead ily
Ġbes ide
Particip ants
ĠShir ley
lus coni
thrit is
" )
8 12
D U
D am
L T
L uc
M AR
T urn
b ally
f ig
g i
g rowing
r ish
w orld
z i
Ġ ugly
Ġs ights
Ġs uing
Ġs izes
re ach
Ġf er
it err
ing ing
ou st
ou la
Ġth ieves
Ġl es
Ġn od
Ġbe aches
ĠS E
ĠS ach
ol ulu
am ous
ĠM ik
ĠA le
ĠP el
em e
ĠD E
ĠD y
ĠD iv
ĠD olphins
ĠT u
and o
ag ne
ag ons
op al
ĠH ait
up id
ĠF rom
ĠF ulton
ĠJ azz
ast ics
od i
15 15
25 64
25 84
oc he
14 54
17 64
17 84
16 57
18 87
18 57
26 57
ĠE sp
Ġj un
Ġoff ences
Ġper ceived
uc ed
Ġwork place
Ġpe g
oin ing
Ġqu ad
Ġpol io
Ġar bitr
ft en
gr and
Ġcons ortium
Ġrep lic
pr act
ov o
Ġdef ine
ĠJo han
Ġbr ick
Ġsub mar
sh ine
ĠSc iences
Ġhom osex
Ġsw orn
Ġprot ective
Ġprot ocol
Ġsim ultane
Ġfore nsic
ĠTr avel
Ġclass ified
ĠPr incess
Ġspecial izes
head ed
ron ically
hic le
Ġbenef ited
omin ium
Ġmid way
ĠSe ven
ĠPat riot
ĠPat ricia
ĠRich ards
Ġrespons es
RA C
Ġfarm ing
Ġrecogn ised
Ġprevent ing
Ġdeep er
Ġcontr ad
Ġreve als
ĠWe ather
Ġbatt ed
ĠMel issa
Ġconserv atives
Ġbur ial
ĠGall oway
ĠChap man
App arently
Ġju ice
Ġexcell ence
Ġinquir ies
Ġdiplom ats
Ġshr ine
Ġreflect ing
Ġtag ged
wr iting
Ġdeploy ment
Ġsurve ys
Ġepis odes
Ġbarg ain
ĠFerr ari
Iraq i
ĠPine hurst
ĠCow boy
Ġcaution ed
Ġimplic ations
serv ice
Ġfacilit ate
Ġentreprene urs
Ġvolley ball
Ġlapt op
Ġcaf eter
ĠPy ongyang
Ġtoil et
ĠSeb ast
Ġbrid ges
Associ ated
Ġunsuccess ful
Ġware house
ĠBelf ast
" ;
3 22
3 21
B re
E le
F i
F air
L ess
L ittle
M O
R T
R ad
T ime
V A
W O
f in
f amily
g ary
g ence
m i
p re
r era
Ġt ut
on o
Ġw ings
or ient
at is
Ġc abin
Ġb ounce
ent ry
Ġre he
Ġl iver
Ġl aug
Ġn ut
ro t
Ġg ates
ĠS ay
ĠC ros
ĠC ode
ĠP ul
ĠP rom
ĠP ick
ĠD J
ĠR ural
ĠT ests
ĠW en
ĠH ig
ĠF ul
ĠF ors
ĠL ast
ĠL owell
25 74
25 34
25 54
oun ge
end on
14 64
14 74
14 34
14 84
13 64
13 74
13 34
13 54
13 84
17 74
17 34
17 54
28 28
27 46
27 96
27 76
10 64
10 34
10 54
10 84
ĠE lection
ant ry
Ġj umper
ĠK w
Ġne arest
ip eg
Ġall ocated
ber ly
He Ã¢
Ġcont ents
own s
ose velt
Ġsc am
ĠV augh
Ġsec uring
amp het
Ġso y
Ġqu een
Ġpol y
ite z
Ġus age
Ġthere Ã¢
Th anks
Ġund ef
Ġcons ists
Ġend ured
ĠNew port
ah on
Ġsur pass
att a
Ġlaw maker
Ġsl ipping
Ġsign atures
ĠRe ading
uff icient
Ġob sc
Ġcourt esy
gy z
Ġpat rons
Ġref inery
Ġlist ened
Ġfire fighter
ĠPro ducts
Ġclub house
Ġpresent ing
ĠAnd rea
bert ies
Ġident ical
Ġhospital ized
bed ded
Ġarg ues
Sh ort
Ad am
Ġrank ings
Ġexist ed
Ġpers istent
ĠGre y
Ne igh
ĠMe gan
Ġsu ite
Pl ayers
ĠPer form
Ġmount ed
Ġsuppl ied
ĠKn ox
Ġburn s
Ġmort ar
ĠRel ay
Ġmeaning ful
ĠHus kies
Ġadjust ment
Ġfrustr ating
ĠMcG u
Ġadvis ers
Ġrecon c
Ġoblig ation
Ġtrop ical
best os
oca ust
Act ually
Ġla und
Ġforth coming
Ġshall ow
wart z
Ġunderw ent
Ġgard ens
Ġpor ch
ĠKle in
Ġmultim edia
ĠSoren stam
mans hip
ĠHoff man
Ġantib iot
ĠCaval iers
ubar ak
spons ored
Ġcorrid or
accept able
ĠMaver icks
3 11
4 22
4 12
6 12
7 11
B ell
C ust
D is
D EN
G lo
M ass
O ak
V al
W alk
W omen
d d
l u
l aughter
m or
m al
n ame
s ite
u ating
w ear
z an
Ġt apes
Ġt issue
er i
Ġs orts
an ed
an ean
Ġb og
ic ism
il ion
Ġl akes
Ġbe aring
ĠS in
ĠC ob
ĠM eyer
ly mouth
ĠA A
ter ior
ĠB uch
ĠP ab
ĠP oor
Ġ1 964
Ġas bestos
em i
ri ved
Ġpro c
ĠH os
ĠH aven
ĠG and
Ġch ains
Ġle verage
16 56
16 86
18 56
18 86
24 24
23 46
23 96
23 76
23 36
23 53
28 46
28 96
28 76
28 36
28 53
um ble
26 56
26 86
27 36
27 53
29 46
29 96
29 76
29 36
29 53
Ġde an
Ġnot able
ĠE ug
ĠE PA
ant ile
ĠK athy
ra ig
ĠO b
In s
erv ation
Ġdis ad
uch i
ens ity
ft y
Ġjust ified
oll s
Ġdown lo
Ġret ro
Ġcompany Ã¢
att y
ĠAr men
Ġcity Ã¢
nes burg
Ġsl aughter
ĠMon ter
Ġser ial
az on
ĠCl ara
Ġdet ected
ĠSp irit
ĠSund ays
Ġadv ancing
com fort
ĠMin neapolis
Ġwar n
200 2
lin er
Ġevent ual
ĠSouth ampton
Ġeconom ics
af ood
Ġmar ine
Ġmar ched
Ġform ing
int age
Ġdeb ated
ĠPl ain
ĠOr acle
ĠMed iterr
Ġchar ts
Ġgl ory
Ġrev ival
Ġpen etr
ĠSer ver
Ġproduct ive
Ġsupp orter
Ġattract ions
ĠKen ya
Ġemb ark
EN T
Ġorganiz ing
Ġsu ited
isher s
Ġconsult ation
ĠBer g
Ġcollect ions
Ġpet rol
ĠBang kok
yr gyz
Ġjoint ly
Ġver bal
Ġstret ched
ĠCam den
ĠStud ies
Ġflood ed
Ġremind er
Ġthr illed
Ġhero in
Ġcontain er
Ġfort une
do ors
Ġplatform s
ih ad
Ġintent ions
ilit ary
Ġuniform s
Ġhurd le
Ġmotiv ation
Ġconfront ation
Ġtoug hest
Ġtravell ed
Ġdecre ased
ĠAlbert a
PH IL
Ġped est
Fire fighters
Ġcig arette
Further more
Ġanx ious
ĠJoy ce
ĠSem in
Ġcanc elled
grad uate
help s
ĠCrus aders
KY O
Ġsib lings
ikk onen
ĠWals h
Fortun ately
Ġlaug hed
ĠMediterr anean
3 12
7 12
8 22
B ang
F e
G U
H aw
H ouston
J on
M arsh
Q aeda
S il
a quin
d n
d el
d rop
i ability
k ick
p oints
t ail
Ġt ipped
Ġw ary
Ġw oes
Ġo l
it udes
Ġb ore
Ġb ip
Ġb ree
Ġp owered
Ġto uring
Ġm amm
Ġd ental
om on
Ġre j
Ġre organ
ĠC hes
ĠC ris
el ve
ĠB ert
ĠB omb
ch ant
ĠP rize
Ġr am
ri ven
ĠD um
ĠF I
ĠF ly
ĠG ross
Ġch ancellor
13 49
18 94
23 57
29 57
10 49
ĠE ther
ĠK ris
ĠU pper
uc ci
ĠO ur
Ġinc ons
ĠCh ambers
ous and
Ġsc or
Ġen abled
Ġen rich
ĠV AT
Ġplay ground
Ġdis hes
lo or
Ġlo yalty
ĠFr ances
ash i
Ġam ended
Ġshow er
Ġins urer
ĠAn a
Ġsl ug
Ġdisc ounts
Ġinst antly
ĠMin or
Ġgrow s
ĠUS D
Ġtrans c
ĠZ am
Ġposs ess
How ard
Ġbre ed
off icial
Ġland l
Ġfact ories
Ġclass mates
cl ays
Ġpresent ations
aun t
ĠAll ied
of i
Ġtele vised
Ġopt ical
iet ies
Ġneg lect
Ġcred ible
ĠEl k
ij i
ĠChurch ill
Ġpack aging
not e
Ġrad ar
Ġhuman itarian
Ġindic ating
Ġfavor ites
ĠMont e
Ġz ones
Ġspot light
Ar t
Ġattract ion
Ġwond ered
Ġpan ic
Ġpan els
Is lam
Ind ust
Ġhor ror
ĠBang alore
ĠBow en
Ġwithd rew
Ġang lers
EL L
ĠNor wich
IC E
ĠMa o
Ġir regular
Ġep ic
Ġele ph
ĠSand y
Ġarrang ement
ĠSol utions
ĠFre eman
Ġadjust ed
ĠTele com
Ġrenew al
Ġemphas ized
Can ada
ĠGe off
wr iter
ĠDown town
Ġmechan ical
Ġexceed ed
ĠAnt i
ĠCas ino
Ġsole ly
Ġdivid ends
Ġconstitu ency
ĠBeck ham
Ġje ans
Ġmagn itude
Ġdug out
Dun can
Ġprote in
Ġridic ulous
Ġpic nic
Ġabduct ed
Ġglimp se
lell an
ĠWinc hester
Ġundef eated
7 21
E st
F W
K elly
M iami
S H
T otal
W ater
f ax
h ouses
i ety
i ots
w right
Ġt ense
in ction
Ġs ends
ar ra
al ie
Ġd ip
id y
ay ev
st ad
ĠS eg
ĠS ugar
Ġfor b
ĠC ut
ĠC ody
ĠC omb
ig ue
ĠM T
ĠM uk
ir ut
em ia
ĠD ana
Ġpro l
ĠR C
ĠR esp
ĠT ak
op t
ĠH D
ĠH ad
ĠF uller
ĠJ ill
ĠL CD
od ing
od ork
Ġsh irts
15 24
15 37
25 39
ist ical
14 59
17 79
16 94
23 87
28 87
28 57
26 94
27 87
27 57
29 87
Ġj oke
ok o
ok s
Ġcomp act
Ġcomp assion
ĠK end
port ing
Ġun believ
ond e
ond o
Ġint rig
av ers
In side
In formation
Ġrec ons
Ġpe pper
ish ops
Ġbo asts
ne g
iss an
arg et
ank ing
Ġass ign
Ġfl avor
uck ed
Ġins ert
âĤ¬ÂĿ ,
Ġ19 67
ĠUS C
Ġturn around
Ġtrans m
Ġstand out
That Ã¢
Ġreal ise
Ġland fill
ĠAf leet
ĠJu ventus
Ġnational s
ĠMan mohan
ĠBar rett
Ġfav ored
Ġmusic ian
ĠGu illen
ĠVal encia
sw orth
medi ate
Ġcand y
amb urg
Ġrecomm ends
ĠChamp ion
ĠMill ennium
ĠReg gie
Ad ams
rick son
Ġintro ducing
Ġflo ating
Ġlack ing
Ġcult ures
Ġcontr ary
Ġsepar at
rig ation
Ġprem iere
Ġpur se
En ter
Ġlog o
Ġbow ler
Ġeth ical
Ġeth anol
rit ers
ĠRec ords
TO KYO
Ġalb ums
ifer ation
ĠConserv ation
Ġmax im
Ġamend ments
Ġdiagn osis
AD EL
cont rolled
Reg ard
Ġmechan ism
ĠDam on
iac omo
ĠCat hedral
Ġdesper ately
ĠBron cos
ĠNich ols
Ġbath room
ĠVo IP
Ġlad der
ĠAhmad inejad
Ġoverwhelming ly
Ġcong regation
ĠAbb ott
Ġmisc onduct
Ġarra igned
ĠPun j
ĠAdvis ory
mind ed
ĠDian e
Ġenv oy
Ġinapp ropriate
Ġunav ailable
ĠNewsw eek
Ġmans laughter
odork ovsky
- $
6 11
6 21
7 22
8 11
9 22
A pr
B est
C oming
F T
F ans
G as
K E
K h
L ew
L ight
M L
R un
R ick
V C
b ee
b ach
b ollah
m il
r ace
v ak
y on
in ner
in ental
er als
Ġs idelines
Ġw art
Ġc um
Ġo m
an th
an ning
Ġf art
it as
Ġp oured
ar re
Ġto ured
Ġm aps
Ġre igning
Ġn a
Ġg ol
Ġg ender
ĠS ah
ĠC re
ĠC lement
et z
ur bs
ĠM yan
ec on
ĠP ayne
Ġal ien
ĠD ome
ĠD ouble
ĠD iaz
ĠR up
and ing
ĠH ey
ĠF ried
ĠF idel
ĠL em
ĠL ah
ĠG ul
ĠG ates
25 49
25 69
25 79
25 59
25 89
14 49
14 39
14 69
14 79
14 89
iv ia
13 39
13 69
13 79
13 59
13 89
17 49
17 39
17 69
17 59
17 89
16 84
18 74
18 54
24 37
24 53
23 56
23 86
um ing
26 34
29 56
10 39
10 69
10 79
10 59
10 89
ome z
Ġk its
Ġab ilities
Ġout let
Ġout right
ĠK rem
ĠK oh
Ġper f
ĠO P
Ġcont ests
ass ing
Ġshe ep
Ġro pe
Ġbo oming
ne ys
Ġpr inted
lic it
anc ock
Ġret rie
Ġ10 6
red ict
Ġgood bye
ĠJo an
rop h
Ġbusiness men
Ġhand ing
ĠRo osevelt
Ġ19 30
ĠCo hen
Ġche ering
ann ers
Ġpost er
Ġfield ing
head s
ĠBe at
ana o
Ġvol atile
Ġbar r
Ġple ad
Ġhon oring
ĠPat el
Ġste am
Ġcomment ed
Ġcomment ary
Ġcheck point
ĠBill ups
Ġcomput ing
ĠSy l
ĠWil banks
Ġtravel ers
Ġovers ight
ĠRob son
ĠQu ote
Ġcommon ly
bo at
ĠWe aver
ĠCom mercial
Ġamb itions
Just ice
Ġmach inery
CO LU
Ġmeth amphet
ĠBur lington
Ġreserv ation
Ġalleg ation
Ġrap ed
Ġlay ing
Ġwid ow
ĠCam bridge
Ph ill
Ġhur ting
Ġlimit ations
Ġappl ause
Comp any
Ġble eding
Ġyield s
ĠBroad casting
ĠPen insula
ĠEver est
Ġforest s
Ġsubstant ially
Ġsew age
Ġrecip ient
Ġmolest ed
ĠDeb bie
ĠEngine ers
ĠAthlet ics
Ġbelief s
Ġfulf ill
Ġbroker age
Bur ial
ĠRand olph
Ġquot es
ĠAmb assador
Ġembr ace
ĠMerc antile
Ġenthusi astic
fund ed
Ġcommem or
ĠHop kins
ĠWinn ipeg
Ġhttp www
Ġmour ning
Ġconj unction
Ġvideot ape
Ġpilgr ims
Ġcha os
ĠMove ment
Ġrecre ational
ĠJak arta
Ġincl usion
ĠEarn hardt
Ġhab its
Ġcafeter ia
ĠMyan mar
0 36
4 21
B road
D ue
E sp
F riends
G ordon
I J
M ex
N O
P E
b uster
c ies
d isc
k h
m od
o ft
s k
y en
z ens
Â ®
Ġt urkey
Ġs way
or rect
at in
an an
Ġf ug
it ical
it ches
Ġb ra
Ġb ikes
Ġd ies
st aff
Ġg room
ut z
ĠS ome
ĠC H
ĠC unningham
ol ve
ol ester
am as
am ation
et ition
ig a
ĠM ath
ĠM oon
Ġst upid
Ġat e
ĠB C
ĠB attle
ce pts
ĠP lymouth
Ġ1 955
ĠI ce
ĠD ist
ĠD yer
ĠR SS
ĠT ennis
ag ine
op les
ĠW ing
ĠW inter
ĠH in
ĠF ein
ĠL or
ĠL ith
ĠN L
Ġpl acement
15 46
15 96
15 76
15 36
15 53
Ġex ams
oc o
iv as
16 64
16 74
16 34
16 54
18 64
18 34
18 84
23 94
28 56
28 86
26 64
26 74
26 54
26 84
27 56
27 86
29 86
ud ent
Ġnot ify
ĠE T
ĠE b
ĠE g
ĠE ight
ant own
ĠK it
Ġad ap
ide o
Ġexp ires
ĠV ic
Ġso ap
Ġqu e
ade qu
Ġpr isons
Ġinter cept
ĠIn iti
Ġcr ashes
Ġmin es
ĠMar i
ĠMar ri
ey ond
Ġrel ation
Ġtri be
Ġfl ows
ĠAn imal
Ġsl id
ĠLe h
As ide
Ġbro kers
Ġconf used
ret ion
St r
Ġinf ections
Ġref rig
ĠPr adesh
ĠCar son
Ġsuccess ion
ĠBe irut
Ġcond ominium
cl iff
ĠSec ret
Ġbar n
Ġtotal ing
ĠOr tiz
Ġdead l
unic ation
ows hip
Ġmid day
Ġgoal ie
Ġrepresent ation
wh o
Ġreb uilding
Ġmeas uring
Ġdesc end
LE M
Ġrev ital
ĠHol ocaust
play ed
ĠRock y
ĠAlex and
CH AR
hol m
Ġenter prises
ĠTor re
ĠTor res
Ġinflu enced
Ġdomin ating
ĠUN C
Ġaltern atives
ĠGreg g
ĠLind sey
Ġbroadcast ing
El sewhere
Ġyield ed
stitution al
ĠFood s
Ġsubsc ription
Ġgang s
lyn n
Ġneighbour ing
ĠSon ics
Ġmir ror
Ġtransl ate
Ġexplor ing
ĠNich olas
Ġstrict ly
Israel i
ĠAM D
ĠPear l
ĠUA E
Ġalt ogether
ĠHew itt
Ġlun cheon
Ġdign ity
ĠLex ington
Ġscream ing
Ġbrows er
Pac ific
ĠCommun ist
Ġlangu ages
Ġnightm are
oussa oui
Ġwart ime
8 21
9 21
H z
K S
L arry
M IA
N ine
T alk
W all
b ud
c utt
d is
e ven
f irst
f illed
j ee
m and
u ilt
y th
he rent
Ġc ycling
an z
is i
is se
Ġp act
Ġh ills
Ġh inted
Ġl av
ro let
ad ian
ĠC ell
ĠC anton
am ilies
ĠM end
ĠM add
ĠB ach
ĠB urg
Ġ1 969
Ġr ust
Ġr anged
Ġal umni
ĠD ear
Ġpro long
ain er
ĠF light
ĠF letcher
ĠL ap
ast ing
ast ically
Ġle ather
Ġsh aking
15 57
24 46
24 96
24 76
24 36
28 94
27 94
ab outs
Ġnot ably
Ġnot ebook
Ġse iz
Ġtr agic
ĠK id
ĠSt ore
ĠO bs
Ġac ute
Ġinc on
Ġfin est
ĠV el
oin te
Th ank
Th ousands
ob by
Ġjust ify
Ġco at
Ġrun off
Ġdec isive
Ġmon etary
ĠY emen
Ġ4 50
Ġass ure
Ġhigh ways
uck land
Ġhand gun
ale igh
ĠRe agan
ĠSp ani
ke ley
Ġturn overs
Al ready
co x
Ġdel ivers
ump s
Ġpat ience
Ġref ugee
ON TO
Ġproject ions
Ġspecial ists
err ard
Ġnet ted
sp ect
ĠHar old
sc he
ĠEd g
Ġmid st
Ġris es
run ning
Ġcouncil s
Ġfather s
Ġren owned
Ġsett ling
ĠJackson ville
Ġpred omin
Ġflo ors
Ġsuper star
Ġvolunte ered
Ġcult iv
Ġinsp ections
Ġlif elong
Ġlearn t
ĠJud y
Ġcapt uring
Ġcop per
mond s
Ġpun ished
tr ack
Ġsle pt
Ġnomin ee
Ġexerc ises
Ġdefic its
Ġmarri ages
Ġcooper ative
quarter ed
Ġsurf aced
ibb on
ĠCast illo
ĠSur vey
Comp anies
Mich igan
Ġign ore
Ġcommand ers
Ġinstruct ed
ĠPier re
Ġsan ction
ĠPre vention
ĠEver ett
ĠElect ronics
Ġaggressive ly
Ġfol k
Ġneighbour hood
Ġconfront ed
ĠNort on
ĠWin ston
PH IA
ĠSom ers
Ġdeserv ed
Ġexclusive ly
Ġencounter ed
Ġcertific ates
ĠReb ecca
aceut icals
ĠFal cons
Ġanc est
ĠPeters burg
ĠRac hel
Serv ices
Ġfisher men
Ġtra uma
Ġsynd rome
Ġplun ged
ĠTraff ord
ĠCitiz ens
ĠDul uth
ĠMats ui
Ġjurisd iction
Ġundis closed
Ġgrap hic
ĠScotts dale
ĠManit oba
Palestin ian
PHIL ADEL
Ġgol fer
olester ol
PHILADEL PHIA
9 12
A part
B AR
C ola
D eb
G il
H ol
H ard
J am
M oney
O wn
O ften
P res
P ack
S end
S ign
T T
V an
W S
b ot
e lect
k osh
l ich
r ors
v d
Ġt el
Ġt ents
Ġt urb
in et
er able
er ner
at ement
at cher
Ġf iction
it ime
al ian
as se
as ley
Ġm ate
Ġre aches
Ġl ivestock
ro v
Ġg od
Ġg iants
ut o
ĠS ed
ĠS ears
ĠC U
ĠC ov
Ġst ere
Ġsa iled
ĠB om
ĠB ali
ch ip
ĠP R
ĠP ret
ĠP helps
Ġ1 11
th s
ĠI CC
Ġcon vey
ĠD re
ĠD ays
ĠD ance
ĠR ut
ĠW ool
ĠW ang
ĠH eb
ĠH err
ĠJ eter
ĠJ ava
ĠG E
ĠG erald
ĠN ative
ĠN ature
Ġpl ight
15 87
18 39
24 57
29 94
Ġyear ly
ant le
ĠK yrgyz
ire ment
Ġcl ues
Ġcl ergy
Ġun aware
Ġun acceptable
ik i
Ġexp ired
Ġen velop
ĠV ander
ĠV ijay
ru it
Ġpol led
og o
ang s
iss ance
ult z
ĠY e
ĠMar io
ĠAr c
Ġhand c
Ġhand held
Ġdirect ing
ĠCl int
Ġresp ects
Ġsub urbs
Ġtop s
ĠRe form
Ġ19 66
sh aw
Ġgrow ers
ĠBl uff
aim ler
St arting
ĠHe in
Ġpat ents
Ġmet ro
Ġalle v
ĠPaul a
ĠMan ufact
sp ec
Ġcor rupt
Ġdist ant
the m
ĠNo ble
Ġcho ir
ĠGu ide
Ġstre ams
Ġschedul ing
eff icient
Ġsect arian
Ġlower ing
inn y
Ġsem ic
ĠHol iday
Ġban quet
ĠWil m
Ar royo
Ġmer ged
ĠShe ffield
Ġclean ed
Ġgovern ors
Ġfix ture
ĠBen jamin
Ġdecl aration
ĠAc cess
AL A
Ġlab s
ĠFl orence
Ġmist aken
ĠNor way
Ġweak ened
ellig ence
Ġpurs ued
ĠBrad ford
ÅĵWe Ã¢
Ġfeed back
Ġguarant ees
Ġstick ing
ĠClin ic
ĠGuard ian
AU ST
Ġhun ger
Ġbound ary
Ġchap el
ĠHawai ian
Ġpassion ate
Ġvill agers
ĠHear ts
ĠCru ise
ĠBloom ington
Ġveget able
arch y
Ġshif ting
Ġsurge on
Te am
Ġupgr ading
Ġsear ches
Ġcig arett
ĠSi oux
Ġoversee ing
Ġelev ated
ĠLiving ston
ĠRic ardo
ĠIv erson
ĠDig ital
Ġoverc ame
Ġpreca ution
ĠOx ford
Ġdece ased
ĠHollow ay
ĠCarp enter
TOR ONTO
Tex as
Ġling ering
ĠNAT O
Ja afari
ĠSter ling
IND IAN
orient ed
Ġcigarett es
B ol
B ruce
C enter
D I
F und
F ood
L I
L iverpool
M G
N ic
P erson
S k
S ad
T imes
W estern
b ad
d ate
f i
f old
g ages
h on
p ot
p ies
p ress
in itely
Ġs oup
at ility
Ġc ans
it on
is y
ar ians
Ġd ess
id o
Ġth igh
Ġl ayer
Ġl itter
Ġl ighter
Ġg ene
Ġg aps
Ġbe ans
ĠC ant
ĠC ricket
ĠM oy
ĠM TV
im ov
ow itz
ĠA IG
ch ild
ĠP A
ĠP ay
ĠP ri
Ġal ley
os ion
th ia
ĠD og
ĠT ab
ĠF ur
ĠF ork
ĠF ifth
ew s
ew ise
ĠJ ets
ĠL ower
Ġle aked
16 49
18 89
24 87
28 64
28 84
qu a
qu ist
Ġab ol
Ġab uses
are l
Ġcomp lement
Ġout p
ĠK now
ure l
Ġafter ward
Ġint r
ian i
Ġso aring
itt e
Ġweek day
Ġret ention
Ġgr ain
Ġgr ace
Ġgr ams
Ġpres um
Ġbl end
Ġbl ues
ey e
Ġrel ied
hen y
Åĵ They
ĠJohn s
ystem s
Ġmarket place
Ġrest oration
Ġadv ant
Ġadv ise
ract ors
ple te
ĠZ uma
ĠIs a
Ġpost al
ator ium
Ġref usal
ĠWest minster
Ġfire arms
Ġimport ed
Ġclass ical
Ġtrad itions
ĠGr ade
Ġintern ationally
IN E
Ġhum ble
Ġexc luding
Ġpract icing
ĠAm ateur
Ġaccess ories
Ġpropos ing
Ġgrand daughter
Ġport ions
Ġrad iation
Ġdrive way
Ġcell ular
Ġamount ed
Ġovers ees
Ġassoci ates
ĠMil es
ĠMil ton
Ġcontribut or
Ġlack s
ĠCr iminal
ĠChe m
ĠGar ner
ĠCap tain
ĠFort une
ĠBen itez
Ġexam ining
Ġcontest ed
Ġpaper work
ĠCal gary
ĠOak s
ĠBur ton
Ġlog ging
Ġacadem ics
Ġimmigr ant
Ġspir its
Ġbatter ies
Ġouts ourcing
Ġstrateg ist
Ġstuff ed
Ġdismiss al
ĠTre vor
Ġharm ful
Ġdistribut or
Pat rick
Har ris
Ġcompar able
Ġobt aining
Ġrevers ed
ĠAdv ani
ĠOper a
Ġunemploy ed
Ġpal m
Ġalert ed
Ġapolog ized
Ġpleas ant
Ġpleas ure
ĠLy on
Ġworksh ops
Ġaffili ate
Ġbats man
ĠProv idence
Ġhung ry
ĠHans en
Ġlect ure
Ġreun ion
ĠGerm ans
Ġauditor ium
Ġgra ves
ĠConc ord
terror ism
Ġconfer ences
Ġcommod ity
ĠChev rolet
Ġimprison ment
ĠTas man
Calif ornia
pher d
Ġendang ered
ĠKrem lin
Ġmethamphet amine
MIA MI
. :
E lect
E duc
F arm
H OU
K at
K now
P it
P ass
R oss
S on
d ick
f alls
p es
p rom
t ake
in id
in ating
er ness
Ġthe aters
en o
en ess
or ah
Ġc her
Ġc ush
Ġb iz
Ġp oker
Ġto y
Ġin ability
Ġre ver
Ġre ductions
ro ft
ĠC ou
Ġhe ating
Ġhe aling
ig el
ĠM au
Ġst ating
ec hes
ĠA S
ĠA SU
un es
ĠB enton
ĠB YU
ĠB RAC
ĠP eg
ear ns
em er
em ma
ĠD ise
ĠD ream
ore st
ĠR ab
ĠR ange
ĠH av
ĠJ orge
ĠL ans
ĠL enn
ĠL ux
ĠG rizz
ĠN ile
ast a
Ġle ak
15 56
15 86
end ale
oc us
16 39
16 69
16 79
16 59
16 89
18 49
18 69
18 79
18 59
23 64
23 74
23 34
23 54
23 84
28 74
28 34
28 54
26 49
26 39
26 69
26 79
26 59
26 89
27 64
27 74
27 34
27 54
27 84
29 64
29 74
29 34
29 54
29 84
Ġnot ices
ĠE t
ĠE strada
ost a
ff iti
ĠK au
ure ment
ub e
ĠSt ef
Ġne at
ĠCh air
Ġcan n
Ġcont ends
Ġover head
Ġrec l
erv ed
Ġdis arm
man uel
Ġcomm itting
Ġpr inting
ock et
Th ings
Ġinter act
ues e
ĠFr aser
pr ints
app ointed
Ġmin ors
Ġneed ing
ĠMar tha
Ġdef enders
Ġins ult
ĠSh ort
Ġdisc retion
ott i
An thony
ĠSc ar
Ġche ered
ĠDe er
Ġfact ions
Ġhold ings
ĠQ ur
Ġlist ings
Ġball oon
Ġshort fall
Ġperform s
Ġart work
cl ock
Ġdesign ers
ole c
ĠBar clays
Ġbook ing
Ġeduc ators
Ġclos ures
Ġlim iting
erm o
Ġvar ieties
Ġcred ential
Ġcelebr ates
Ġren ted
Ġtw ins
ij an
Ġlight ly
Ġgrand son
Ġglo ves
ĠHol t
Ġban ning
ĠSer b
Pro t
Ġlack ed
Ġsepar ation
ĠCamp us
Ġdom ain
Ġpo orest
Ġpun ched
Ġdomin ance
ĠFl ag
Ġclin ch
ĠSim mons
ĠAg u
ĠKh al
Ġfle eing
Ġcast ing
Ġstorm ed
Ġexplos ions
Ġchem otherapy
Ġsubsid y
amm u
Ġcoup led
Ġtall ied
Sm all
ĠCare y
ĠHel ena
Ġspect ators
ĠMoham ed
Ġshr imp
Ġunivers al
ĠJosh ua
Law makers
Ġcorn ers
Rob inson
ĠKurd s
Ġdisag ree
ĠMatthew s
ĠHom eland
Ġlabel ed
Ġwrest ling
ĠCher ry
Ġdivor ced
Ġintens ity
Ġblank et
Ġportray ed
Ġaccompany ing
ĠRot ary
ĠHit ler
ĠFilip ino
mun ition
Ġphr ase
Ġthunder storm
bren ner
ĠPab lo
ĠGand hi
) ;
B P
C ook
D isc
J ean
M ag
M edia
V AT
b usiness
c al
e u
f il
g one
n ar
r ation
r ising
s ell
s ign
u f
v ic
Ġt ide
Ġs lo
or us
Ġc rafts
an tha
Ġf itting
Ġp ie
Ġh ott
Ġh ikes
as a
Ġth wart
Ġl enders
Ġn iche
st ars
Ġg ru
ĠS ara
ĠC amb
ĠC ivic
ur bed
Ġhe ated
ĠM om
ir us
ĠA j
ĠA re
ĠB B
ĠB oca
ĠP ict
Ġ1 000
os c
os ers
th ousand
ĠD over
ĠT D
ĠF u
ĠF ah
ĠL U
ĠL is
ĠL amb
ess a
24 56
24 86
ĠE ve
ect ing
ĠK abul
ub en
Ġne utral
Ġcl utch
ning ton
Ġcan al
Ġapp ra
Ġsec rets
Ġar range
ĠIn st
Ġwin es
Ġstud ios
Ġind ef
Ġ10 4
Ġ10 8
Ġdef ault
Ġcent uries
Ġgood will
ĠJo aquin
Ġbr ave
Ġgu ides
ĠBr anch
ĠAr uba
ĠAl ice
let ed
Ġconf ig
Ġconf ined
Ġ19 65
ĠCol o
ĠCol onial
uff le
lin ers
Ch rysler
for ward
82 12
Ġstri pped
sp oken
Ġsell ers
Ġground out
Ġbreak down
ĠAm ar
viron ments
Ġfre ight
ĠCommission ers
Ġschedul es
Ġlight ning
ceed s
Ġpromot ional
ĠSy rac
Ġacqu iring
ĠSer i
ĠHam id
Ġnegoti ated
ĠMic hel
Ġencour ages
Ġsepar ately
Mc K
Pl aying
Ġtouch ing
Americ ans
Ġelimin ation
ĠHen in
ĠWal ton
Ġcontent ious
ÅĵI Ã¢
Ġcrack ed
ĠSur rey
Ġperman ently
Ġarriv es
Ġworry ing
Ġcoff in
Ġflu id
Ġrein for
ĠRaf sanjani
Ġassum ing
Ġcalc ulated
Ġrecip es
Ġpal ace
Ġpremium s
Ġmunicipal ities
ĠRh ode
Ġmir acle
ĠJacob s
ĠMun ich
Ġconstitu ents
Oh io
Europ e
ĠUk rain
Ġtransform ed
Ġclar ify
ĠOm aha
Ġconcess ion
Ġvess el
Ġdisturb ing
ĠGate way
Ġrif le
Ġairpl ane
Ġsumm ary
Lou is
comfort able
ĠPunj ab
adequ ate
ĠIniti ative
Ġadvant ages
ĠSyrac use
C ome
G ra
H ist
K o
N elson
O H
R ose
S O
S er
S ept
S af
S oon
T aylor
U L
W I
b in
b rough
d irect
d riven
f est
g erald
l if
l ength
m el
m und
s aving
Ġ umb
Ġt att
Ġt apped
Ġa iling
er am
on ight
Ġw ished
Ġc ree
Ġo we
an ey
it ures
Ġp ine
ar am
ar ious
Ġm ish
Ġth roat
Ġre ins
Ġre duces
Ġl on
Ġl oses
Ġn erve
Ġn aming
Ġg al
Ġg auge
Ġe ve
Ġfor ged
ĠC and
ĠC oun
ĠC yp
ol ving
Ġhe n
Ġhe al
ec raft
im i
Ġwh ale
Ġ1 962
th ink
ul ative
est het
ĠD ad
ĠR ico
ĠT ag
ĠT ib
op oly
Ġ2 20
ĠH ab
ĠH ell
ĠH ale
ĠH ancock
if teen
ĠF M
ĠL amp
ĠL ongh
ĠG ore
ĠG iles
Ġch ambers
Ġch olesterol
ĠN am
ĠN ak
ĠN orm
ast on
Ġsh ield
Ġsh aken
15 94
oc ide
qu ille
qu ette
Ġnot orious
ĠE DT
Ġj okes
Ġsp ite
Ġtr ace
Ġout doors
ĠU P
ub il
Ġres id
Ġrec ount
ĠV od
Ġpe er
Ġpr aying
ob il
ert ies
app ers
Ġreg rets
ounc ing
Ġem bedded
Ġprov es
Ġgu ilt
riv ers
Åĵ He
ott a
ĠLe o
Ġcamp ing
ĠCent ers
ĠZ ach
ĠJune au
Ġob jected
Ġsw ap
ĠCar lo
Ġpop ped
Ġwomen Ã¢
aun ch
aun ting
Ġjud iciary
go al
lish ing
ĠCourt ney
Ġthreat en
ĠBank s
Ġtw enty
ĠMor oc
ĠSun nis
ĠWeb ster
oper ation
ĠX inh
itness es
Ġisn Ã¢
Ġcirc ulation
erc ury
Ġsal ad
raw ling
Ġmanufact ured
ĠChe ney
IT T
rec ord
Ġboost ing
Ġtrust ed
Ġprotest ed
ĠBlack burn
Ġprogress ive
ĠNe igh
En vironment
ĠMount ains
Ġgreen house
Ġdomin ate
Ġlog istics
Ġrecru ited
Ġhur ry
Ġphotograp hy
Ġunf old
Ġult ra
fl ow
Ġmort gages
Ġdipl oma
ĠFair field
Ed wards
Ġspr ink
Ġcolumn s
Ġblast ed
Ġbelong ing
Ġliter ary
ĠProf essional
Ġhook ed
Ġpip es
ĠBart on
Ġmyst erious
Ġagg reg
Ġsatisf y
ĠProp erty
Ġdeliber ations
sm ith
ĠVo ice
Det ails
Ġfortun es
Af ric
Russ ian
stan bul
Ġtoler ance
Ġbun ker
othe red
Ġdisagre ed
Ġcompr ised
ĠPortug al
Republic ans
ĠSalv ador
Ġcy cl
Clear ly
Ġnav ig
ĠSupervis or
Ġreceip ts
Ġspac ecraft
ĠScr ushy
ĠAlv arez
Ġartific ial
Ariz ona
ĠOsh kosh
ĠSach s
Ġjun iors
Ġrecons ider
Ġhott est
G e
H y
I mp
J en
L abour
L opez
M id
N AT
P TI
R iver
S ab
S ophomore
b led
j ans
j ev
n umber
n ormal
w al
Ġ ic
Ġb und
ar in
Ġm artial
ic ides
il ts
id al
id av
Ġn aked
Ġn asty
ut sche
ĠS hen
ac ious
Ġfor wards
ĠC lo
ot es
ur ry
ĠM ember
ir able
ĠA U
ĠA uckland
ter ed
un ks
Ġwas hed
ch a
ĠP ool
Ġ1 12
Ġal umin
th row
ĠI stanbul
est ine
ĠD uff
ĠR us
ĠT ree
ĠT rent
ĠT iff
ag ging
ĠW TO
ĠH uff
ĠJ os
ĠL SU
ĠG round
ĠG avin
ĠN okia
15 74
15 54
Ġex ting
end ment
24 94
28 69
29 59
29 89
ab el
Ġde ported
ĠE state
Ġj ets
Ġse ating
Ġsp ur
Ġab und
ĠK ol
ĠU g
ub ishi
ip her
Ġall ocation
so ver
Ġinc orrect
ik o
Ġcont enders
av ia
ick ers
ĠV as
ĠV ista
Ġdis charge
itt al
og en
Th us
Ġco oked
Ġco ordination
Ġany time
Ġinter ference
ĠIn tegr
gr ass
ĠY ang
its ubishi
Ġreg ain
ĠMar vin
ey ed
Ġbr ace
Ġsur re
Ġprop ag
Ġbel ts
Ġent ity
Ġins ight
Ġsl im
ĠAl z
Ġsub committee
min ent
ĠRe alt
ĠBl vd
Ġpos es
ĠHe aven
Ġsw all
Ġpat riot
Ġref lection
Ġsmall est
Ġpar alle
Ġbill ed
ĠGr ass
ĠBe aver
cl ub
ĠSch ne
int endo
Ġstaff ers
Ġmatch up
Ġwa ist
ĠAm ber
ĠDavid son
ĠRes ource
Ġfre ely
ams ung
Ġstra w
Ġhous ed
ĠIsrael is
Ġdest ro
Pro v
Ar m
ĠShe a
Ġcredit ors
Mar c
Ġroll er
Ġaw esome
ĠCom plex
Ġunc overed
ordin ator
CO W
Ġtrust ee
Ġautom akers
ĠTim ber
ĠTim othy
Pl ans
point ers
ĠPer kins
Ġpo em
ĠBel mont
tr ak
yr am
EL D
ĠNor folk
ĠArab s
Ġbow led
Tr ans
Ġhar bor
Ġblo gs
Ġobserv ation
ĠBell amy
Ġstrength s
Ġconsist ency
ĠSand ra
Ġpool s
Ġfrequ ency
ĠTer esa
App lic
Ġblow ing
ĠWat ers
ĠVictor ian
Ġgro in
Ġexpress ing
wr itten
Ġswitch ing
Ġreh ab
ĠOrgan isation
Ġlie u
ĠBet ty
ĠVol unteer
ĠUC LA
Ġmedal ist
ĠCur ry
Ġpersu aded
ĠSix ers
Ġweigh ing
ĠTel stra
Ġavo iding
Ġty res
Ġmagn ific
ĠKel ley
ĠAud itor
ĠBy ron
Ġentreprene ur
ĠWes ley
Ġster oid
Ġprivile ge
Ġdispos al
ĠBeng al
Ġsidel ined
Ġentert aining
Ġexha ust
ĠDaw son
ĠEc u
ĠHurric anes
eli hood
Ġorient ation
Ġprosper ity
ĠMcCar thy
Opp onents
ĠMug abe
Ġlig ament
Ġsimultane ously
Ġrehe ars
ĠCros by
INDIAN APOLIS
inid ad
Ġexting u
A z
D ev
F ew
H ay
L and
L ind
M aking
M OS
N R
N BA
O pposition
S et
S earch
c am
c ane
e ur
f ox
g as
g irl
g ado
i ago
l anguage
Ġt ends
he arted
in is
re hend
or f
Ġc ares
ed e
Ġf ist
it ations
Ġp its
Ġp ains
Ġp ills
al ers
Ġh orm
Ġm m
Ġm ock
Ġd ipped
om i
Ġl ip
Ġn am
Ġn est
ĠS elf
ĠS ales
ĠS weet
ĠC od
ĠM C
ĠM ubarak
Ġst icks
ir med
ill an
ow d
ĠA R
Ġwh is
ĠB oulder
Ġas c
Ġas leep
her ald
ĠT HE
Ġ2 25
ĠW ald
ĠH ous
ĠF ell
ĠF lor
ĠF aith
ĠF uture
ĠL oren
ĠL etter
ĠG inobili
ĠN y
ĠN on
ĠN issan
Ġle asing
Ġsh rug
Ġsh oe
Ġpl agued
15 64
15 34
15 84
ist ine
23 49
23 39
23 69
23 79
23 59
23 89
28 49
28 39
28 79
28 59
28 89
27 49
27 39
27 69
27 79
27 59
27 89
29 49
29 39
29 69
29 79
Ġor ph
Ġsp ear
ĠK ell
Ġup scale
ond s
Ġcont amination
Ġman eu
Ġover weight
Ġsc ary
." "
Ġen vironments
Ġdis par
Ġar son
Ġatt itudes
Ġinter change
Ġcount ers
Ġbet ting
Ġcr unch
Ġcr ushed
Ġind uct
ug ged
Ġbl asts
ily n
Ġwhere abouts
Ġrel ies
Ġplan ners
Ġprov ing
att ed
Ġins isting
Ġins ufficient
Ġsm iles
ĠAl ger
ĠAl berto
ott age
get own
Ġworld s
Ġcontin uous
Ġspec ially
ĠRe venue
sh are
Ġmil estone
ĠMc Gr
Ġtrans fers
At l
Ġdel icate
ĠHe els
Ġdri ft
Ġpat ron
Ġwater front
Ġref iner
Ġlik elihood
Ġsk ull
Ġsol ved
ĠBe g
Ġyoung ster
Ġbenef icial
isc oll
Ġassist ing
Ġcompl iment
Ġhospital ity
run ner
ĠMo z
ĠFor bes
Ġprep ares
Ġsect ional
hold ing
Ġgl am
Ġpen al
opp ed
Ġprosecut ed
ĠMcC all
ĠMcC lellan
Ġpred ictions
AT T
ĠWil kinson
Pro ceeds
ĠCong o
ĠMil itary
Ġmer ge
Ġmat hem
yl an
Ġgre y
Sp ecial
ĠSam antha
Mc G
Ġautom obile
Ġdrop s
ĠRod dick
Ġcontest ants
Ġhistor ically
ĠCarl son
Ġbi ology
Ġreserv oir
Ġjournal ism
Ġcitizens hip
Ġagree ing
Ġappl ies
Pr ince
Pr ices
Ġintellig ent
Ġreven ge
Ġuns ure
Ġwebs ites
ĠEr in
ĠAdministr ator
Ġhero es
Ġder ived
ĠTele vision
Ġflow ing
Ġdiplom at
ĠInvest igation
ĠNetwork s
fe it
Ġunivers e
Ġrein st
Ġaccommod ation
ĠAC T
Ġwet lands
ĠArgent ine
ĠCour thouse
Dep uty
ĠIR S
Inc re
IAN S
ĠShel by
ĠUl ster
ĠBelg ian
Ġsymp athy
ĠBrig ade
Ġtab lo
ĠCN N
Ġweakness es
ĠLanc aster
eps i
ĠMead ow
ĠPortug uese
ĠCult ure
Organ izers
Ġlod ged
Ġtroop ers
German y
Ġimprop er
Ġhydro gen
Ġsovereign ty
Ġgren ade
ĠEthiop ia
Ġreop ened
ĠMap le
Ġinterven e
Ġkne es
Ġcontamin ated
qualif ied
ĠBeau fort
Ele ven
ĠEug ene
Marsh all
Ġunbeliev able
Ġrefrig er
aimler Chrysler
ĠWilm ington
ĠGrizz lies
ĠCamb od
C U
C ru
C raig
H ot
L t
L iber
M obile
O rig
P oint
P erry
a Ã¢
f at
i ak
p itch
Ġw and
Ġw aved
at che
Ġf ib
it ories
is ely
Ġp ier
Ġto uted
Ġh ind
Ġh ats
Ġm um
Ġm ush
Ġd uck
id ian
Ġl ining
Ġl aser
Ġn arr
Ġe agle
ĠS W
ĠS earch
ac ies
ĠM oody
Ġst ip
ĠA ge
ĠA OL
Ġr iot
ĠR ight
ĠT ake
ĠH ut
ĠH osp
ĠH urd
ĠF ry
ĠL oth
ĠN ine
ĠN ova
art on
art ner
Ġv ic
ap a
Ġpl ac
Ġex empl
24 64
24 74
24 34
24 54
24 84
20 19
ight ed
Ġor al
Ġab using
Ġcomp uls
Ġout reach
ĠU d
ong a
ĠCh i
ĠCh rysler
ik ed
Ġcont ended
Ġrec ipe
Ġim aging
Ġen listed
Ġdis charged
lo ch
ough lin
Ġteam ed
Ġinter state
pr us
Ġind irect
Ġ10 3
Ġ10 7
Ġfe ud
Ġrem od
Ġmin us
Ġend e
ĠMar in
istr ates
ĠJo ey
Ġstr anger
velop ed
Ġann oy
Ġfl ies
Ġsl ots
Ġsl aying
ween ey
Ġdisc us
Ġworld Ã¢
ph alt
uss ion
Ġallow ance
Ġdet ection
aren ce
Ġfr ank
Ġfr atern
rent ice
Ġvis as
sh aring
Ġfinal ist
Ġfil med
Al an
St ation
Ġinf ring
br and
Ġhealth ier
Ġattack er
ON G
AN A
Ġmor ale
Ġmiss iles
ĠCan nes
ĠMan ning
Ġsell er
ĠEd gar
unic ip
Ġident ities
Ġexpect ation
Ġpract ically
Ġadm itting
ĠMo hd
ĠMart y
Ġchar ities
Ġaccept ance
ST A
amb o
Ġmult ip
Ġblack s
Ġdest ined
ĠMcC art
Ar ch
Ġfuel ed
TA WA
Ġspons oring
ĠGar land
Ġregul ate
Ġcondition ing
ha us
Ġeffect iveness
Just in
Ind ones
ĠCamp aign
ĠBer lusconi
Pl ay
Ġassault ing
Ġflag ship
Ġexhib its
ĠLat ino
resp ons
ici aries
ĠGall agher
Ġinstall ations
Ġapprec i
Ġobject ions
Ġobject ives
Ġaver ages
ĠPC s
Ġcoordin ate
Col orado
Ġselect ions
Ġadjust ments
OT TAWA
Ġcounsel or
Ġconcl usions
Ġfunction ing
fe et
ĠDow ning
Ġcolor ful
ĠGlo be
aud io
Ġcopy right
Ġmurd ering
Ġintention ally
ĠHon olulu
ĠTreas urer
Sup porters
Ġapolog ize
Ġstruct ural
Ġcul pr
Ġupgr ades
ĠBron x
Ġking dom
Ġisol ation
Ġefficient ly
Ġannounc es
Ġaffili ated
Ġsmooth ly
Pre viously
ĠTro jans
ĠDor othy
Ġpreserv ation
Det ectives
Ġvolunt arily
Ġexempt ion
ĠRa ikkonen
ĠPartners hip
Ġobst acles
ĠMerc ury
Ġunw illing
Ġswit ches
Ġembry os
Ġfest ivities
ĠErn ie
FI ELD
ĠBatt alion
Ġinspect ors
Non etheless
Ġadmin istered
ĠEmp ire
ĠTrop hy
itig roup
Init ially
Ġapplaud ed
ĠAce h
ĠMAR IA
Ġhed ge
Ġdrown ed
Ġvandal ism
Indust ry
Lew is
ĠOP EC
ĠLith uan
ĠXinh ua
Ġsurre nder
A I
A BC
B urn
C ole
D OT
D ET
K ey
L ed
L iving
M ER
O w
R os
R ain
S F
S ant
T y
T ech
U l
b red
c ity
c ult
h ave
k el
l ake
l ane
l ades
m ath
p a
p c
p eople
s ource
v als
Ġa unt
Ġs ou
or ic
at ts
Ġc ows
Ġf et
Ġp ad
ar ro
Ġto re
Ġto oth
Ġto dd
ou ds
as ia
Ġm arsh
Ġm olec
Ġd ys
Ġre wards
Ġl ump
Ġl yr
Ġn ail
st eps
Ġe leg
ad ay
ĠS hip
ĠC ities
ĠC isco
ĠM O
ir ling
ir atory
im eter
ow ler
ĠB il
ĠB anc
ĠB uild
ĠB iffle
ĠP ic
Ġr it
Ġr abb
Ġas phalt
Ġpro state
ĠR owe
ĠR aleigh
ĠT ate
ĠT emp
ĠW ach
ĠW oj
ĠH uss
ĠJ enny
ĠL ed
ĠL av
ĠL iz
ĠL ara
ĠG ibbons
all i
ĠN T
ĠN g
ĠN as
ast rous
Ġsh orts
Ġsh outing
ee le
15 79
ant ing
ich i
ĠK ot
ĠU m
Ġup ward
Ġup held
uc es
Ġall erg
Ġcl ause
ĠO SU
Ġun related
It alian
Ġsc o
Ġsc rew
Ġrec ess
Ġwork outs
ĠV ail
ll i
Ġdis l
iz able
ens ing
11 19
Ġpr ince
reat h
Ġmon key
ĠY as
Ġam munition
Ġbu oy
Ġdown ward
Ġret aining
Ġgr ill
ont in
ath am
Ġ10 2
Ġbl ows
Ġshow c
Ġdon ating
ĠMon th
ĠMon ica
az y
ex per
Ġhead quartered
Ġdirect ive
Ġdet on
Ġcur ious
Ġgen re
Ġ19 47
Ġext ract
ke i
per ate
ĠDe ath
Ġreal ised
ees e
Ġpost ers
ĠTr ump
Ġland owners
Ġattack ers
ĠAd vent
Ġtechn ician
Ġaff idav
akes pe
err ero
Ġparen tal
Ġearl iest
Ġclos es
Ġcrit ically
Ġ0 3
Ġposition ed
Ġassist ants
Ġord eal
Ġris ky
ĠGu ine
ĠGu ild
Ġaut umn
Ġfre eway
Ġreb ell
Ġquick er
che ster
Re ach
Ġrev al
Ġrev ive
ĠMal one
Ġcirc les
Ġban ner
ĠRob bie
Ġdeliver ies
Ar senal
ĠCor ner
ĠEU R
Ġorganiz er
Br ide
Do zens
Ġcapt ive
Ġhor rible
ĠAg assi
Ġang le
Tr ust
rip ts
asc us
Ġbrand ed
Ġess ence
ĠEar ly
ĠStud ents
Ġsupposed ly
ĠDi Marco
Ġpath s
Go ogle
Col umb
Ġstem ming
Ġder by
Ġcommand ing
ĠPhill ip
ĠRos a
ĠMarket ing
ĠDown s
Ġillness es
mo il
ĠNaz is
Ġcart oon
Ġtouc hes
ĠTam il
Ġmal icious
Ġaccur acy
Ġdevast ated
Eng lish
Ġcul min
Ġpump s
Matt hew
ĠSha quille
ĠCorn ell
ĠAcc ount
Ġdepos its
Ġdump ing
Af ghan
cut ting
Russ ia
Ġimplic ated
Ġgif ted
Ġflaw ed
ĠWol ver
di ocese
Ġanx iety
ĠExt ension
Ġembry onic
Ġcin em
Wil son
Ġbol ster
ĠAlf red
Ġexpend itures
Ġtract or
Ġbiot echnology
Ġporn ography
Ġorche str
ĠFreder ick
Ġgest ure
ĠCust oms
Ġump ire
entin el
ĠNob el
Ġvibr ant
Ġmoist ure
ĠThorn ton
Ġbip art
akespe are
B L
C oll
E G
F il
L os
L ive
b ands
d ro
d ominated
g on
g ans
j e
l arge
o i
p aid
s om
z bollah
Â ³
Ġ ?
Ġs oci
Ġs acked
re ement
Ġw ears
en y
or o
Ġf ancy
Ġb ait
Ġb ishop
Ġb ubble
Ġp airs
Ġp umped
ar is
Ġto e
Ġin adequate
Ġh ood
Ġh obby
Ġm a
Ġm ales
Ġd orm
Ġd ancers
Ġl ament
Ġn urt
Ġbe ats
ad os
ĠS oph
ĠC ash
ĠC ove
ĠC elebr
ig in
Ġst ellar
ĠB ent
ĠB ingham
Ġ1 17
Ġr ang
Ġal lege
ĠI sh
ul ates
ĠD A
ĠD illon
and ro
ĠW ave
ĠH B
ĠF rem
ĠF elt
ĠJ as
ĠG errard
ast rop
Ġle thal
Ġle isure
Ġsh ade
Ġpl a
Ġpl um
15 89
24 59
ĠE ck
ight ing
Ġse afood
Ġcomp osed
Ġout going
ĠK ah
ĠK ofi
ĠSt ing
ĠSt am
He y
ĠO F
Ġun author
Ġun comfortable
Ġinc oming
ik er
Ġexp licit
Ġme g
Ġshe Ã¢
Ġim minent
ict ing
ĠV ision
Ġdis gr
Ġdis abilities
og y
Ġar thritis
Ġcomm issions
Th irty
ob i
Ġback drop
Ġadd itions
Ġmon ster
ĠY am
ĠY ale
Ġcons c
Ġdown ed
Ġunder mine
Ġunder cover
Ġind igenous
Ġreg ained
Ġfe ather
ĠMar athon
ah u
Ġsur g
ĠAr med
atch ing
Ġsl iding
ĠAl leg
ling er
Ġhead line
ph ones
con f
con ference
ĠRe venge
ĠSp ec
Ġrest art
Ġadv erse
Ġbelie ving
ĠSc outs
200 1
Ġprof ound
Ġspe eches
Ġra ft
Ġref in
Ġref urb
ĠNorth western
be it
ĠAd vert
af a
Ġsuccess es
Ġbill ing
Ġmiss es
err ick
ĠSch a
Ġlow s
Ġcustom s
ĠPl ains
sc ored
Ġbenef iciaries
Ġpot atoes
Ġtrack ed
Ġord ering
Ġaut ograp
Ġdoub ling
Ġcomb ines
ĠMo ose
itor ial
Ġconsum ed
Ġreb ounded
Ġaccount ant
Ġrad i
erve z
Ġhuman ity
Ġjump s
ĠGl ou
Ġansw ering
Ġrock ets
ĠCr ist
Ġmanufact ure
Ġreve aling
Ġmis under
Ne il
ĠIslam abad
Ġoccur ring
ĠBer keley
Ġdecl are
ĠMel vin
Ġpet itions
Ġarch bishop
oe ing
tr ained
Ġtal ents
Ġtight ly
Ġer osion
Le ft
ĠKn icks
abil ia
Ġtem ple
Ġcorrect ly
Ġdistribut ing
Ġeat en
ĠMu hammad
Ġcurren cies
Car ol
Ġunp redict
ĠBas ilica
ĠRoss i
Ġpresc ribed
Ġpresc riptions
Reg istration
ĠDVD s
ĠSab ah
ĠGard ner
Ġtent h
ĠProp erties
ĠCab rera
Ġdeliber ately
Ġmob il
MB US
Gar cia
Ġendors ement
ĠPrinc eton
Ġhabit at
Ġexplo it
Serv ice
Ġreleg ated
ĠMort on
uis ine
ĠRas heed
Ġqual ities
ĠPot ter
ĠTerr itory
ĠWake field
ĠVent ure
Ġfract ured
Ġdrain age
ĠHind u
found er
ĠByr d
Ġinstrument al
Ġthorough ly
ĠMind anao
FOR D
ĠPle asant
Ġoun ces
Bas ically
Ġcouncill ors
Ġmaid en
KU ALA
Ġtur moil
ĠFo ley
Ġsubmar ine
ĠCowboy s
COLU MBUS
Ġpredomin antly
Ġcush ion
Ġbiz arre
jev ich
unicip ality
" (
B T
D ata
H es
H alf
J ennifer
K ent
M D
N eg
P a
P ier
R a
S ir
S pring
c ano
d uty
g or
h oe
i i
k g
k ill
k irts
l it
m art
n ia
r ance
r acts
t imes
z on
z ac
Ġs our
Ġs ung
Ġw oke
en er
al g
as ium
Ġm ac
Ġth resh
ent h
Ġl ied
st ri
st ep
Ġg host
ĠS D
ĠS ask
ĠS yn
ĠC V
ĠC ull
ĠC AR
ĠC atherine
ĠM oney
ĠM athe
Ġst aging
im ble
ĠB ac
ĠB ot
ĠB ri
ĠB ath
ĠP ink
ĠP ervez
Ġ1 949
est ab
ĠD ee
ĠD ix
ĠR ush
ĠR aven
ĠR onnie
ag al
ak in
op a
ĠH ed
ĠH il
ĠH ag
ĠH od
ĠH arg
ĠH erm
ĠH icks
ĠH iggins
ĠF O
ĠF raz
ĠJ ong
ĠJ ammu
ĠL an
ĠL al
ĠL if
ĠG ym
ĠG undy
ĠG omez
Ġv ou
Ġv intage
15 49
15 39
15 69
15 59
Ġex ert
19 92
Ġde af
Ġnot ification
ĠE is
ĠE ss
Ġj aw
Ġtr uce
ere au
Ġcomp elling
ĠK or
ĠK ur
Ġ( .
ie ve
ans en
Ġres h
Ġwe ird
ue b
Ġun fortunately
Ġun official
ĠCh in
Ġint imate
Ġman ual
Ġshe er
ĠV ac
ĠV iol
ĠV ader
âĤ¬âĦ¢ .
Ġbo o
Ġacc red
Ġpre val
Ġlo ver
Ġthem es
Th ird
Ġmon itors
Ġrep aired
Ġam en
ib al
ov ie
Ġimp osing
Ġimp acts
Ġmin eral
Ġbl essed
Ġrel ent
Ġgovernment Ã¢
Ġfl ip
Ġsm iled
Ġsl ain
Ġsl ashed
ty pe
Ġhand y
az ine
Ġ20 12
ean e
Ġfr action
Ġgen ocide
Ġrest oring
Ġadv ers
Ġpos ing
Ġbillion aire
less ness
Ġpat rolling
Ġref ers
Ġfree ze
af one
Ġsk ate
ĠPro gress
ĠAnd ersen
ĠAnd ijan
Ġstaff ing
ev al
Ġjud g
AR K
ĠAb out
Ġeng aging
yn thia
ĠSe lect
ĠVal ent
ĠMed al
ago jevich
Ġwasn t
Ġlegisl ator
Ġreb uilt
ĠMart ins
Ġcand les
che m
Ġaud ition
Ġpack ing
Ġfilm ing
iec es
Ġcard i
Ġbroad caster
ĠLa uder
Ġindic ators
ĠMont oya
Ġchallen ger
pro t
Ġrecogn ise
Ġrecogn izes
Ab bas
ĠApp eal
Ġcreat or
ĠEm irates
ĠRod gers
ĠLaw son
ĠGold man
Ġrain fall
Sc ot
Ġlab els
ĠAg ainst
Ġcrash ing
Ġbag gage
Ġlay out
Ġdocument ation
Ġouts kirts
asc ular
Ġfavour ites
Ġnurs ery
Ġchem istry
Ġprompt ly
Ġhy per
Ġcoordin ated
gu ards
ĠHay den
Ġglass es
Ġdiss ent
ih ar
ĠMarc os
ĠWeek ly
Ġspect rum
Ġconcentr ated
Ġrenov ations
MP UR
Im agine
Ġprohib it
Ġprohib its
Ġreact ions
ĠCro at
Ste ven
ĠDeb orah
ĠBart lett
Ġfant asy
ĠSwed ish
ĠRet ail
ĠMcM ahon
Ġmerch ants
ĠDomin ican
Ġty co
ĠEp isode
Mal ays
ĠSym phony
ĠSlo vak
ĠEqu ity
Ġwal let
Ġtransp arent
Ġfrag ile
Ġgra ffiti
Sur viv
ĠBrend an
count ry
Ġexpend iture
ĠUnivers al
Ġtextbook s
Ġtar iffs
Ġcos met
Ġdistingu ished
Ġhamp ered
Ġseg ments
ĠMut ual
ĠFis cher
Ġsafegu ard
ĠBever ly
Ġcompan ion
Ġcommence ment
ĠAbr am
ĠLeaders hip
pract ice
ĠKend all
Ġseparat ist
Regard less
cutt a
ĠSpani ard
ĠDise ase
Ġslo gan
ĠLU MPUR
ĠAlz heimer
yram id
5 11
5 21
B at
C arter
D ar
E M
H on
J ay
L ow
M IN
T TE
U P
V oters
W C
c ade
f unction
g iving
n ie
n ett
r ays
x im
Ġt ong
Ġa ston
he alth
in ney
Ġs od
Ġs ack
or um
Ġc ough
Ġf ren
Ġb aked
ing le
al ey
Ġh ail
as ure
Ġm ailed
Ġd ated
Ġd well
ic ated
il ia
Ġg eared
Ġg rav
Ġg ospel
ut ic
Ġe jected
ĠS ong
ĠS aw
ĠS AP
ĠC R
ĠC ot
ĠC oca
ĠC afe
el ia
ĠM ash
ĠM ald
Ġst ones
Ġst ems
ill es
Ġsa int
us k
Ġat roc
Ġwas hing
Ġwh ales
ĠB und
ĠP O
ĠP ike
ĠP rivate
th reat
ĠI vy
ul ator
Ġcon ced
est e
ĠR w
ĠT win
ĠT arget
ag les
ĠH ub
ĠH ogan
ĠF ayette
ĠF lint
ĠJ P
ĠJ ared
ĠL A
ĠL un
ĠL ud
ĠL ori
res cent
Ġch ick
Ġch aired
ĠN GO
Ġv oid
ist ically
19 62
iv ier
24 49
24 39
24 69
24 79
24 89
10 10
ĠE C
ĠE rie
Ġsp awn
Ġsp illed
Ġwho ever
Ġab duction
Ġtr ap
ell ers
Ġout ings
Ġout number
ĠK on
ĠK oran
ĠSt raw
ip se
Ġcl ouds
Ġun for
ĠCh ang
Ġint ake
Ġexp ire
Ġcont empl
Ġsc out
Ġsc andals
ĠV IP
Ġdis k
Ġdis astrous
Ġqu ake
Ġpart isan
aw k
Ġbo ots
ang ling
Ġpr ayed
Ġinv iting
ix ed
Ġinter action
ĠIn g
Ġear marked
Ġbu ys
Ġpres chool
Ġmake over
ices ter
Ġdes ired
Ġbr ass
Ġbr acket
Ġfam ed
ĠSh aun
Åĵ A
ĠAl to
Ġdep ressed
Ġput ts
ott om
Ġcontin ually
ger ies
Ġbuild s
Ġbro ch
Ġfollow ers
ĠUS DA
ĠCo ch
Ġed itors
Ġche ers
Ġwar ns
ĠZ oo
Ġposs essing
ĠDe ad
ump ing
Ġland sl
ĠQ uality
be ki
ĠChr onic
Ġshort ages
Ġaff ection
Ġpar cel
Ġsk ip
Ġspecial ized
ĠDav ao
Ġprocess ion
ĠGr ill
Ġamong st
Ġmet eor
Ġmet ropolitan
Ġmus cles
ruct ive
aun ted
Ġread ily
Ġmot ive
ĠAm nesty
Ġaut on
Ġbuy out
Ġcomb ining
ĠAfric ans
Some one
Ġtrip led
So ft
ij sters
bed room
Ġshoot er
Ġchar itable
Ġpromot ions
Ġcell phone
ĠSw an
ĠMcC ain
ĠMcC oy
Ġanim ated
Ġmer it
Ġmer cy
Ġnegoti ators
Ġencour agement
Ġsupp ose
DA Y
ĠFranc o
Ġcreat ivity
ĠFin land
ĠCom cast
Ġunc omm
Ġdig it
Ġdig ging
Ġhor rif
Ġbul lets
Ġdecl aring
Ġwat ches
Ġten ant
bur st
ĠCle an
ĠMer ck
Ġgar nered
Ġstret ches
hour s
Rep resentatives
ĠLat via
Ġtim ber
ĠGood man
amm ell
chen ko
ĠGra ves
Go vern
ĠRoman ia
Ġarchit ects
Can adian
loom berg
aze era
Ġperfor mer
Mor ris
ĠStand ards
Ġevac uate
Ġoverwhel med
Ġcook ies
ĠHard y
ĠGriff ith
Ġconsolid ate
ĠNat alie
Work ers
Ġprincip als
ĠReb els
ĠProv ince
ĠPlay Station
ĠSr in
Ġprev ents
Ġbom bers
rat ings
Ġenthusi asts
ĠRain ier
imm age
Ġinterpret ation
Ġaccord ance
Camp bell
ĠCult ural
Ġsquee ze
ĠVi enna
ĠMaur ice
ĠFitz gerald
Ġminim ize
ĠWr iter
whe el
Ġpuzz le
dig it
ĠLear ning
ĠPont iac
Ġinject ion
Ġintoxic ated
Ġskept ical
Sar ah
Ġappet ite
Ġpropri etary
Ġhomem ade
ĠMonter ey
Ġenrich ment
Ġfart her
Ġallev iate
HOU STON
ĠEcu ador
Ġaffidav it
5 22
5 12
: @
A ut
B all
B AN
C lin
F ox
H B
H oll
H uman
J erry
J ordan
L ate
P rivate
S N
S her
S ean
S CO
V er
W N
W as
b ay
b ag
b ra
e ast
g ren
k il
m us
p os
s man
s burg
t or
w id
Â ¶
Ġ vert
Ġthe at
Ġs lic
Ġw ires
or ie
Ġc age
Ġc ache
Ġc odes
Ġc ripp
it iveness
Ġb enc
Ġb aker
is bury
Ġp ork
Ġd ose
il ation
le igh
id ering
ro ots
Ġg lor
Ġbe ts
Ġbe verage
ĠS B
ĠS ie
ĠS amp
ĠS inn
ĠS nyder
ĠC T
ĠC it
ĠC auc
am ount
ur ate
ig osa
ĠM oin
ĠM itch
ĠM oussaoui
ĠA D
ĠA TV
Ġwas t
ch ard
ĠP D
ĠP i
ĠP epsi
Ġ1 75
th ood
ul atory
ri ans
ĠD iet
ĠD ustin
ĠR ing
ĠR ex
ĠR HP
ĠT ru
op ular
Ġ2 40
ĠW ine
ĠH em
ĠH amburg
ĠF ine
ĠF ool
ĠJ ed
ĠL ion
all ah
ĠN ike
ĠN eal
ĠN intendo
Ġv est
od ies
Ġle v
Ġsh ocking
Ġex ile
25 17
19 91
13 17
ab is
ĠE du
ant es
Ġsp un
are th
Ġtr unk
ĠK een
Ġup s
und ers
ĠO pp
ĠCh arg
ven ues
Ġnew born
Ġshe ets
Ġen vision
ĠV on
ĠV id
Ġ3 000
Ġdis in
ren ton
ish a
ne um
Ġpr ints
Ġlo oming
pt ions
ĠY ates
Ġbu gs
Ġunder age
ib les
Ġimp over
Ġass aults
Ġmin istries
Ġplan ner
ĠMay o
atur ity
Ġfl ank
ĠSh akespeare
Ġ7 50
Ġsl ap
Ġser geant
Åĵ In
Åĵ If
oot er
az i
Ġ20 6
olog ically
min ed
Ġpay check
Ġcost umes
Ġgen es
Ġ19 63
Ġcamp uses
Ġev olved
ĠUS B
ĠSc ots
ĠZ ur
br ano
Ġexper iments
ator ial
ĠTr uck
ane k
ai res
Ġtechn ically
ĠPr ide
Ġprocess ed
Ġalle ges
ster dam
Ġjud ging
resent ative
ĠAll an
Ġclos ings
Ġtre k
Ġfav ors
Ġcampaign ed
Ġtreat s
ĠGeor getown
ĠGu ill
ĠAm endment
ĠAm trak
Ġlaun ches
ara igosa
Ġfilm makers
Ġred und
Ġden ial
Ġden ounced
Ġattend ees
amb led
ĠDec atur
Ġgun fire
opp y
unte ers
ĠGl ass
Ġbox er
ĠHam mond
itz ki
ĠMiss oula
Ġresol utions
TA L
ĠDon ovan
ari os
Ġpositive ly
Ġrob bers
Ġcat astrop
ux ili
ĠSpr int
Br andon
Ġunc ons
Ġtrust s
ĠPer u
Ġpun ct
Ġadvert isers
ĠStep hens
Ġver ify
rect ions
athe tic
Ġang ered
ĠMer cer
IC K
Ġsac red
Le on
ĠStud io
Ġlength s
Ġvir uses
Ġign or
Ġtow ers
ĠWat kins
inter est
Ġrenew able
ĠBru ins
Ġelig ibility
Rec ent
Ġliter acy
law s
col ored
Ġconvinc ing
Ġswing ing
Ġcongress man
Ġrum ours
ĠWhit ney
ĠIP O
Ġmemor abilia
Ġmigr ation
Work s
Geor gia
Ġhonest ly
Ġpreserv ed
Ġpreserv ing
Ġdict ators
Ġundert aking
ĠAy ala
Ġembr aced
Ġincorpor ated
errill as
ĠNY SE
ĠTit ans
Ġwal ley
Ġembarrass ing
Ġdecor ated
ĠCy prus
Ġgam ble
ĠHistor ic
Ġabsor b
Ġric hest
Mem orial
Aug ust
ĠLar son
Bern ama
ĠDayton a
ĠTol edo
ĠExpl orer
ĠInsp ector
Ġstrengthe ning
Ill inois
BUR N
Ġwip ed
po ena
ĠPf izer
Mot or
ĠHait i
ĠVaugh an
Ġantibiot ics
Glo bal
econ omic
Ġfug itive
Pack ard
Ġsemic onductor
Ġcredential s
Ġparalle l
Ġmagnific ent
MOS COW
Ġlyr ics
Ġbipart isan
B aker
B OR
C R
C hen
C AN
C ox
E xt
F ull
K A
L im
M u
O ld
P ay
T ry
W ind
b eck
c ond
d ated
f urt
f loor
i q
l ar
o it
s is
s end
s ided
u ity
w ic
w icket
x on
Ġw ont
Ġw ives
Ġc ried
ed ay
Ġf itted
Ġf iance
it ivity
Ġb ans
Ġb its
Ġb anners
Ġp iv
Ġp ouring
al in
ou m
Ġh alls
Ġd uration
ic le
ic ans
id en
Ġre lying
Ġre open
st ed
ĠS ign
ac io
ig ma
ĠM A
Ġsa ga
ĠA mer
Ġwh it
Ġwh olly
ĠB ates
ĠB urk
ĠB orders
Ġit Ãĥ
ĠP ett
ĠP rec
Ġ1 19
Ġ1 31
Ġr idden
Ġr iots
Ġal beit
ts ville
ĠI OC
em br
ri y
ri arch
ĠD j
ĠD art
ĠD ylan
ĠR aw
ak ash
ĠW an
ĠH af
ĠF C
ĠF act
ĠJ et
ĠJ int
ĠL ay
ĠL ink
ĠL ien
ĠL illy
ĠG os
ĠG aines
Ġch ipped
ĠN ate
Ġv icious
Ġle an
Ġsh outed
25 14
25 10
13 14
13 10
20 20
ĠE P
ĠE le
ĠE PS
Ġsp ill
Ġoff enses
ost ic
ok ies
ĠK i
ĠK om
ra il
Ġup side
Ġper t
Ġun re
Ġafter math
Ġover ly
Ġnew er
Ġen acted
ĠV and
Ġapp le
Ġqu ota
ens ed
ne ath
ne eded
Th ats
pt ic
Ġret al
Ġgr abbing
Ġunder graduate
ib a
ath lon
we ather
ov es
Ġrem ed
Ġass urance
Ġcar p
Ġmake up
Ġwhere as
Ġrel ate
Ġset up
Ġbr ains
Ġprop ose
Ġwell s
Ġgu errillas
ĠAr g
ĠAn ch
Ġsl umped
ĠAl ou
ys ical
ĠLe vel
ĠCl a
ĠCl are
Ġsub t
Ġsub poena
Ġrece ivers
aff e
An ton
let ter
aren cy
Ġpass ports
Ġconf isc
Ġgen et
There fore
Ġhom est
Ġexper imental
Ġinj unction
Ġconst rain
ĠTr inidad
Ġhold er
Ġtechn ological
Ġfail ures
Ġcond os
Ġ16 00
ĠHar ley
Ġjud ged
ĠEd ition
umb ing
ĠOr igin
ĠGo osen
ĠDem p
Ġgener ates
Ġscore board
Ġsuff ers
Ġquestion able
ĠAm azon
Ġparticip ant
duct ive
Ġseek ers
Ġaccount ability
ĠDr agons
Ġrev amp
ĠEurope ans
amb ia
eed s
Ġdisp atched
Ġey eb
ĠBay ern
Ġmag istrate
ĠLa urel
ĠDan ville
ĠHol ly
Ġcoll ar
Other wise
Ġimm un
Ġnecess ity
Ġrequest ing
Ġvolunte ering
DA LE
itch ing
Ġpers ist
ĠWe ir
Un less
Ġcal ories
tt i
Ġaw ful
Sp ec
ĠMe h
Ġfix ing
Ġpur ported
ĠHaw th
Ġexcept ions
Ġdemonstr ates
Ġpun ches
Ġadvert ised
tr ans
ĠKh odorkovsky
Ġscr immage
IC AN
Ġfat igue
Ġir rigation
Ġtack ling
ĠEll en
resp ect
ĠTechn ical
Ġoccup ants
Ġuns ett
Ġrelie ve
Ġinstall ing
ibb i
ĠDi ocese
ĠSqu ad
Ġlock out
ĠRober to
met re
Ġthr ust
gu ard
Ġconnect ing
Ġshel ves
Ġsubm ission
Ġi T
Ġpsych iat
Bar b
ĠCare er
Ġanticip ate
ĠKo z
ĠJer ome
Ġment or
ĠHart ford
ĠHy de
Ġadvis or
Ġsand wich
Ġpharm acy
Ġreject ing
ĠAk bar
ĠDam ascus
Ass istant
ĠPut nam
Ġreact ed
Ġlie utenant
Ġorganis ers
Ġmonit ored
Ġtent ative
Ġcraft ed
ĠSix th
ĠVen us
Ġnerv es
Ġrecall ing
ĠAgricult ural
Ġtort ured
Ġweigh s
Democr atic
ĠGib bs
Ġdemol ished
ĠShel ton
Ġquot as
Ġdispl aced
Ġundert ake
Ġdiscover ing
Ġboge ys
pat rick
Ġadequ ately
Ġincorpor ate
Ġanaly ze
ĠBond s
ĠSudan ese
ĠWol ves
ĠClem son
Ġsequ ence
din and
Ġbru ised
oub ted
Ġbooth s
Ġlapt ops
ĠRud olph
ĠKath leen
Commission er
Ġfu els
Rog ers
ĠMiddles ex
MON T
Sep ar
ĠDU I
ĠBright on
ĠPione er
ĠBrow ard
Ġaspir ations
Ġcarn ival
Ġpes os
Ġoverr ide
Ġsmok ers
Neigh bors
Ġbog us
ĠMarri ott
ĠUkrain ian
Environment al
Ġalumin um
ĠSchne ider
Ġmaneu ver
Orig inally
Ġimpover ished
uxili ary
A EST
B eyond
D ur
E nd
F R
F ig
F ifty
G ive
G RE
G rowing
H ear
H ong
I GH
K ids
L V
L Y
L ord
O AK
P T
R ev
R esc
T re
T est
T ele
U t
W ere
b ably
g rove
h ab
m at
n amed
s um
w er
Ġt we
Ġa il
Ġs oc
Ġw ool
Ġc alf
Ġc eram
Ġb ishops
Ġp istol
ar u
Ġh int
Ġm unicipality
Ġd ot
Ġd read
Ġd azz
om atic
le w
id able
Ġth read
Ġre app
Ġl oser
Ġn avy
st art
Ġg rief
Ġbe am
ĠS S
ĠS ee
ĠS old
ĠS ens
ĠS ult
ĠS ev
ĠC annon
ot ype
et ers
ur ors
ĠM R
ĠM err
Ġst all
ec o
ec ker
ly de
ĠB ett
ĠB uy
ch ief
ĠP and
ĠP aper
ĠP owers
Ġ1 35
Ġr anc
os hib
ĠR ig
ĠR udd
ĠT H
ĠT aj
Ġ2 30
ĠW ord
ĠW ah
ĠW ynn
ĠH S
ĠH az
up p
ĠF E
ĠL ark
ĠG iacomo
art et
Ġex changed
19 31
19 72
19 81
26 16
ab o
ab ani
Ġde port
20 62
ĠE rik
Ġsp inning
Ġab usive
Ġout line
ĠK re
Ġup rising
ĠSt ill
ans om
Ġac cepts
Ġun limited
Ġinc omp
Ġinc omes
ĠCh ange
ik en
Ġover lo
old t
ĠV iv
man agement
amp ling
Ġro pes
Ġpol ar
Ġcomm uters
Ġpre fers
ang ay
Ġatt ributes
Ġdec ept
Ġinter fer
Ġadd iction
reat ing
ĠY ak
ĠUn ified
Ġgr asp
Ġreg ards
ov ia
Ġimp ending
ting ham
ier i
Ġwhere ver
Ġdes ec
Ġrel ocate
Ġsur geries
ax ter
Ġday light
And y
Ġent ers
Ġsl ice
ĠMon etary
pl an
Ġleft y
rib ing
aff le
ĠSp ur
ĠRo oney
Ġ19 20
sh aped
ĠMc Bride
Ġfund raiser
com b
Ġbas ics
Ġdem ise
Ġve t
Ġwar mer
200 7
ched uled
alif ax
Ġcompet itiveness
Ġinf o
inc luding
Ġref uses
ĠPh ase
Ġfire arm
Ġsum mon
rove ment
Ġmor atorium
Ġsusp end
Ġmar ching
ĠIntern al
Ġform idable
eg a
Ġval uation
ĠHar bour
ĠHar rington
Ġviol ate
Ġhum id
isc opal
ĠSup ply
Ġdiv ide
Ġkey note
Ġneg lected
ĠRes erv
Ġshoot s
Ġred es
Ġrev is
Ġglo bally
Ġgun man
Ġgun ned
Ġbroad casts
Ġlove ly
Ġmag ical
ĠMus ab
Be ijing
ĠDan ish
ĠSer gio
Ġanim ation
ĠMil ford
ĠHealth South
Ġimm unity
Ġimm ense
Ġclean er
ĠCor rectional
Ġrock y
Ġrock ed
ĠQu est
Ġshut ting
Ġdi ocese
Ġwond ers
ĠGar ros
Ġrob ot
Ġvac ancy
ĠMe et
IL LS
Ġmotor ist
ĠOlymp ia
Ġhistor ian
Ġut ter
ĠCarl isle
ĠLeg al
ĠCharl ton
Ġlog s
Ġlog ic
Ġunl aw
Ġdocument ed
road s
Ġtext iles
ĠDar win
Ġbatter ed
Rep orts
ĠOl son
RO IT
Ġsch olars
Ġrat ified
Ġcrack s
ugg ish
ĠStud y
ĠTri angle
Sec retary
otten ham
Ġcorrect ions
Ġprec ise
Ġremind s
Ġgrab s
Ġconflict ing
Ġaggress ion
ĠAcadem ic
ĠBuck eyes
Ġshel ters
Man ager
ĠSu ite
OU TH
Ġpsych ologist
Ġemphas ize
Ġbelong s
Comm unity
ĠPen ang
ĠMcK enzie
bec ause
Ġtherap ist
Ġcomprom ised
utt le
Ġmechan ic
new ratings
Ġreward ed
Ġannounce ments
ĠRh odes
Dep uties
Ġaccomplish ment
Ġlandsc aping
ĠMcL aren
ĠRand all
Ġty re
Ġtorn ado
ĠNik kei
BE IJ
Ġnort heastern
perform ing
ĠBarn ett
ĠBook s
ĠGerm antown
Ġcler ic
Ġsolic itor
NAS A
haw ks
ĠBrend a
Ġsquee zed
ĠCrow e
Commission ers
ĠCoff ee
Ġunders c
ĠSuz uki
ĠHob bs
ĠTun is
Ġcease fire
Ġmosqu it
Ġinher ited
fr ame
Ġplaint iffs
Ġreconc iliation
Cust omers
Bang ladesh
Ġirregular ities
ĠRC MP
Mex ico
ĠSomers et
ĠPeg gy
ĠQur an
ĠNeigh bor
Ġthresh old
Ġconstrain ts
BEIJ ING
C K
C her
C and
C row
D ean
E ither
F M
H arr
I l
I r
J ER
M a
M our
M ah
P D
P resent
R ef
T R
T el
V E
W r
e at
f u
g arian
h ig
h ore
k ward
n ian
r im
r ice
r ams
w at
y ll
z el
Ġ +
Ġs ue
Ġs ank
Ġs ke
Ġs illy
Ġc afe
ed u
Ġf ou
it ect
it ably
Ġb ou
Ġb ot
Ġb othered
Ġp enny
ar an
Ġd uel
Ġd wind
id an
Ġl aughter
Ġl osers
Ġn ud
Ġn uts
st ick
ve ll
Ġe cl
ad al
ad vert
ĠS O
ĠS ou
ĠC ary
ĠC ald
ig ator
ĠM ang
Ġst ing
us er
un i
ce y
ĠP rior
Ġ1 28
Ġr av
ĠD O
ore t
ĠR aton
ag ged
Ġ2 10
ĠH ers
ĠH ank
ĠF resh
ĠF iji
ĠL et
ĠL ist
res c
ĠG ol
ĠG ust
ĠG NA
Ġch ili
ĠN A
ĠN iel
Ġex otic
19 82
19 52
14 14
17 17
18 16
23 27
um ers
ab h
20 42
20 92
20 32
20 72
20 52
ust omed
ĠE ld
rou ch
Ġse am
Ġse ize
ĠK eller
ra j
ĠSt art
Ġwe eds
ĠO z
ĠO ro
It Ãĥ
Ġcont roller
av s
Ġsc iences
." .
Ġen cl
Ġpe aked
Ġro ses
aw ks
Ġbo ating
Ġacc l
Ġlo ads
lic al
Ġinv al
Ġinter rupted
We Ã¢
Ġrep eal
Ġserv ant
Ġunder neath
Ġhome owner
Ġend less
Ġrel iability
Ġbr ink
Ġbr akes
Ġsur ging
att i
Ġmy th
Ġins urers
ĠSh am
iew icz
Ġsl ate
oot ing
Ġcol ours
ĠCl air
ĠCl aire
Ġsub tle
Ġnight club
iam bi
sh op
Ġrest ing
ĠMc In
Ġev angel
Ġche ss
ĠZ ion
Ġav id
Ġhom ework
Ġstat istical
Ġinf ants
inc y
Ġbre eding
Ġsuc c
05 2
ĠPark inson
ĠAd mir
ĠYork shire
Ġroad way
ĠSch illing
ĠRep orter
Ġactiv ated
ĠPl us
ĠPl ayers
the re
bor iginal
ĠSan ford
Ġple ading
ĠChrist ina
Ġhost ages
ĠOr che
Ġpract ition
Ġpract iced
ĠEl vis
wood s
Ġpropos es
Ġaccount able
Ġmess aging
New sw
ograp her
Ġprofess ors
ĠPar adise
Ġsurpr ises
ĠFrench man
Ġpeace fully
Ar thur
ĠLou ise
ĠGreen berg
Ġinsp ire
Un iversity
ĠGar rett
Ġregul ator
Ġaw kward
Ġwel coming
Ġpur ple
Ġobs erver
Ġdecl ines
Ġenfor cing
ĠCal vin
Ġcorner back
Ġrap ing
ĠFire fox
Ġded uct
ĠKim berly
Ġcool er
ĠHum ph
ĠHum ane
Ġordin ances
Ġfan ned
Ġmarg inal
Ġacknowled ges
rep resent
Ġobject ion
Ġscen arios
ĠSil icon
ĠKar zai
Ġprec ip
Ġprec isely
Ġliber ty
Ġconnect ivity
Ġshel f
Ġimag ined
De velop
Ġinstruct ors
AD S
Ġeval uated
Add itional
Ġbelong ings
ĠJul ia
ĠTw enty
ĠExp o
ĠDown er
Ġrenov ated
Ġconsp iring
Ġmechan ics
Ġrecon struct
Ġtank er
ĠGal axy
Ġhat red
ĠOper ations
Ġawa ited
Ġconstitu encies
Ġdil ig
Ġdil emma
ĠCP I
ĠSi em
Ġincred ibly
ĠHans on
Ġlect ures
ĠMS N
ĠRail way
Ġdisorder ly
ĠLes lie
Lead ing
Ġtransp arency
Ken nedy
Op en
ĠHew lett
Ret ail
Mus ic
Ġdisagre ement
ĠRu iz
Republic an
Ġpreca utions
Ġoun ce
Ġuncon stitutional
ĠIM F
Ġpreced ent
iox x
Ġcontinu ously
Ġov ation
Ġportra it
Ġmagnet ic
ĠJohan nesburg
ĠEther net
Phill ips
Ġdestro ying
Ġnam ely
ĠLithuan ia
DET ROIT
ĠStam ford
Ġuncons cious
oshib a
0 45
B U
B erry
C orp
C omb
D eal
D ennis
F ather
F eder
G all
H art
L eban
M od
M ount
N ash
P enn
S us
W right
e ighth
g rown
h is
h olic
l is
l ived
o il
s er
t ag
t ures
u ve
Ġt ang
Ġa uctions
Ġthe ology
Ġc ere
ed uc
Ġo kay
Ġf als
Ġf oss
Ġb iod
Ġp ac
Ġp uck
Ġp aved
ar ie
Ġin k
Ġin ception
Ġm ice
Ġm elt
ic it
Ġn ost
ro k
ro tt
Ġg onna
Ġg orge
ĠS M
ĠS utton
ĠS istine
ĠC ase
ĠC rest
Ġhe ars
ĠM yst
ĠM anny
ers burg
im ura
ĠA uss
ĠB od
ĠB lo
ĠB ene
ĠB uk
ĠP G
ĠP izza
Ġan th
Ġ1 55
Ġ1 956
Ġr h
Ġr age
Ġr anges
ul ators
ĠD L
ĠD ark
and um
ĠW enger
ĠF uj
ĠF owler
ĠJ aw
ĠL on
ĠG ian
ĠN aj
od ak
Ġle ased
Ġle mon
ap agal
Ġex terior
25 25
19 42
19 32
19 71
19 51
13 13
17 10
18 18
23 28
23 29
um en
26 26
ab al
20 41
20 91
20 31
20 61
20 71
20 81
20 51
ĠE very
," ;
Ġcomp ares
Ġout we
ĠK idd
ĠSt age
Ġwe ights
Ġsc outs
Ġen act
ĠV ioxx
iz a
og ram
Th ink
ink le
Ġcount less
Ġund oubted
Ġcr ush
Ġcall er
Ġgr app
Ġreg istry
Ġmin ic
Ġbl oss
Ġrel ocation
Ġrel inqu
Ġday time
Ġgu iding
ĠSh ire
ĠAn s
Ġsl ides
Ġsl uggish
ty la
az ers
Ġpublic ations
Ġcol ored
ĠLe icester
Ġresp iratory
Ġsub cont
Ġbuild ers
Ġspec ify
Ġopp oses
com pet
Ġchildren Ã¢
ĠCol on
Ġkill ers
ĠCo ors
ĠBl agojevich
ĠZ e
Ġstand off
orp e
per or
ĠDe utsche
ĠIs le
Ġcompet ent
vers e
ĠHe zbollah
Ġsw ings
Ġsw elling
Ġorgan ize
Ġfield ed
Ġref resh
ĠTr ammell
ĠWest on
ĠCon rad
Ġmilit ia
Ġsales man
ĠBe a
Ġmet als
Ġart if
ĠSch wartz
Ġgrad ers
Ġstar red
Ġbenef iting
Ġhum ili
Ġpot ato
Ġfav oured
ald o
ĠAb raham
ĠCorp orate
ĠJan ice
Ġvar ied
ĠAm sterdam
roll ers
Ġlive ly
ĠRich ie
Ġwind ing
Ġpropos ition
ĠPar ade
ĠPar sons
Ġur ine
ĠX P
Ġrefer ences
Ġdest abil
Ġdefe ats
Ġhands et
Ġcross es
Ġphys ics
Ġbid der
Ar my
ĠHealth care
Ġimpro ves
Ġflo ated
Ġdraft ing
Ġspeed y
ĠGreen ville
Ġcontr ace
Ġresol ving
zz o
ĠWe iss
ĠMac apagal
ĠCongress ional
Ġemb attled
rec iation
ĠChar ity
Ġenfor ced
Ġdism al
Ġwest bound
Ġdefin ing
Ġestablish ments
ĠTrans it
Ġintegr ate
Ġcomfort ably
ĠRam sey
Ġsens ation
LA H
ĠRec ord
Ġfeed s
ĠDu P
Ġsecret ly
ĠBre ed
ĠNick laus
rell a
ĠFar ms
Go ing
Ġrac ist
Ġrac etr
Ġcolumn ist
Ġurg ency
Ġsan ct
ĠJul ian
Ġmail box
Ġfranch ises
Ġeld er
Ġthank ful
ĠLabor atory
Ġdiscip lined
uj ols
Cons ider
Ġtun es
ĠAdv anced
ĠMir ror
ĠMod el
ĠPas o
ĠFarm ers
Ġinnoc ence
Ġfundament als
Ġlobby ist
Ġdiscount ed
Ġtact ical
Ġhunt ers
keep ers
Through out
Ġhug ely
Card inal
Lead ers
Ġpure ly
Ġdisturb ance
Again st
Ġemotion ally
ĠRow an
ĠPur cell
Ġru ined
dep th
Ġinterrog ation
Prof essor
Sing h
Ġprivat ization
Ġgymn asium
ĠEven ing
Den ver
ĠFle ming
Ġpave ment
ĠProsecut or
Market Watch
Ġneglig ence
Ġadvertis ements
Ġinterf ere
Ġextrad ition
ĠImm igration
ĠSid ney
Hun ter
Ġfeder ation
Ġdup lic
iffer ent
Ġstew ards
Ġles bian
Ġol ive
Ġreorgan ization
Ġeleph ant
Ġintrig uing
ĠMari etta
ĠDear born
ĠKyrgyz stan
Ġappra is
ĠRealt ors
Arm strong
ĠMcCart ney
ĠHuss ain
Ġsurg ical
Ġtyco on
ĠChronic le
Ġuncomm on
ĠJint ao
B ring
B arry
D allas
D onnell
E mer
E ss
F B
H ernandez
M at
M PA
N orm
N OR
P N
P ast
R and
R esp
S ources
S anta
T our
T oy
U se
W H
W el
b ok
b ling
d ue
d eep
f a
h ift
h aven
i ens
k ie
m n
m artial
n ick
r Ãĥ
s an
v ol
v ale
w y
y ev
Ġt ended
Ġt earing
Ġs log
re cy
at ri
Ġc ens
Ġo ust
Ġo ven
Ġb atch
Ġb ald
Ġp neum
Ġin hib
al is
al ysis
as ive
Ġm ills
Ġm ansion
Ġm asters
Ġd ear
Ġl ender
Ġl odge
st ation
ĠS uk
ĠS outheastern
ĠS weeney
ĠC i
ĠC ool
ĠC ert
am ble
ot yp
Ġst ain
ir ate
im o
im ens
ill ac
ow an
ĠA verage
ĠA IM
ver ages
Ġat omic
ĠB erm
ch in
ch airman
ĠP ond
ĠP rep
Ġr ibs
Ġr ibbon
th is
em ire
ĠD ut
ĠD ol
ĠD EL
ĠD aly
ĠD aimlerChrysler
ĠR if
ĠT renton
Ġ2 60
ĠW A
ĠW u
ĠW om
ĠW are
ĠW ie
ĠW HO
ĠH erman
ĠH orton
ĠH alifax
ĠF est
ĠF itch
ĠF leet
ĠL eb
ĠL iqu
ĠG A
ĠG ur
all a
Ġch ore
Ġch unk
ĠN est
Ġv ine
Ġle ases
Ġle aks
Ġsh o
Ġsh ad
19 41
19 61
14 10
16 16
28 27
28 29
20 82
ĠE ri
Ġor gans
Ġsp inal
ok a
Ġcomp aring
Ġwor s
ĠK L
ĠK ee
ĠK ang
Ġcl oth
Ġcl uster
ia o
Ġres on
Ġun ins
ous h
Ġme ga
ict ional
ĠV ince
lo o
Ġro d
Ġro omm
Ġqu ote
Ġthere by
Ġacc ustomed
Ġjust ices
Ġrun way
Ġam azed
ss a
Ġdown turn
Ġserv ic
Ġind ec
Ġrem inis
ield ing
ĠThe res
ĠNew sp
Ġcent ered
year s
ĠAr bor
Ġbel ted
ĠSh ap
Ġhead ache
aff er
An t
Ġcur t
Ġrest itution
Ġcountry side
Ġext ends
ĠSc ient
ĠEn s
uff s
co holic
Ġinf ect
Ġshot gun
Ġra ids
ann ah
Ġmight y
Ġeconom ically
be ing
Ġpar amed
ĠPr att
ĠBe hind
ĠCan al
ĠSch we
ĠBar r
Ġbank ers
ĠRep resentative
ĠPl at
ĠEx cell
ĠWar wick
Ġexc luded
sw ick
Ġterr ain
Ġterr itories
Ġfre el
Ġcle ver
Ġinfl ux
Ġinfl amm
Ġpack s
Ġrev oked
ĠMal ik
Ġmult ipl
Ġsimilar ly
Ġminister ial
Ġindic ator
Be gin
Ġsouth bound
Ġenvironment ally
ĠSer geant
Ġextra v
ĠHam m
Ġflo at
ĠCarol yn
ĠQu in
ĠQu ick
ĠQu arter
Ġsn ack
Ġsn acks
ĠPort age
Not es
ĠCr im
ĠMac omb
Ġcat alog
osh i
EN IX
ĠFrank furt
Ġhor izon
Ġconsult ations
Bec k
Ġscreen ed
Ġscreen ings
ĠAg reement
MA X
ĠMer cy
Ġsquad s
Ġfle e
ĠCam illa
Ġir rit
Tr ad
eld of
Con cer
Ġcateg or
ĠCoast al
Ġcrack ing
ĠMos ul
ĠInt elligence
bl ock
ĠGra eme
App ro
Ġfreedom s
ga e
ĠDev on
Ġpled ges
ĠApple ton
Ġder ailed
ĠJun ction
Ġresist ing
ĠPre fect
ĠSant ana
ĠStr at
Ġtag s
Aust in
abit at
Ġbeautiful ly
Ġsand wic
Ġexceed ing
OC K
Ġstring ent
ĠBloom field
Ġrelax ing
Ġwelcom es
Ġpredict ing
esty les
ĠFarm ington
Ġmigr ants
Te achers
Ġdealers hip
ĠRet irement
Ġinterp re
Ġcrown ed
Ġvig or
Ġmob ility
ĠBox ing
Ġalter ed
Ġshell s
Ġhaul ed
ĠNiger ian
Ġundert aken
Ac ross
ĠEp iscopal
ĠRac eway
AF TA
ĠKa iser
Ġpublisher s
Christ opher
Ġbell s
Ġtra um
Ġlung s
Ġsupple ments
ĠBudd y
Ġquant ity
Ġdiver t
Ġchef s
Ġrif les
Ġcompat ible
ĠMead ows
ĠByr ne
ĠCho ice
ĠTraff ic
USA LEM
ĠCitiz en
Ġsculpt ure
Ġbiot ech
Ġreck less
ĠConfeder ations
Jose ph
ĠJol iet
Rog er
Ġabst ract
ĠPub lishing
ĠMiddles brough
ĠBritt any
Ash ley
Employ ees
Similar ly
esters hire
Ġcommerc ials
Esp ecially
Ġprolong ed
Educ ation
Ġcann abis
Ġthunderstorm s
VAT ICAN
Ġhen ce
ĠTib et
ĠTiff any
ĠHous ew
Ġrefiner ies
ĠCambod ia
Ġunpredict able
Ġrelent less
embr ance
ĠiT unes
ĠSult an
JER USALEM
ĠOrche stra
/ /
B ron
B ishop
C ut
C IN
C ourt
D ig
F el
F ellow
H old
I an
J eremy
K ay
L D
L aur
M et
N I
O ENIX
R en
S em
V irgin
W ay
a els
g ue
h u
h um
h off
l owski
m ie
s pring
t rick
w ana
Ġt aped
Ġa ld
in ational
Ġthe r
Ġs unk
en i
en burg
at em
Ġc reek
an ie
Ġf ried
it ives
it chie
Ġb ang
Ġb aking
Ġb oring
Ġb rawl
es on
Ġp ig
Ġp enc
Ġp estic
Ġh over
Ġd ive
Ġd ough
Ġd itch
le in
id ant
Ġl iable
Ġg um
ve e
ut on
ad ia
ĠS ul
ĠS ey
ĠC el
ĠC reat
ĠC umm
ĠC indy
ol ation
ol lo
ol son
am ara
ur ring
ĠM D
ĠM atch
ĠM itsubishi
Ġst ap
Ġst ab
Ġst ub
ill ar
ĠB aby
Ġan them
Ġ1 42
ĠD as
ĠD ot
ĠD ock
ĠD ob
ĠD ane
Ġpro w
Ġpro xy
ĠT in
ĠT ina
op ers
Ġ2 15
ĠW ick
ĠH ook
ĠH BO
ĠH ILLS
ĠF L
ĠF IA
ĠJ eep
ĠJ eb
ĠJ ude
ĠJ ensen
ĠL uk
ĠL LP
ĠN ed
ĠN an
ĠN olan
Ġsh ine
Ġsh arks
Ġpl ated
Ġex agger
25 13
14 17
18 26
27 29
Ġgo alt
Ġj og
Ġsp rawling
Ġtr ump
Ġout scored
ĠK ier
ure ate
Ġup right
Ġup hill
Ġup stairs
ĠSt ory
ia ison
Ġres ur
Ġres orts
Ġres umes
Ġres urf
Ġun sc
ĠCh att
Ġover looking
av i
ĠV I
Ġdis g
iz ations
Ġar rog
Ġacc ent
Ġlo op
Ġback ward
form ed
Ġmon opoly
Ġbet ray
Ġam ple
pr iced
Ġdown s
ib el
Ġ10 9
Ġrem anded
Ġend orse
Ġbl n
Ġrel ocated
Ġset backs
Ġstr ongh
ĠBr ink
Ġfl ipped
ister ing
Ġsl apped
Åĵ You
Ġfound ations
Ġph ases
ĠAmeric as
Ġdevelop s
Ġcol legiate
Ġdisc s
Ġdisc om
ush i
Ġcare t
ific ant
Ġvict orious
Ġrest ed
Ġdem ean
ĠBl uet
ĠZ ito
Ġsom eday
Ġfil ings
Ġhard ship
off ice
Ġdr illed
Ġdr astically
for mer
ĠPh ot
ĠAd obe
Ġsol ving
Ġmar vel
Ġfull back
Ġfinanc ed
aun cey
Ġcontract ing
the y
Ġclos et
ĠEx hib
Ġoil s
ĠEd ge
Ġbreak away
ĠChrist ensen
ĠWar atah
Ġmot el
Ġ40 1
Ġrepl aces
ĠVal le
Ġadm issions
ĠBro s
Ġste ak
Ġcand le
Ġmakes hift
Ġfilm maker
Ġattend s
Ġenjoy able
Ġdisp ose
Ġnorth western
Ġfair way
Ġens ured
Ad mission
Ġovers had
Ġrecogn izing
han i
Ġimpact ed
ĠShe ila
Am id
ĠBob cats
yl ie
Ġprofit ability
ĠDel gado
Un ion
IA A
Ġmix ing
Ġamb ition
ĠSam ar
ĠIslam ist
ĠPol y
Ġprotest ing
Ġtom b
ĠScot ia
de ath
Ġweak en
SA C
Ġlay offs
Ġmayor al
Sen ator
ĠMag istrate
ĠMag azine
ĠPe pper
Ġproceed ed
Ġproceed ing
Ġdepart ed
Ġsens ational
aming ham
RO ME
Ġrival ry
ĠBut ton
ĠBut te
Ġvent ures
SP s
Ġrelie vers
Ġresc uers
RE D
Ġcorrect ed
Ġliber ation
Ġder ail
do zen
Ġdistribut ors
Ġtast es
Ġanticip ation
Ġdiss atis
ĠProgram me
Ġtermin ation
Ġintent ional
Gen er
AU BURN
Ġemp ire
Ġunus ually
Ġarchitect ural
ĠSus sex
Ġequal iser
Ġlaugh s
umber land
Ġconstruct ive
ĠTan zan
Ġreact or
Ġsatell ites
arch s
ĠHend rick
Ġfatal ities
ĠMod ern
Ġsymb ols
PH OENIX
itr ust
Ġconsequ ence
Ġpubl ishes
Ġunexpected ly
Pre vious
Ġbull ish
Ġfare well
Ġdict ator
Att orney
OW N
Ġwreck age
ĠStaff ord
Ġguitar ist
ĠRanch o
Ġaer ospace
ĠFer dinand
ĠRail road
Ġbutton s
ĠBrid ges
Ġfest ivals
Ġfur ious
ĠBrun swick
Ġbutter fly
ĠConc ert
Ġdiver ted
ĠEs sex
Ġmultim illion
ĠDw ight
ĠYellow stone
ĠBelt ran
ĠBuc cane
Ġcommod ities
Ġtrim med
Ġoverc row
Wood s
Ġhammer ed
ripp s
Ġorche stra
Ġimprop erly
bird s
Step hen
Charl otte
Ġrup ees
ĠPrim ary
Bry an
ĠBark er
Ġmanif esto
Ġdefer red
ĠFI FA
Ġassign ments
cliff e
Ġlav ish
Ġdess ert
ĠCoun sel
lades hi
Ġamen ities
ĠSrin agar
Ġoverlo oked
Ġovershad owed
: //
A y
B u
B ase
B aylor
B razil
B URG
E X
E qu
F un
F ounded
G AR
G onz
H o
J ournal
J uan
L ist
L ibbi
P her
R est
S ky
T own
T aking
T ER
V e
b ish
b uild
c ation
c amp
c ounter
f re
f air
g ling
g encies
h ou
h ury
k owski
m our
p en
s ome
v ar
v antage
v allis
w ire
y cl
z yn
z oning
Ġt iger
in ence
Ġc urs
Ġc ups
Ġc ensus
Ġc uisine
Ġo uster
it ous
it aries
Ġin herent
al one
Ġh iking
as aki
Ġd ensity
id ered
ro b
ĠS et
ĠS eth
ĠS dn
ĠC air
ĠC otton
ol m
am ili
Ġhe ct
Ġhe ights
Ġhe fty
ĠM B
ĠM LB
Ġst if
Ġsa iling
us a
ch t
ch airs
Ġy oga
ĠP oc
ĠP eng
ĠP ern
ĠP LC
Ġ1 957
ri age
ĠD uc
ĠT ill
ag ra
op ic
op ening
ĠW id
ĠW ong
ĠW ings
ĠW aste
ĠH ack
ĠH air
ĠH oss
ĠH ugh
if ics
ĠF Y
ĠF ant
ew ard
ew ski
our g
ĠJ obs
ĠL ac
ĠG or
ĠN I
ort unity
25 52
Ġj oking
Ġse as
Ġsp ed
Ġsp ine
se en
Ġab rupt
Ġtr aced
Ġtr icks
ich iro
Ġwor m
Ġout law
Ġthey re
ub an
ĠSt re
ĠSt orage
Ġcl ips
ber y
ber ries
ĠO wn
Ġinc urred
ven ience
Ġen list
ĠV ers
Ġpe oples
Ġapp rehend
ren ched
itt ag
reat ment
air d
Ġgr im
ĠTh ur
Ġstate Ã¢
Ġbl unt
ered ith
ĠMar co
ĠMar ilyn
Ġdef ects
yst er
Ġ6 50
Ġbr ake
Ġeven ly
Ġgovernment al
Ġdon Ãĥ
Ġfl ame
Ġopen ings
ĠSh ank
Ġcol t
Ġcol onial
ĠCl ar
ĠCl ive
ĠCl arence
Ġmed ley
As k
ĠSaturday s
Ġcost ume
ĠSp ect
ĠSp ears
Ġsing ers
ĠMc Henry
ĠWednesday s
Ġtax ation
Ġappro ving
ĠBl u
Ġed iting
augh lin
ĠZ immer
200 8
Ġhard line
Ġprot ects
Ġra ided
Ġdr astic
Ġpartic les
ĠAss istance
Ġfact ion
Ġinvestig ative
05 1
ham ed
Ġball park
Ġtechn icians
ĠCar rie
ĠPro cess
ĠSch w
Ġdist inction
Ġtele v
Ġclear ance
ĠBrit ons
Ġbudget ed
Ġreason ably
ĠChrist ie
Ġanal ys
Ġdead lock
ĠWar ne
Ġgener ic
ĠGeor gian
Ġkey board
ĠBro oke
ĠPat aki
ourn als
Ġemer gencies
Ġwind y
Ġchar ism
Ġaud itors
Re fer
Ġsett ings
LE Y
BA D
Ġpersonal ities
Ġacqu aint
ĠX avier
ĠLa R
Ġnorth bound
ĠSer ge
ĠMcC onnell
Ġlic ences
Ġpred ators
Ġanti que
Ġpeace keeping
ĠTown send
ĠCor rections
Ġdeter rent
ĠComp anies
Ġsn atched
win ner
Ġmis leading
Ġsocial ist
Ġcreat ures
Ġvac u
ĠFin ley
oud emire
Ġexam iner
Ġwouldn Ã¢
Ġbi as
Ġadop ting
Ġadvert ise
ĠFl ores
ĠIr win
Ġhonor able
Ġcomplex ity
EL AND
Ġsubst ances
Ġtext ure
ĠKim ball
Ġtight en
ĠCont inental
Ġhar ness
Ġer ected
Ġer adic
Con f
Ġassess ments
Ġblo om
Ġobserv ing
Ġappl iances
Ġsacrif ices
ĠPlan et
ĠOs borne
ĠBre ak
ĠJordan ian
ĠHa as
ĠBul garian
ĠFred die
Ġselect ing
Ġnar c
Ġsubm issions
Ġimag ination
Ġtend ency
ĠCD s
Ġtermin als
Ġemp ower
Qu est
ĠSant iago
ĠNot tingham
book s
Ġment ions
Ġcommun ism
ĠWars aw
ĠShi ites
Ġconver ting
ĠEconom ics
Ġrein force
uj ah
Ġassum ption
Ġborrow ed
Fort y
Ġsymb olic
Ġmemor andum
Ġmal practice
ubb ard
ĠInf antry
Ġtact ic
Ġdetain ee
Ġfulf illing
ĠMax well
ĠHorn ets
Park er
Ġobst ruct
Ġunn amed
Ġflaw s
Ġemplo ying
Ġcoinc idence
serv ing
Ġrom ance
ĠMalt ese
Ġingred ient
Ġtum or
Ġdign itaries
Ġlod ging
Ġfasc inating
Ġdeterior ated
ĠWW E
Ke ith
Ġtopp led
Direct or
ĠAutom otive
Ġmosqu ito
Econom ists
ĠBren nan
ĠRash id
occ up
Abd ul
Rober ts
ĠRobb ins
ĠFen way
Ġsalv age
Ġfeas ibility
ĠFors yth
ĠMcGu ire
Ġlaund ering
ĠAna heim
Ġtransm itted
anth rop
ĠObs erver
ĠBom bers
ĠPret oria
Ġweekday s
ATT LE
atche wan
ĠHosp ice
Indones ia
Ġeleg ant
ĠGuine a
ĠBent ley
threat ening
Ġwast ewater
ĠDart mouth
Ġretal iation
Ġmosquit oes
Ġminic amp
Ġdiscom fort
ĠBluet ooth
ĠWaratah s
Pher son
) ,"
B uck
B oeing
C ash
C ON
C LE
C lem
E nergy
G raham
H ence
I ronically
K al
K irk
L ik
L og
L AS
M ain
M ult
N ich
P O
P ick
P ress
P olitical
R ac
S D
S av
T al
T ass
T ax
T enn
W eek
W itnesses
d ies
d ouble
i aries
l ast
l omer
m ain
p ac
p ret
r anking
s ix
t el
v on
Ġ vel
Ġt urt
Ġt abled
Ġa ided
he red
on ts
Ġo re
Ġb alk
Ġb ung
Ġp anc
Ġp aving
Ġp ounded
ar er
Ġto pping
ou f
Ġh ay
Ġm l
Ġm ates
Ġm ercury
ic ation
ic ular
il st
le man
le hem
Ġth riving
ent es
Ġn ap
Ġfor ums
ĠC ec
ol ia
Ġhe y
Ġhe ck
ĠM ate
ĠM ish
ĠM aid
ĠM RI
ĠM beki
Ġst al
Ġst ack
Ġst air
ĠA ch
ĠA boriginal
us o
ĠB O
ĠB ihar
Ġ1 33
Ġr ack
Ġr ib
Ġr het
ĠI p
ĠD il
ĠT ay
ĠT ier
ave lin
ĠW ed
ĠH ond
up ta
ĠF riend
ĠF erry
ĠF argo
ĠL ore
ĠL iam
ĠL ook
ĠG ret
ĠG yan
all on
Ġch im
ĠN eed
ĠN igel
Ġsh aky
Ġpl ots
15 27
15 29
25 62
14 13
16 26
18 10
28 23
Ġnot ched
ĠE van
ant o
Ġj ar
Ġsp ouse
Ġsp urred
ell as
ff er
Ġwor sh
ĠK ill
ĠK ul
ĠK and
ĠK eep
Ġtheir s
ĠU T
ĠU BS
Ġper ennial
Ġper ipher
Ġcl ocked
Ġwe ed
ĠO val
Ġun ite
ik ers
Ġcan cell
Ġcan vas
Ġyou re
ach ie
In sp
Ġsc al
Ġsc outing
ian c
ĠV ar
ĠV FW
Ġdis band
âĤ¬âĦ¢ ,
Ġbo il
Ġbo ast
ne utral
Ġlo os
Th ompson
oll a
Ġund ec
ĠY u
ĠY ad
Ġdown gr
Ġunder gone
ib u
app a
Ġcar ved
ner y
Ġrel ays
Ġbr ig
Ġstr ay
uck et
ĠAn im
ĠAn zac
ull i
Ġsl ash
ĠAl ley
Ġcol ony
Ġdisc ontin
Ġ8 50
ĠLe ah
ĠCl erk
As ia
On line
Ġspec ifics
ĠComm ander
ĠRe h
ĠSp a
Ġwr aps
sh ow
Ġadv ising
Ġob l
irl s
per ial
Ġstat ute
Ch o
Ch ap
Ġdr ills
Ġdr ums
ann ie
Ġdri ed
ĠTr ue
Ġ18 00
Ġpar ap
Ġsk ipped
Ġintern ship
eng agement
Ġbud dy
ĠMan aging
Ġpot ent
ett ers
ĠOr r
Ġmot ions
erm en
Ġstep father
wh at
ym e
ĠTex ans
ĠEl m
Ġcheck points
Ġrev amped
RA L
Ġbroad ly
add en
Ġindivid ually
ĠLa Port
Ġindic ations
Ġsouth western
udd y
ĠSer ena
ĠReg ister
ĠMcC orm
esc ope
Ġpred icts
ĠShe pherd
ĠAngel o
Ġlack l
apt ers
apt ors
ĠCarol ine
SE ATTLE
Ġwear y
ĠComp osite
Ġinsp ected
Ġprotect ions
ĠApp l
ĠSal isbury
ano oga
CO M
Ġbattle field
Ġcollect ors
Ġbal ances
ĠCal der
Ġcounter feit
Ġdelay ing
Ġtransfer ring
Ġsle e
Ġver ge
Ġsolid arity
ĠArab ic
Ġfat ally
ĠMa e
Ġexerc ising
Ġsun shine
ronic le
Mart inez
iment el
Ġcool ing
ĠRam os
Ġwood ed
Ġele ven
Ġtim eline
Pr ice
Ġsch olar
Ġproud ly
Ġess ay
Ġfraud ulent
ĠMah ar
Ġdipl omas
Ġearn est
Ġflood s
RE E
ĠSol omon
ĠTal abani
Ġvan ished
Ġmand ated
Ġconcentr ating
Ġshr ink
Pat ients
ĠProt est
Ġmic roph
ĠMotor ola
onym ous
Ġinnov ations
ĠHo over
ĠTrust ees
Law yers
ĠBurn ett
Ġtreas ure
Ġmal aria
ĠCur rie
ĠLad ies
Ġdeserv ing
Work ing
ĠMick ey
ĠBeck ett
ĠLi berties
Ġdil uted
Ġrent als
Council man
ĠBuff ett
ĠCher yl
Ġec st
ĠKr ak
pat ient
Ġunh armed
Ġaer ial
Ġrevolution ary
hor se
ĠTob acco
Ġcommem orate
Ġorigin ated
Ġcompat riot
Mur phy
ĠPharm aceuticals
ĠLie ber
Ġescal ating
ĠPav ilion
Ġnic ely
Ġstrengthe ned
ieg el
Ġaccum ulated
Ġoutrage ous
ĠFac ility
ĠConsult ing
Ġnewcom er
Ġgrat itude
Ġproc urement
Ġincons istent
Ġmaxim ize
ĠManufact uring
Kat ie
Ġindef initely
lif ting
Ġlon ely
ĠVod afone
ĠMoroc co
Ġaggreg ate
Ġcompuls ory
ĠWach ovia
ĠWoj tyla
ĠGlou cester
ĠFraz ier
ĠLauder dale
wid th
Ġvert ical
Ġbenc hes
ĠZur ich
Ġwalley e
cond ition
hig hest
Ġundoubted ly
ĠDEL HI
ĠBuccane ers
ittag ong
B ear
B art
C ur
C ath
D rivers
E ff
F S
G ill
H al
H ur
J esus
K il
K el
L ake
L ove
L incoln
M os
M aster
O x
P en
P ot
P rem
P ierre
R h
R IS
S ony
U M
V iew
W in
X X
Y eah
b et
b uy
c lear
d one
f man
g al
g reat
h t
h om
l und
l oss
t ier
Ġt an
he e
Ġthe fts
Ġs acks
Ġs outheastern
Ġc ave
Ġc raw
Ġc yl
Ġf aded
Ġf usion
it ating
Ġb ury
Ġb usted
ing wood
Ġin fer
Ġin exp
Ġin quest
Ġh udd
Ġm ourn
om ous
Ġre neg
Ġl ured
Ġn an
Ġn aval
Ġg er
Ġg ala
ut i
ad ors
ĠS isters
ĠS amsung
ĠC op
ĠC oul
ol ka
et ed
et to
ur as
ig uous
ĠM LS
Ġst agger
ĠA I
ĠB j
ĠB ain
ĠB ody
ĠB EA
ĠB axter
Ġy elled
ĠP ath
ĠP erson
ĠP iet
ĠP ET
ĠP ointe
Ġ1 14
Ġ1 13
Ġ1 27
Ġr apper
os ity
ĠI A
ĠI H
em aker
ĠD IE
Ġpro xim
ĠR abb
ĠT ik
ĠT ah
ĠT oo
ĠT ottenham
ag han
Ġ2 75
ĠH i
ĠF ont
ĠF CC
ĠF atah
ment ing
ĠJ up
ĠL iv
ĠL und
ĠL oy
ĠL az
ĠG erry
ĠG ros
Ġch ill
Ġch orus
ĠN H
od o
Ġsh aped
ort ions
25 42
25 92
25 32
25 31
25 72
25 51
end ents
iv o
iv able
17 14
17 13
16 10
24 29
ud o
gh ans
Ġsp ar
Ġsp ate
ost ers
Ġcomp osite
Ġout er
ĠK er
ĠU tt
ra ught
Ġcl ue
ĠO le
ĠO man
ĠO sw
Ġac oust
Ġun used
Ġen larg
ĠV ictory
Ġapp arel
og rams
ress ive
ens ely
aw ays
Ġpre ference
Ġweek long
Ġatt ach
Ġco ve
row ning
round er
ĠY ard
Ġcr ises
Ġgr an
ĠTh ings
ov ascular
Ġass ail
Ġbus h
ise um
ĠMar ian
ĠMar ino
ĠMar quette
Ġdes igning
Ġrel iance
att ie
Ġfl uct
aj a
aj i
Åĵ When
get ic
ĠLe af
Ġmed all
ĠRe ese
Ġconf using
Ġ19 46
Ġcamp ers
arl ow
Ġev asion
Ġfinal ized
Ġboard ing
ĠIs mail
Ġhom age
Ġcompet es
Ġdel inqu
St ewart
Ġsw ung
cept ions
inc ere
Ġelect orate
Ch urch
Ġel usive
be zz
Ġsum s
Ġsum mons
cher y
idd ers
eal ous
ocr atic
ĠSen ators
eng ine
Ġpick ups
ĠAt kinson
ĠPaul o
ĠWh ile
ĠBo oth
Ġdesign ation
ĠBar ber
sp eaking
Ġdist ress
Ġdist urbed
IN ES
Ġfoot ing
Ġfoot steps
Ġground breaking
Ġthreat ens
Ġadm ired
Ġdoub ted
Ġfre estyle
Ġcomment ing
ĠBrown e
My ers
Sh aron
Ġdoct rine
Ġisn t
Ġhands ets
ĠCor oner
ĠQu incy
Ġabs urd
ĠTe achers
Ġmis erable
ĠMac Donald
Ġtrain ers
Sp orts
ĠJud iciary
Ind iana
Ġboost er
Ġdig s
ĠJust ine
ĠPol itical
Ġradio active
Ġautom ated
Ġbird ied
Ġregister ing
Ġesc ort
Ġwild erness
ĠChristian ity
Ġadj our
ID GE
Offic ial
Ġrain y
Ex c
Ġiniti ate
ĠBow yer
Ġdefin ite
Ġver ified
Ġlog ged
ĠMalays ians
ĠKh at
Ġscr um
Ġrow s
bre aker
Ġgar ner
Ġsurround ings
Res ults
Ph oenix
Tr ade
Ġcooper ating
ĠDar th
ĠDar lington
Ġcharacter istics
Ġhur ts
ĠBol lywood
war f
Ġrat ification
ĠMid land
ugg age
ĠGood win
ĠSum atra
Cont in
ĠSol id
Ġwish ing
Ġarriv als
Ġthr ill
Ġthr iller
onz o
ĠRel ays
ĠRel iance
ĠRoman ian
Ed die
Ġtermin ated
ĠBas in
ĠBern ie
ĠEnter prises
ĠElect ronic
Ġlit res
Ġrobber ies
ĠDick inson
Ġunve iling
Conn ell
Ġcoin s
Ġreward ing
ĠHold ing
ĠBet ter
ĠCooper ative
akh stan
Ġportfol ios
Ġmolest ing
Ġmir rors
ĠEngine er
Ġaccur ately
ĠReds kins
Dep artment
ĠMcL ean
utr itional
Us ually
Ġli abilities
Ġeager ly
ĠMcM illan
ĠKirk uk
Ġconce pts
Ġdatab ases
Cr ude
Phil adelphia
ĠBrother hood
Ġsemin ars
Ġexplo ited
Ġmini ature
Ġclar ity
Ġobst acle
Ġlobb ied
Bob by
Ġsubscri ber
ĠColomb ian
Ġharass ed
ĠPear ce
Up on
Christ ian
ĠSP L
Ham ilton
ĠBeth lehem
ĠPop ovich
Ġacceler ated
ĠBrun o
ĠBudd hist
Ġsubd iv
ĠErn st
Ġquant ities
ĠVent ures
Ġfract ure
Ġfo am
Int el
Ġbol st
Ġphenomen al
War ren
Ġsed an
Ġparish ion
Ġtoil ets
ĠStein brenner
Put in
Ġarra ignment
Ġnick name
Ġinterrog ators
Rod riguez
bu ilt
ĠChev ron
Ġvit amin
Ġexha usted
Ġastron aut
Ġfright ening
Ġadvertis ement
ĠNurs ing
Ġjeopard y
ĠYuk os
ĠFul ham
DEN VER
Ġembark ed
Ġbree ze
ĠZam brano
CHAR LO
Jam ie
Bol ton
Farm ers
ĠSerb ia
Ġpropag anda
Ġtablo id
Ġfratern ity
Ġrebell ion
ĠBingham ton
ĠAlleg heny
ĠSlovak ia
Ġdictators hip
Separ ately
Ġdazz ling
ĠCald well
rok ee
Ġartif acts
amili ar
B ra
B enedict
C N
C T
C iting
F err
F BI
G h
H u
H ug
L ock
M other
M etro
N ear
N orthern
O regon
Q west
R af
S X
S aid
T erry
T roy
U K
W ard
c ert
c els
d istance
e a
h un
h ies
h av
k u
l ot
l io
n ard
p ers
p rop
r and
r ade
s ub
v ili
z es
Â ¼
Ġa ug
in j
er ick
at ore
Ġo ath
an za
Ġf ox
Ġf oe
Ġb a
Ġb ent
Ġb ored
Ġb apt
Ġb umped
is man
Ġp and
Ġp amp
Ġp iracy
Ġp igs
ar us
[...]
