{"<s>":0,"<pad>":1,"</s>":2,"<unk>":3,"<mask>":4,"!":5,"\"":6,"#":7,"$":8,"%":9,"&":10,"'":11,"(":12,")":13,"*":14,"+":15,",":16,"-":17,".":18,"/":19,"0":20,"1":21,"2":22,"3":23,"4":24,"5":25,"6":26,"7":27,"8":28,"9":29,":":30,";":31,"<":32,"=":33,">":34,"?":35,"@":36,"A":37,"B":38,"C":39,"D":40,"E":41,"F":42,"G":43,"H":44,"I":45,"J":46,"K":47,"L":48,"M":49,"N":50,"O":51,"P":52,"Q":53,"R":54,"S":55,"T":56,"U":57,"V":58,"W":59,"X":60,"Y":61,"Z":62,"[":63,"\\":64,"]":65,"^":66,"_":67,"`":68,"a":69,"b":70,"c":71,"d":72,"e":73,"f":74,"g":75,"h":76,"i":77,"j":78,"k":79,"l":80,"m":81,"n":82,"o":83,"p":84,"q":85,"r":86,"s":87,"t":88,"u":89,"v":90,"w":91,"x":92,"y":93,"z":94,"{":95,"|":96,"}":97,"~":98,"¡":99,"¢":100,"£":101,"¤":102,"¥":103,"¦":104,"§":105,"¨":106,"©":107,"ª":108,"«":109,"¬":110,"®":111,"¯":112,"°":113,"±":114,"²":115,"³":116,"´":117,"µ":118,"¶":119,"·":120,"¸":121,"¹":122,"º":123,"»":124,"¼":125,"½":126,"¾":127,"¿":128,"À":129,"Á":130,"Â":131,"Ã":132,"Ä":133,"Å":134,"Æ":135,"Ç":136,"È":137,"É":138,"Ê":139,"Ë":140,"Ì":141,"Í":142,"Î":143,"Ï":144,"Ð":145,"Ñ":146,"Ò":147,"Ó":148,"Ô":149,"Õ":150,"Ö":151,"×":152,"Ø":153,"Ù":154,"Ú":155,"Û":156,"Ü":157,"Ý":158,"Þ":159,"ß":160,"à":161,"á":162,"â":163,"ã":164,"ä":165,"å":166,"æ":167,"ç":168,"è":169,"é":170,"ê":171,"ë":172,"ì":173,"í":174,"î":175,"ï":176,"ð":177,"ñ":178,"ò":179,"ó":180,"ô":181,"õ":182,"ö":183,"÷":184,"ø":185,"ù":186,"ú":187,"û":188,"ü":189,"ý":190,"þ":191,"ÿ":192,"Ā":193,"ā":194,"Ă":195,"ă":196,"Ą":197,"ą":198,"Ć":199,"ć":200,"Ĉ":201,"ĉ":202,"Ċ":203,"ċ":204,"Č":205,"č":206,"Ď":207,"ď":208,"Đ":209,"đ":210,"Ē":211,"ē":212,"Ĕ":213,"ĕ":214,"Ė":215,"ė":216,"Ę":217,"ę":218,"Ě":219,"ě":220,"Ĝ":221,"ĝ":222,"Ğ":223,"ğ":224,"Ġ":225,"ġ":226,"Ģ":227,"ģ":228,"Ĥ":229,"ĥ":230,"Ħ":231,"ħ":232,"Ĩ":233,"ĩ":234,"Ī":235,"ī":236,"Ĭ":237,"ĭ":238,"Į":239,"į":240,"İ":241,"ı":242,"Ĳ":243,"ĳ":244,"Ĵ":245,"ĵ":246,"Ķ":247,"ķ":248,"ĸ":249,"Ĺ":250,"ĺ":251,"Ļ":252,"ļ":253,"Ľ":254,"ľ":255,"Ŀ":256,"ŀ":257,"Ł":258,"ł":259,"Ń":260,"Ġt":261,"Ġa":262,"he":263,"in":264,"er":265,"Ġthe":266,"on":267,"Ġs":268,"re":269,"Ġw":270,"en":271,"or":272,"at":273,"Ġc":274,"ed":275,"Ġo":276,"an":277,"Ġf":278,"it":279,"Ġb":280,"es":281,"is":282,"Ġp":283,"ing":284,"ar":285,"Ġto":286,"nd":287,"Ġin":288,"al":289,"ou":290,"Ġh":291,"Ġof":292,"as":293,"Ġm":294,"Ġand":295,"Ġd":296,"ic":297,"il":298,"om":299,"ion":300,"le":301,"id":302,"Ġth":303,"ent":304,"ay":305,"Ġre":306,"Ġl":307,"Ġn":308,"ro":309,"st":310,"Ġg":311,"ve":312,"Ġbe":313,"ut":314,"Ġe":315,"ad":316,"ĠS":317,"ac":318,"Ġon":319,"Ġfor":320,"ĠC":321,"ol":322,"am":323,"ot":324,"et":325,"ur":326,"el":327,"Ġhe":328,"ig":329,"ĠM":330,"Ġst":331,"ers":332,"ir":333,"ec":334,"im":335,"ill":336,"ow":337,"ly":338,"Ġsa":339,"'s":340,"Ġis":341,"ĠA":342,"ter":343,"Ġthat":344,"us":345,"Ġsaid":346,"ver":347,"ith":348,"Ġat":349,"The":350,"ation":351,"un":352,"Ġwas":353,"Ġwith":354,"Ġwh":355,"ĠB":356,"00":357,"ch":358,"Ġit":359,"ce":360,"Ġy":361,"ld":362,"ĠP":363,"Ġan":364,"Ġ1":365,"Ġr":366,"Ġas":367,"Ġal":368,"os":369,"th":370,"ear":371,"ts":372,"her":373,"ĠI":374,"em":375,"ul":376,"ri":377,"Ġcon":378,"est":379,"ĠD":380,"ore":381,"Ġpro":382,"Ġcom":383,"ĠR":384,"ĠT":385,"and":386,"ag":387,"igh":388,"ak":389,"rom":390,"op":391,"Ġ2":392,"ain":393,"ave":394,"ate":395,"ĠW":396,"ĠH":397,"if":398,"up":399,"Ġhis":400,"ĠF":401,"Ġare":402,"ew":403,"ct":404,"ment":405,"Ġfrom":406,"our":407,"ĠJ":408,"ĠL":409,"res":410,"ity":411,"ould":412,"ĠG":413,"Ġby":414,"all":415,"Ġwill":416,"Ġch":417,"ĠN":418,"ast":419,"art":420,"Ġv":421,"Ġhas":422,"ess":423,"od":424,"Ġhave":425,"Ġle":426,"ap":427,"Ġsh":428,"Ġpl":429,"ee":430,"Ã¢":431,"ort":432,"15":433,"Ġex":434,"25":435,"ard":436,"ist":437,"oun":438,"end":439,"oc":440,"ive":441,"19":442,"14":443,"iv":444,"13":445,"17":446,"16":447,"18":448,"24":449,"23":450,"28":451,"um":452,"26":453,"27":454,"29":455,"ies":456,"qu":457,"ab":458,"10":459,"ud":460,"Ġde":461,"20":462,"Ġnot":463,"ust":464,"day":465,"out":466,"âĤ":467,"âĤ¬":468,"ĠE":469,"ight":470,",\"":471,"gh":472,"ice":473,"Ġyear":474,"Ġgo":475,"ant":476,"Ġj":477,"ack":478,"ome":479,"Ġor":480,"rou":481,"Ġse":482,"ect":483,"Ġsp":484,"Ġk":485,"ial":486,"Ġwho":487,"Ġoff":488,"se":489,"ost":490,"Ġab":491,"are":492,"Ġtr":493,"pp":494,"ell":495,"Ġhad":496,"Ġwhe":497,"ff":498,"Ġ-":499,"ich":500,"ok":501,"ere":502,"ge":503,"Ġcomp":504,"Ġwor":505,"Ġout":506,"ĠK":507,"Ġthis":508,"Ġtheir":509,"ĠU":510,"Ġthey":511,"Ġbut":512,"Ġwere":513,"ra":514,"Ġag":515,"ure":516,"Ġ(":517,"wo":518,"ub":519,"ong":520,"Ġup":521,"ame":522,"ire":523,"fter":524,"ĠSt":525,"Ġad":526,"ie":527,"ther":528,"Ġne":529,"und":530,"Ġ\"":531,"ine":532,"Ġper":533,"ans":534,"ip":535,"uc":536,"Ġall":537,"Ġwould":538,"Ġbeen":539,"ount":540,"so":541,"Ġone":542,"ree":543,"Ġcl":544,"ia":545,"Ġres":546,"ber":547,"Ġtwo":548,"He":549,"Ġwe":550,"ue":551,"ide":552,"ĠO":553,"one":554,"ime":555,"ions":556,"port":557,"Ġac":558,"ning":559,"Ġmore":560,"Ġun":561,"Ġinc":562,"âĤ¬â":563,"ark":564,"Ġdo":565,"ĠCh":566,"Ġabout":567,"Ġfir":568,"Ġ200":569,"Ġ$":570,"ated":571,"99":572,"Ġits":573,"ond":574,"Ġafter":575,"ry":576,"ays":577,"ik":578,"ord":579,"30":580,"mer":581,"ake":582,"'t":583,"Ġcan":584,"It":585,"Ġint":586,"ven":587,"Ġexp":588,"Ġcont":589,"Ġman":590,"Ġalso":591,"Ġwhich":592,"ous":593,"ary":594,"own":595,"50":596,"ors":597,"Ġover":598,"act":599,"Ġher":600,"Ġme":601,"Ġte":602,"Ġnew":603,"ents":604,"Ġfirst":605,"age":606,"use":607,"ally":608,"Ġyou":609,"ail":610,"ose":611,"ach":612,"ance":613,"av":614,"In":615,"ace":616,"ick":617,"Ġsc":618,"ence":619,"ass":620,"old":621,"Ġwhen":622,"Ġshe":623,"Ġfin":624,"Ġrec":625,"ase":626,"ound":627,"ep":628,"hed":629,"40":630,"ile":631,"ool":632,"Ġim":633,"erv":634,"ations":635,"ian":636,"ict":637,"Ġwork":638,".\"":639,"Ġen":640,"ign":641,"ĠV":642,"60":643,"Ġthan":644,"Ġpe":645,"eek":646,"98":647,"wn":648,"Ġplay":649,"Ġ3":650,"ll":651,"Ġlast":652,"Ġapp":653,"Ġother":654,"ild":655,"Ġdis":656,"man":657,"ren":658,"lo":659,"iz":660,"70":661,"Ġsec":662,"48":663,"amp":664,"Ġro":665,"45":666,"Ġso":667,"Ħ¢":668,"âĤ¬âĦ¢":669,"oin":670,"78":671,"very":672,"Ġqu":673,"68":674,"75":675,"ble":676,"ople":677,"38":678,"But":679,"Ġop":680,"ru":681,"itt":682,"illion":683,"ish":684,"Ġpol":685,"orm":686,"Ġbec":687,"65":688,"Ġpart":689,"ition":690,"ade":691,"og":692,"ite":693,"Ġtime":694,"Ġar":695,"ough":696,"ident":697,"Ġyears":698,"35":699,"90":700,"ress":701,"Ġinto":702,"Ġthree":703,"chool":704,"uch":705,"ens":706,"Ġpeople":707,"aw":708,"11":709,"Ġus":710,"95":711,"Ġbo":712,"Ġcomm":713,"Ġthere":714,"Ġsome":715,"ft":716,"ne":717,"Ġacc":718,"Ġpre":719,"ang":720,"Ġpr":721,"able":722,"ike":723,"Ġlo":724,"Ġcould":725,"urn":726,"Ġget":727,"Ġweek":728,"22":729,"iss":730,"Ġatt":731,"Ġthem":732,"ind":733,"ult":734,"ock":735,"ason":736,"ates":737,"Ġhim":738,"Th":739,"ater":740,"44":741,"ob":742,"lic":743,"ings":744,"ical":745,"67":746,"anc":747,"Ġjust":748,"Ġco":749,"ction":750,"63":751,"Ġagain":752,"Ġinv":753,"97":754,"ton":755,"vel":756,"ory":757,"000":758,"Ġrun":759,"Ġno":760,"43":761,"hn":762,"Ġoffic":763,"47":764,"ved":765,"lud":766,"12":767,"Ġdec":768,"Ġlead":769,"ause":770,"ational":771,"Ġany":772,"Ġkn":773,"rough":774,"oll":775,"son":776,"93":777,"Ġfour":778,"ix":779,"Ġteam":780,"Ġinter":781,"ely":782,"Ġback":783,"ied":784,"fer":785,"Ġadd":786,"ues":787,"arg":788,"form":789,"ank":790,"als":791,"row":792,"ĠIn":793,"any":794,"fore":795,"cent":796,"ink":797,"reat":798,"ert":799,"air":800,"Ġ5":801,"uring":802,"Ġcount":803,"66":804,"Ġonly":805,"ons":806,"Ġear":807,"80":808,"Ġinclud":809,"Ġwhat":810,"Ġsup":811,"Ġund":812,"Ġmon":813,"gr":814,"Ġif":815,"Ġdid":816,"Ġsecond":817,"Ġmillion":818,"pt":819,"round":820,"We":821,"ĠY":822,"Ġcons":823,"ĠFr":824,"les":825,"vern":826,"other":827,"Ġrep":828,"ash":829,"Ġwin":830,"Ġbet":831,"ious":832,"ities":833,"Ġam":834,"enc":835,"73":836,"ĠUn":837,"ased":838,"Ġbefore":839,"Ġschool":840,"Ġcr":841,"Ġ--":842,"iel":843,"Ġbu":844,"Ġcall":845,"ss":846,"its":847,"led":848,"85":849,"alk":850,"pr":851,"Ġstud":852,"Ġdown":853,"ince":854,"Ġret":855,"ood":856,"46":857,"Ġlike":858,"lp":859,"Ġgr":860,"Ġserv":861,"Ġunder":862,"xt":863,"21":864,"Ġpercent":865,"Ġind":866,"96":867,"ĠTh":868,"oss":869,"Ġhome":870,"ib":871,"ont":872,"Ġbecause":873,"ath":874,"Ġ10":875,"land":876,"app":877,"Ġpres":878,"77":879,"Ġstate":880,"oth":881,"Ġreg":882,"ug":883,"ited":884,"Ġthrough":885,"Ġagainst":886,"we":887,"ating":888,"33":889,"Ġmem":890,"Ġfe":891,"ov":892,"Ġimp":893,"Ġ4":894,"hip":895,"Ġmonth":896,"red":897,"Ġrem":898,"Ġass":899,"Ġmin":900,"ting":901,"Ġhelp":902,"ublic":903,"ward":904,"Ġnow":905,"Ġbus":906,"Ġsay":907,"88":908,"Ġneed":909,"ise":910,"Ġmost":911,"55":912,"ier":913,"te":914,"Ġend":915,"roup":916,"Ġstart":917,"Ġcar":918,"ield":919,"Ġbl":920,"Ġgame":921,"vernment":922,"eral":923,"Ġseason":924,"Ġreport":925,"ĠÃ¢":926,"omm":927,"94":928,"ered":929,"vent":930,"ily":931,"ĠThe":932,"lect":933,"gan":934,"ĠMar":935,"Ġmade":936,"urs":937,"istr":938,"iness":939,"ĠNew":940,"aking":941,"Ġmake":942,"ner":943,"Ġdef":944,"Ġhow":945,"Ġwhile":946,"ah":947,"ices":948,"Ġcent":949,"Ġsays":950,"ey":951,"Ġwhere":952,"Ġdes":953,"ounc":954,"ird":955,"way":956,"Ġbeing":957,"yst":958,"ork":959,"Ġcompany":960,"Ġrel":961,"ected":962,"ement":963,"Ġgood":964,"Ġset":965,"ife":966,"Ġem":967,"ĠJo":968,"Ġ6":969,"Ġshould":970,"Ġbr":971,"Ġhigh":972,"Ġstr":973,"Ġown":974,"Ġour":975,"Ġmark":976,"Ġshow":977,"rop":978,"Ġplan":979,"Ġsur":980,"au":981,"tern":982,"ual":983,"Ġlook":984,"ax":985,"Ġofficial":986,"oint":987,"Ġmeet":988,"year":989,"ision":990,"Ġday":991,"Ġprov":992,"cess":993,"ned":994,"Ġact":995,"Ġtri":996,"eep":997,"Ġnext":998,"att":999,"bers":1000,"erson":1001,"Ġduring":1002,"velop":1003,"Ġmy":1004,"Ġwant":1005,"Ġprop":1006,"76":1007,"Ġlong":1008,"Ġcour":1009,"âĢ":1010,"ouse":1011,"Ġfam":1012,"Ġwell":1013,"ments":1014,"ames":1015,"Ġmany":1016,"Ġeven":1017,"Ġmay":1018,"du":1019,"orts":1020,"Ġgovernment":1021,"ĠMay":1022,"Ġsix":1023,"Ġsince":1024,"hes":1025,"Ġchild":1026,"atur":1027,"Ġgu":1028,"ove":1029,"Ġevery":1030,"Ġfive":1031,"io":1032,"ĠBr":1033,"Ġtake":1034,"ĠAr":1035,"Ġbusiness":1036,"Ġinvest":1037,"meric":1038,"Ġthen":1039,"Ġgroup":1040,"ets":1041,"Ġpolice":1042,"ley":1043,"gram":1044,"And":1045,"49":1046,"outh":1047,"ful":1048,"Ġthose":1049,"83":1050,"Ġdon":1051,"iday":1052,"Ġann":1053,"Ġyour":1054,"eb":1055,"Ġway":1056,"irect":1057,"Ġfl":1058,"hen":1059,"uck":1060,"Ġknow":1061,"ital":1062,"ĠCount":1063,"Ġstill":1064,"ower":1065,"ever":1066,"Ġlaw":1067,"Ġbel":1068,"ivers":1069,"ms":1070,"Ġent":1071,"Ġthink":1072,"oy":1073,"Ġopen":1074,"duc":1075,"Ġloc":1076,"Ġins":1077,"Ġsm":1078,"ĠSh":1079,"Ġgoing":1080,"atch":1081,"ĠAn":1082,"aj":1083,"iew":1084,"ull":1085,"ative":1086,"ister":1087,"Â¢":1088,"Ġtold":1089,"Ġcity":1090,"36":1091,"Ġ7":1092,"nes":1093,"âĤ¬âĢ":1094,"ange":1095,"ady":1096,"ives":1097,"58":1098,"ants":1099,"riv":1100,"39":1101,"Ġsl":1102,"37":1103,"ather":1104,"ĠMon":1105,"ics":1106,"Ġser":1107,"ility":1108,"Åĵ":1109,"Ġprogram":1110,"Ġfound":1111,"ĠInd":1112,"ty":1113,"If":1114,"Ġsuch":1115,"oot":1116,"Ġhand":1117,"ĠCounty":1118,"Ġph":1119,"ording":1120,"Ġmuch":1121,"ĠAmeric":1122,"az":1123,"orth":1124,"ared":1125,"ex":1126,"Ġnear":1127,"ween":1128,"ĠAl":1129,"They":1130,"Ġdevelop":1131,"unity":1132,"Ġdep":1133,"ecut":1134,"ling":1135,"ĠFriday":1136,"cer":1137,"Ġincre":1138,"ene":1139,"ists":1140,"Ġpublic":1141,"Ġhead":1142,"Ġcol":1143,"ior":1144,"ged":1145,"Ġdisc":1146,"Ġsee":1147,"pl":1148,"ines":1149,"Ġthird":1150,"ĠJohn":1151,"Ġput":1152,"ott":1153,"Ġeff":1154,"get":1155,"ars":1156,"ope":1157,"Ġbetween":1158,"Ġsign":1159,"Ġnum":1160,"Ġworld":1161,"ale":1162,"ys":1163,"Ġiss":1164,"Ġvery":1165,"ission":1166,"Ġvot":1167,"Ġleft":1168,"ral":1169,"ible":1170,"arter":1171,"Ãĥ":1172,"For":1173,"Ġ8":1174,"ric":1175,"ĠLe":1176,"ush":1177,"âĤ¬Â":1178,"64":1179,"ph":1180,"orn":1181,"med":1182,"alth":1183,"rib":1184,"ures":1185,"Ġright":1186,"Ġanother":1187,"osed":1188,"Ġwon":1189,"74":1190,"une":1191,"Ġmanag":1192,"Ġdif":1193,"ular":1194,"Ġdirect":1195,"uss":1196,"ĠCl":1197,"ying":1198,"Ġcap":1199,"elf":1200,"Ġincluding":1201,"aturday":1202,"Ġresp":1203,"ised":1204,"ball":1205,"This":1206,"ins":1207,"Ġsub":1208,"Ġbig":1209,"ina":1210,"âĤ¬ÂĿ":1211,".,":1212,"Ġ20":1213,"oney":1214,"Ġrece":1215,"eth":1216,"aff":1217,"imes":1218,"ollow":1219,"olog":1220,"Ġsupport":1221,"69":1222,"Ġnight":1223,"ject":1224,"Ġdoes":1225,"artment":1226,"min":1227,"ystem":1228,"Ġallow":1229,"Ġboth":1230,"Ġ199":1231,"Ġmed":1232,"79":1233,"Ġcontin":1234,"Ġ2005":1235,"Ġdet":1236,"An":1237,"34":1238,"Ġwom":1239,"oci":1240,"As":1241,"Ġcare":1242,"Ġtop":1243,"uesday":1244,"Ġleg":1245,"iam":1246,"ĠSaturday":1247,"ger":1248,"ean":1249,"let":1250,"loy":1251,"Ġcur":1252,"ific":1253,"On":1254,"ief":1255,"Ġaround":1256,"Ġbuild":1257,"Ġspec":1258,"uth":1259,"âĤ¬âĢĿ":1260,"ĠTuesday":1261,"Ġpay":1262,"Ġbro":1263,"She":1264,"ĠComm":1265,"Ġcost":1266,"aren":1267,"con":1268,"Ġopp":1269,"Ġter":1270,"Ġofficials":1271,"Ġgot":1272,"ired":1273,"ored":1274,"Ġtoday":1275,"ained":1276,"ĠRe":1277,"Ġoper":1278,"Ġpass":1279,"Ġfr":1280,"ves":1281,"ĠMonday":1282,"ĠSp":1283,"enn":1284,"Ġconf":1285,"Ġgen":1286,"ursday":1287,"arm":1288,"pril":1289,"Ġmarket":1290,"ĠRo":1291,"Ġ19":1292,"ross":1293,"ret":1294,"Ġvict":1295,"Ġinform":1296,"Ġsing":1297,"Ġformer":1298,"ering":1299,"cc":1300,"rent":1301,"Ġinning":1302,"Ġvis":1303,"Ġwr":1304,"Ġthough":1305,"sh":1306,"ĠThursday":1307,"Ġfollow":1308,"ednes":1309,"urch":1310,"rug":1311,"ense":1312,"ednesday":1313,"53":1314,"Ġinst":1315,"Ġmil":1316,"Ġrecent":1317,"Ġfamily":1318,"Ġrest":1319,"Ġhit":1320,"iver":1321,"Ġeach":1322,"rew":1323,"Ġmembers":1324,"ution":1325,"ĠMc":1326,"87":1327,"Ġtook":1328,"Ġlot":1329,"Ġfac":1330,"Ġcountry":1331,"Ġext":1332,"57":1333,"ody":1334,"'re":1335,"Ġsame":1336,"Ġask":1337,"Ġplace":1338,"ajor":1339,"Ġmoney":1340,"Ġpast":1341,"ĠWednesday":1342,"ĠSund":1343,"56":1344,"Ġfund":1345,"ished":1346,"Ġcame":1347,"Ġstudents":1348,"ney":1349,"alf":1350,"86":1351,"ck":1352,"Ġadv":1353,"Ġrequ":1354,"earch":1355,"Ġcamp":1356,"Ġcome":1357,"ĠApril":1358,"Ġjob":1359,"com":1360,"ĠMin":1361,"Ġproble":1362,"Ġchildren":1363,"Ġarea":1364,"Ġtax":1365,"Ġsystem":1366,"Ġappro":1367,"ille":1368,"der":1369,"ats":1370,"Ġperson":1371,"54":1372,"Ġgrow":1373,"arl":1374,"Wh":1375,"Ġthese":1376,"Ġev":1377,"Ġuse":1378,"Ġbelie":1379,"ĠCent":1380,"Ġ12":1381,"ects":1382,"ales":1383,"ĠUS":1384,"ury":1385,"Ġsever":1386,"Ġbas":1387,"ĠSunday":1388,"Ġrecord":1389,"Ġdem":1390,"ony":1391,"ĠCol":1392,"Ġhere":1393,"Ġ11":1394,"Ġused":1395,"84":1396,"by":1397,"âĢļ":1398,"ract":1399,"Ġkill":1400,"ke":1401,"ĠCo":1402,"osp":1403,"ĠBl":1404,"Ġed":1405,"ĠSc":1406,"ency":1407,"Ġturn":1408,"Ġtrans":1409,"Ġche":1410,"ploy":1411,"ces":1412,"Ġlife":1413,"Ġdays":1414,"Ġfew":1415,"ĠEn":1416,"Ġdou":1417,"Ġfinal":1418,"Ġ9":1419,"ouncil":1420,"Ġbest":1421,"Ġve":1422,"ually":1423,"augh":1424,"Ġwar":1425,"There":1426,"ived":1427,"aving":1428,"over":1429,"Ġtak":1430,"Ġnews":1431,"At":1432,"aining":1433,"iversity":1434,"ple":1435,"59":1436,"89":1437,"riend":1438,"ĠZ":1439,"Ġhapp":1440,"ĠJune":1441,"Ġtoo":1442,"til":1443,"raq":1444,"ĠUnited":1445,"Ġposs":1446,"ute":1447,"Ġsom":1448,"Ġwent":1449,"ison":1450,"Ġfil":1451,"200":1452,"uff":1453,"lear":1454,"Ġadded":1455,"Ġinformation":1456,"Ġkeep":1457,"ittle":1458,"iving":1459,"Ġboard":1460,"oints":1461,"Ġtalk":1462,"Ġmajor":1463,"Ġreturn":1464,"istrict":1465,"Ġav":1466,"Ġstand":1467,"used":1468,"Ġob":1469,"Ġago":1470,"Ġ2004":1471,"Ġrele":1472,"echn":1473,"Ġfind":1474,"arge":1475,"aul":1476,"That":1477,"Ġcharg":1478,"Al":1479,"orp":1480,"irl":1481,"How":1482,"Ġnumber":1483,"Ġprom":1484,"ided":1485,"ester":1486,"Ġpos":1487,"Ġcalled":1488,"Ġpit":1489,"Ġprof":1490,"Ġlocal":1491,"per":1492,"ĠDe":1493,"conom":1494,"Ġ15":1495,"Ġexpected":1496,"Ġspok":1497,"Ġpresident":1498,"Ġest":1499,"urity":1500,"ional":1501,"ience":1502,"ched":1503,"Ġmonths":1504,"ries":1505,"Ġmeeting":1506,"iting":1507,"alif":1508,"Ġearly":1509,"Ġpoints":1510,"ĠIs":1511,"Ġhom":1512,"Ġreal":1513,"ĠIraq":1514,"Ġuntil":1515,"Â¬":1516,"Ġcompet":1517,"Ġheld":1518,"aim":1519,"âĢļÂ¬":1520,"co":1521,"Ġdeal":1522,"Ġcourt":1523,"ights":1524,"uthor":1525,"ĠMr":1526,"ending":1527,"Ġdel":1528,"Ġcase":1529,"Ġlater":1530,"ured":1531,"gin":1532,"After":1533,"ness":1534,"gy":1535,"tal":1536,"Ġhard":1537,"vers":1538,"rest":1539,"St":1540,"lin":1541,"ient":1542,"ference":1543,"Ġ30":1544,"view":1545,"Ġstat":1546,"ĠSchool":1547,"Ġinf":1548,").":1549,"Ġaccording":1550,"Ġseveral":1551,"br":1552,"Ġcoach":1553,"Ġbillion":1554,"Ġgreat":1555,"Ġgames":1556,"Ġbeh":1557,"Ġevent":1558,"Ġdidn":1559,"Ġbetter":1560,"less":1561,"ump":1562,"Ġshot":1563,"Ġspe":1564,"ĠCity":1565,"Ġaway":1566,"ĠHe":1567,"ember":1568,"Ġsw":1569,"ued":1570,"ees":1571,"ague":1572,"ipp":1573,"cept":1574,"inc":1575,"Ġelect":1576,"Ġbre":1577,"Ġprot":1578,"Ġtest":1579,"100":1580,"Ġexper":1581,"els":1582,"oung":1583,"Ġemploy":1584,"Ġcurrent":1585,"ators":1586,"ĠSouth":1587,"ized":1588,"ended":1589,"42":1590,"Ġra":1591,"Ġmain":1592,"Ġnever":1593,"reet":1594,"Ġorgan":1595,"ĠState":1596,"resident":1597,"Ch":1598,"rown":1599,"Ġsent":1600,"ium":1601,"line":1602,"off":1603,"Ġmove":1604,"Ġpolit":1605,"ety":1606,"41":1607,"ĠDep":1608,"Ġ2003":1609,"Ġlittle":1610,"Ġsuc":1611,"Ġdr":1612,"ann":1613,"inal":1614,"Ġmight":1615,"ism":1616,"Ġdri":1617,"ains":1618,"Ġruns":1619,"lection":1620,"esterday":1621,"91":1622,"ready":1623,"Ġpat":1624,"Ġhour":1625,"Ġservice":1626,"92":1627,"Ġpartic":1628,"for":1629,"atic":1630,"Ġpost":1631,"Ġinj":1632,"ept":1633,"Ġeconom":1634,"ator":1635,"Ġwater":1636,"Ġconst":1637,"ington":1638,"Ġwalk":1639,"ards":1640,"Ġsim":1641,"Ġfore":1642,"Ġfield":1643,"Ġref":1644,"Ġseven":1645,"ĠAss":1646,"ĠTr":1647,"gest":1648,"Ġsmall":1649,"urop":1650,"Ġland":1651,"Ġleast":1652,"Ġwithout":1653,"Ġhealth":1654,"Ġhalf":1655,"rol":1656,"ane":1657,"Ġcommunity":1658,"ĠAmerican":1659,"Ġ'":1660,"Ġold":1661,"Ġel":1662,"ĠPh":1663,"'ve":1664,"Ġfact":1665,"Ġhold":1666,"ĠQ":1667,"ĠNorth":1668,"ides":1669,"Ġinvestig":1670,"62":1671,"05":1672,"ising":1673,"Ġmen":1674,"32":1675,"Ġproduc":1676,"ĠWest":1677,"side":1678,"to":1679,"ted":1680,"ately":1681,"Ġreally":1682,"Ġyesterday":1683,"Ġalready":1684,"Ġattack":1685,"Ġconsid":1686,"be":1687,"olice":1688,"Ġagre":1689,"Ġlist":1690,"Ġfire":1691,"Ġconcer":1692,"31":1693,"ON":1694,"Ġmust":1695,"ages":1696,"72":1697,"reen":1698,"61":1699,"ways":1700,"Ġgive":1701,"Ġshare":1702,"Ġoffice":1703,"ĠChr":1704,"Ġinterest":1705,"Ġsum":1706,"ham":1707,"ĠPark":1708,"Ġless":1709,"Ġplayers":1710,"Ġquarter":1711,"cher":1712,"Ġline":1713,"Ġdeath":1714,"ians":1715,"Ġ18":1716,"),":1717,"ai":1718,"Ġball":1719,"71":1720,"Ġreported":1721,"Ġshort":1722,"idd":1723,"ĠAd":1724,"ĠUniversity":1725,"Ġchamp":1726,"Ġquest":1727,"Ġcut":1728,"eter":1729,"Ġimport":1730,"eal":1731,"rem":1732,"aid":1733,"Ġclaim":1734,"vious":1735,"ases":1736,"Ġfriend":1737,"Ġair":1738,"lor":1739,"Ġpoint":1740,"Ġclass":1741,"atter":1742,"Ġindust":1743,"Ġpower":1744,"ones":1745,"ened":1746,"250":1747,"Ġprodu":1748,"Ġtechn":1749,"Ġaff":1750,"rove":1751,"Ġinvol":1752,"ĠCon":1753,"ially":1754,"ology":1755,"ĠEurop":1756,"Ġtrad":1757,"lege":1758,"Ġperform":1759,"ecutive":1760,"Ġpar":1761,"Ġlik":1762,"Ġbase":1763,"Ġdirector":1764,"ĠNational":1765,"ection":1766,"Ġfar":1767,"work":1768,"utes":1769,"150":1770,"AN":1771,"thing":1772,"ĠHigh":1773,"Ġfree":1774,"ĠPr":1775,"Ġmilit":1776,"Ġsen":1777,"ĠAust":1778,"Ġdiffer":1779,"Ġproject":1780,"ĠCar":1781,"af":1782,"Ġpop":1783,"Ġplans":1784,"urg":1785,"Ġlet":1786,"'m":1787,"ospital":1788,"Ġsk":1789,"ĠYork":1790,"usp":1791,"82":1792,"idents":1793,"ederal":1794,"omp":1795,"ittee":1796,"Ġspecial":1797,"Ġspokes":1798,"ler":1799,"Ġcust":1800,"ĠMarch":1801,"Ġwomen":1802,"iven":1803,"Ġmor":1804,"ĠDav":1805,"Ġtown":1806,"Ġstop":1807,"ox":1808,"Ġsuccess":1809,"Ġhist":1810,"ocr":1811,"anies":1812,"Ġbill":1813,"Ġalong":1814,"Ġhouse":1815,"self":1816,"Ġsol":1817,"ĠPro":1818,"Ġlevel":1819,"ced":1820,"ize":1821,"oon":1822,"head":1823,"akes":1824,"ounced":1825,"Ġround":1826,"ertain":1827,"Ġprocess":1828,"ids":1829,"Ġtaken":1830,"Ġside":1831,"Ġlate":1832,"ĠMich":1833,"ĠPresident":1834,"Ġstrong":1835,"Ġeight":1836,"Ġservices":1837,"Ġ13":1838,"ĠGr":1839,"Ġcre":1840,"Ġsales":1841,"Ġsit":1842,"140":1843,"130":1844,"Ġsusp":1845,"ĠDepartment":1846,"160":1847,"180":1848,"280":1849,"Ġmiss":1850,"Ġfall":1851,"230":1852,"Ġwhether":1853,"One":1854,"Ġroad":1855,"Ġmaking":1856,"240":1857,"Ġamong":1858,"However":1859,"Ġdra":1860,"Ġleaders":1861,"190":1862,"270":1863,"Ġintern":1864,"170":1865,"Ġworking":1866,"260":1867,"ĠBe":1868,"290":1869,"Ġ&":1870,"Ġtimes":1871,"Ġfut":1872,"ĠSen":1873,"Ġmar":1874,"ething":1875,"ĠAf":1876,"Ġmet":1877,"Ġyoung":1878,"Ġpress":1879,"ified":1880,"Ġmov":1881,"err":1882,"field":1883,"ĠIntern":1884,"Ġauthor":1885,"Ġform":1886,"Ġable":1887,"Ġ14":1888,"Ġcompanies":1889,"eng":1890,"Ġequ":1891,"Ġchang":1892,"Ġlost":1893,"ĠJu":1894,"Ġpick":1895,"Ġhig":1896,"Ġsingle":1897,"Ġnational":1898,"ville":1899,"Ġseem":1900,"Ġseries":1901,"Ġmod":1902,"Ġbuilding":1903,"ners":1904,"ĠWill":1905,"Ġenough":1906,"Ġfail":1907,"ament":1908,"Ġstri":1909,"Ġasked":1910,"Ġmus":1911,"Ġdifferent":1912,"orld":1913,"ÃĤ":1914,"Ġthings":1915,"Ġstarted":1916,"Ġfull":1917,"52":1918,"Ġarrest":1919,"81":1920,"ron":1921,"Ġled":1922,"ele":1923,"Ġnet":1924,"Ġdecision":1925,"Mr":1926,"ĠCan":1927,"Ġalle":1928,"Ġdrug":1929,"Ġcond":1930,"ention":1931,"Ġsomething":1932,"hic":1933,"Ġ25":1934,"ead":1935,"Ġclose":1936,"Ġscored":1937,"ĠEng":1938,"Ġincrease":1939,"When":1940,"Ġart":1941,"Ġbecome":1942,"apan":1943,"Ġbehind":1944,"Ġaddition":1945,"51":1946,"esp":1947,"His":1948,"idence":1949,"ached":1950,"cl":1951,"Ġclub":1952,"Ġparen":1953,"Ġpropert":1954,"Ġavail":1955,"ĠSch":1956,"aring":1957,"Ġvictory":1958,"ware":1959,"ands":1960,"Ġpresent":1961,"iol":1962,"ĠAt":1963,"Ġweeks":1964,"ĠPaul":1965,"int":1966,"Ġexpl":1967,"ature":1968,"ĠAnd":1969,"ĠWh":1970,"Ġsecurity":1971,"Ġplayed":1972,"Ġissue":1973,"Ġfourth":1974,"eg":1975,"Ġfinanc":1976,"Ġ16":1977,"ring":1978,"though":1979,"ruct":1980,"Ġloss":1981,"Ġalways":1982,"ern":1983,"Ġbud":1984,"Ġchief":1985,"itions":1986,"Ġvisit":1987,"Ġrul":1988,"time":1989,"Ġeas":1990,"ares":1991,"ĠStates":1992,"ĠBo":1993,"Ġfeel":1994,"Ġlooking":1995,"Ġhop":1996,"hern":1997,"ĠMan":1998,"Ġval":1999,"Ġdesign":2000,"ael":2001,"Ġsold":2002,"ole":2003,"ĠBar":2004,"Ġlarg":2005,"iff":2006,"ĠAustral":2007,"Ġdied":2008,"eor":2009,"Ġbank":2010,"ten":2011,"lex":2012,"Ġfuture":2013,"amed":2014,"Ġbegin":2015,"Ġdeb":2016,"Ġdevelopment":2017,"Ġreceived":2018,"aun":2019,"Ġbook":2020,"Ġgetting":2021,"Ġstaff":2022,"Ġlow":2023,"Ġhours":2024,"sp":2025,"Ġlear":2026,"Ġbegan":2027,"ĠSec":2028,"Ġmorning":2029,"Ġcor":2030,"Ġfun":2031,"Ġpriv":2032,"aced":2033,"AP":2034,"ĠRep":2035,"ĠCenter":2036,"ev":2037,"Ġtaking":2038,"ĠHar":2039,"Ġcustom":2040,"ster":2041,"Ġhits":2042,"Ġhaving":2043,"Ġcontract":2044,"yp":2045,"Ġgrad":2046,"Ġdist":2047,"Ġjud":2048,"Ġannounced":2049,"Ġeduc":2050,"acy":2051,"Ġdoesn":2052,"ef":2053,"Ġbene":2054,"Ġfell":2055,"Ġappear":2056,"ests":2057,"resent":2058,"acher":2059,"ministr":2060,"ably":2061,"ective":2062,"Ġminutes":2063,"Ġdone":2064,"ech":2065,"elt":2066,"ĠWorld":2067,"Ġactiv":2068,"lement":2069,"ĠPl":2070,"Ġmember":2071,"ĠAssoci":2072,"the":2073,"Ġimportant":2074,"'ll":2075,"You":2076,"Ġsite":2077,"Ġrace":2078,"ĠNo":2079,"ĠAll":2080,"Ġgirl":2081,"itted":2082,"ĠMinister":2083,"Ġavailable":2084,"aker":2085,"ks":2086,"ches":2087,"verage":2088,"Ġparty":2089,"rap":2090,"sc":2091,"Ġchange":2092,"Ġgave":2093,"Ġinnings":2094,"Ġ17":2095,"of":2096,"All":2097,"Ġread":2098,"Ġstar":2099,"With":2100,"bor":2101,"Ġgiven":2102,"Ġ50":2103,"ults":2104,"Ġearl":2105,"Ġviol":2106,"Ġtele":2107,"Ġdiscuss":2108,"Ġpark":2109,"ashington":2110,"Ġkilled":2111,"Ġclos":2112,"ically":2113,"Ġfront":2114,"ĠEx":2115,"Ġcrit":2116,"most":2117,"ino":2118,"IN":2119,"go":2120,"erman":2121,"Ġtit":2122,"ana":2123,"Ġfoot":2124,"ourt":2125,"Ġvol":2126,"Ġdouble":2127,"Ġcareer":2128,"Ġclear":2129,"Ġothers":2130,"Ġwithin":2131,"Ġdriv":2132,"Ġjoin":2133,"Ġpolic":2134,"Ġpolitical":2135,"venue":2136,"125":2137,"120":2138,"Ġmatch":2139,"ĠInc":2140,"my":2141,"based":2142,"Ġocc":2143,"isl":2144,"Ġsaying":2145,"oved":2146,"Ġsell":2147,"BI":2148,"ata":2149,"Ġground":2150,"Ġ198":2151,"Ġsched":2152,"Ġcenter":2153,"Ġwanted":2154,"110":2155,"Ġacross":2156,"AS":2157,"aign":2158,"Ġearlier":2159,"AR":2160,"Ġsug":2161,"ances":2162,"225":2163,"Ġsaf":2164,"Ġbenef":2165,"115":2166,"bert":2167,"114":2168,"123":2169,"ĠBrit":2170,"Ġbudget":2171,"ĠHouse":2172,"116":2173,"Ġcou":2174,"Ġresult":2175,"itive":2176,"ĠJack":2177,"ival":2178,"128":2179,"117":2180,"Ġweekend":2181,"113":2182,"220":2183,"ĠSm":2184,"118":2185,"126":2186,"215":2187,"Ġmother":2188,"129":2189,"Ġbar":2190,"Ġlikely":2191,"127":2192,"back":2193,"Ġfight":2194,"Ġmilitary":2195,"ĠBush":2196,"119":2197,"218":2198,"124":2199,"226":2200,"Ġoil":2201,"219":2202,"214":2203,"217":2204,"224":2205,"Ġonce":2206,"Ġtre":2207,"Ġgrowth":2208,"213":2209,"216":2210,"229":2211,"Ġface":2212,"Ġ100":2213,"aster":2214,"223":2215,"omin":2216,"ĠStreet":2217,"228":2218,"ĠSan":2219,"Ġhum":2220,"Ġpot":2221,"227":2222,"210":2223,"Ġopt":2224,"Ġvote":2225,"Ġ0":2226,"Ġfav":2227,"ĠJapan":2228,"Ġpossible":2229,"Ġsummer":2230,"Ġproblems":2231,"uit":2232,"ĠEd":2233,"Ġseen":2234,"Ġindustry":2235,"Ġproperty":2236,"Ġreason":2237,"Ġant":2238,"Ġtrying":2239,"Ġfederal":2240,"Ġdistrict":2241,"ession":2242,"Ġproblem":2243,"Ġple":2244,"ĠCalif":2245,"ĠWashington":2246,"ories":2247,"Ġtrave":2248,"isc":2249,"ionship":2250,"Ġprovide":2251,"Ġtotal":2252,"iron":2253,"Ġinclude":2254,"Ġnine":2255,"Ġprevious":2256,"ither":2257,"uation":2258,"aper":2259,"Ġprices":2260,"Ġbring":2261,"ald":2262,"ett":2263,"Ġvehic":2264,"ĠSup":2265,"uel":2266,"ĠChina":2267,"Ġbreak":2268,"ĠAb":2269,"Ġstock":2270,"iding":2271,"ĠChrist":2272,"Ġsenior":2273,"Ġstore":2274,"umb":2275,"ruction":2276,"ĠJuly":2277,"Ġcampaign":2278,"alt":2279,"Ġhost":2280,"ĠOr":2281,"ills":2282,"Ġhope":2283,"Ġide":2284,"Ġca":2285,"omb":2286,"Ġeng":2287,"Ġtreat":2288,"ried":2289,"Ġmanager":2290,"Ġcoming":2291,"ops":2292,"ĠGo":2293,"ape":2294,"ese":2295,"Ġteams":2296,"Ġanal":2297,"Ġstay":2298,"Ġleader":2299,"Ġdiv":2300,"aged":2301,"urther":2302,"ĠDem":2303,"Ġrecently":2304,"Ġcounty":2305,"ential":2306,"lish":2307,"Ġcontinue":2308,"Ġnon":2309,"Ġyet":2310,"iod":2311,"Ġwoman":2312,"OR":2313,"ots":2314,"Ġdead":2315,"Ġhon":2316,"Ġcharges":2317,"Ġcountries":2318,"iet":2319,"iers":2320,"aps":2321,"Ġtrack":2322,"Ġposition":2323,"Ġfollowing":2324,"ĠCorp":2325,"Ġview":2326,"Ġoffer":2327,"Ġassist":2328,"Ġparents":2329,"par":2330,"oring":2331,"stand":2332,"unic":2333,"Ġthought":2334,"here":2335,"Ġroom":2336,"ada":2337,"ization":2338,"aur":2339,"ĠWar":2340,"Ġtell":2341,"Ġwa":2342,"Ġsure":2343,"Ġthing":2344,"wards":2345,"Ġhistory":2346,"Ġbelieve":2347,"Ġlim":2348,"Ġgener":2349,"ask":2350,"ĠWilliam":2351,"Ġident":2352,"Ġname":2353,"ressed":2354,"ĠCourt":2355,"Ġscore":2356,"ĠJan":2357,"Ġchall":2358,"yn":2359,"Ġlarge":2360,"hel":2361,"Ġmot":2362,"ows":2363,"ensive":2364,"Ġsuff":2365,"Ġexpect":2366,"Ġcho":2367,"istan":2368,"Ġallowed":2369,"Ġ24":2370,"ality":2371,"âĢŀ":2372,"Ġcontrol":2373,"Ġ40":2374,"Ġmid":2375,"Ġplaying":2376,"âĢŀÂ¢":2377,"empt":2378,"ĠGeor":2379,"Ġoutside":2380,"Ġprice":2381,"iber":2382,"Ġ2002":2383,"Ġord":2384,"Ġcompl":2385,"ĠSte":2386,"Ġnation":2387,"ĠCouncil":2388,"Ġkey":2389,"Ġson":2390,"Ġever":2391,"ply":2392,"Ġgoal":2393,"Ġinternational":2394,"Ġdue":2395,"icult":2396,"Ġ21":2397,"Ġrepl":2398,"erm":2399,"Ġtour":2400,"Ġrepresent":2401,"Ġdoll":2402,"attle":2403,"Ġdoing":2404,"Ġcosts":2405,"Ġconcern":2406,"Ġtoget":2407,"Ġtogether":2408,"ades":2409,"ĠSe":2410,"ĠPal":2411,"ients":2412,"Ġchair":2413,"Ġplayer":2414,"Ġknown":2415,"Ġcourse":2416,"Ġnearly":2417,"Ġusing":2418,"Acc":2419,"Ġris":2420,"Ġalmost":2421,"Ġcoun":2422,"Ġfoc":2423,"Ġopport":2424,"ving":2425,"que":2426,"Ġhot":2427,"Ġstep":2428,"Ġelection":2429,"Ġquestion":2430,"uty":2431,"Ġexc":2432,"Ġneeded":2433,"Ġfinancial":2434,"Ġhospital":2435,"oor":2436,"Ġschools":2437,"Ġgeneral":2438,"Ġresidents":2439,"Ġmusic":2440,"Ġneeds":2441,"Ġconv":2442,"Ġvar":2443,"Ġtry":2444,"ĠGu":2445,"ĠIndian":2446,"ĠAs":2447,"itting":2448,"Ġneg":2449,"Ġfood":2450,"etro":2451,"ources":2452,"Ġperiod":2453,"Ġsoft":2454,"Ġpract":2455,"Ġprison":2456,"''":2457,"Ġorder":2458,"reg":2459,"Ġannual":2460,"ĠAm":2461,"irc":2462,"Ġworkers":2463,"ribut":2464,"Ġspokesman":2465,"roll":2466,"ĠRoad":2467,"Ġbased":2468,"Ġstatement":2469,"Ġkind":2470,"Ġhigher":2471,"run":2472,"Ġoften":2473,"ĠVal":2474,"Ġthreat":2475,"ĠDavid":2476,"elebr":2477,"gress":2478,"Ġaut":2479,"riz":2480,"Ġadm":2481,"Ġcouncil":2482,"Ġlive":2483,"ĠRed":2484,"Ġfig":2485,"Ġcred":2486,"Ġhowever":2487,"Ġsoon":2488,"Ġreleased":2489,"ural":2490,"wh":2491,"orney":2492,"Ġworked":2493,"ery":2494,"olf":2495,"Ġap":2496,"Ġinit":2497,"Ġinvolved":2498,"atives":2499,"Ġfurther":2500,"iddle":2501,"ĠMark":2502,"Ġrate":2503,"ris":2504,"Ġadministr":2505,"Ġexecutive":2506,"ĠMed":2507,"akers":2508,"Ġparticip":2509,"Ġprob":2510,"sel":2511,"Ġfather":2512,"lood":2513,"Ġissues":2514,"Ġbad":2515,"ifth":2516,"Ġwhy":2517,"Ġresearch":2518,"Ġfinished":2519,"Ġbeat":2520,"Ġaction":2521,"imin":2522,"Ġbuy":2523,"ook":2524,"sw":2525,"Police":2526,"According":2527,"No":2528,"Ġestim":2529,"Ġprivate":2530,"Ġbody":2531,"Ġterr":2532,"Ġwhose":2533,"Ġcertain":2534,"Ġdoub":2535,"viron":2536,"Ġforward":2537,"Ġchance":2538,"Ġteacher":2539,"\".":2540,"Ġsqu":2541,"Ġcommission":2542,"rought":2543,"500":2544,"ĠRes":2545,"Ġstory":2546,"ym":2547,"ences":2548,"asing":2549,"Ġcomb":2550,"ought":2551,"Ġstre":2552,"ulation":2553,"Ġstudy":2554,"ĠAfric":2555,"Ġneigh":2556,"Ġwife":2557,"ĠMichael":2558,"urd":2559,"ounds":2560,"ford":2561,"ĠMo":2562,"idge":2563,"Ġsaw":2564,"ago":2565,"Ġsex":2566,"Ġmom":2567,"duct":2568,"ined":2569,"ilt":2570,"pped":2571,"Ġfriends":2572,"Ġcelebr":2573,"Ġareas":2574,"medi":2575,"Ġreached":2576,"aces":2577,"ocial":2578,"cast":2579,"Ġcents":2580,"ĠBro":2581,"Ġvictim":2582,"ĠServ":2583,"Ġofficer":2584,"ĠDay":2585,"ĠRuss":2586,"Ġdam":2587,"abor":2588,"ĠDemocr":2589,"Ġcommittee":2590,"itor":2591,"oman":2592,"Ġlaun":2593,"Ġrunning":2594,"ĠAssociation":2595,"ĠEast":2596,"Now":2597,"ĠTex":2598,"secut":2599,"ĠFor":2600,"ibility":2601,"erry":2602,"ĠPat":2603,"ĠLeague":2604,"vironment":2605,"Ġwasn":2606,"Ġimprove":2607,"Some":2608,"now":2609,"tain":2610,"str":2611,"Ġmean":2612,"ĠII":2613,"bal":2614,"ging":2615,"Ġcomplet":2616,"Ġ22":2617,"ourn":2618,"Ġahead":2619,"Ġfirm":2620,"hing":2621,"Ġlegisl":2622,"Ġcharged":2623,"Ġtechnology":2624,"Ġste":2625,"Ġdev":2626,"Ġfamil":2627,"ĠRich":2628,"Ġseek":2629,"Ġfre":2630,"ĠEl":2631,"Ġconsum":2632,"Ġtraining":2633,"ails":2634,"Ġserious":2635,"Ġmoved":2636,"ki":2637,"Ġfans":2638,"ĠGerman":2639,"Ġbecame":2640,"ĠAng":2641,"ams":2642,"aughter":2643,"Ġreports":2644,"noon":2645,"Ġreb":2646,"Ġresults":2647,"ĠCommission":2648,"Ġtitle":2649,"Ġschedul":2650,"Ġtyp":2651,"Ġ2001":2652,"wood":2653,"Ġarrested":2654,"iter":2655,"ilities":2656,"Ġwinning":2657,"Ġfifth":2658,"ĠBank":2659,"Ġemer":2660,"Last":2661,"ston":2662,"ĠAir":2663,"Ġblock":2664,"Ġtrip":2665,"eff":2666,"Ġwants":2667,"itution":2668,"Ġren":2669,"Ġwatch":2670,"Ġcomment":2671,"Ġdepartment":2672,"Ġdemand":2673,"Ġexperience":2674,"Ġprep":2675,"Ġsuggest":2676,"Ġtw":2677,"CA":2678,"Ġcomes":2679,"Ġaccess":2680,"ilar":2681,"lete":2682,"Ġcheck":2683,"Ġemployees":2684,"ER":2685,"Ġcle":2686,"Ġhimself":2687,"Ġeducation":2688,"ule":2689,"ĠBill":2690,"Ġrespons":2691,"Ġgroups":2692,"aught":2693,"resh":2694,"endent":2695,"So":2696,"Ġwind":2697,"room":2698,"ung":2699,"Ġproducts":2700,"Ġpropos":2701,"Ġeconomic":2702,"Ġtarg":2703,"Ġmeas":2704,"Ġdiff":2705,"ĠMart":2706,"ĠSmith":2707,"ij":2708,"Ġquick":2709,"Ġpain":2710,"Ġrelations":2711,"What":2712,"Ġstra":2713,"Ġofficers":2714,"Ġcapital":2715,"ran":2716,"aded":2717,"Ġkids":2718,"ĠAmerica":2719,"Ġperformance":2720,"bed":2721,"Ġshoot":2722,"Ġaverage":2723,"Ġgas":2724,"Ġalleged":2725,"Ġcouple":2726,"rael":2727,"Ġconference":2728,"icted":2729,"Ġcand":2730,"Ġdecided":2731,"Ġmanagement":2732,"ening":2733,"Ġafternoon":2734,"ĠTexas":2735,"che":2736,"&#":2737,"Ġturned":2738,"Ġcover":2739,"ĠEuropean":2740,"Ġlight":2741,"Ġchar":2742,"jects":2743,"Ġsect":2744,"ara":2745,"Ġ60":2746,"Ġmakes":2747,"ĠChurch":2748,"Ġdifficult":2749,"estern":2750,"rian":2751,"Ġenc":2752,"Ġrole":2753,"Ġinfl":2754,"Ġbit":2755,"Ġshares":2756,"ĠRepublic":2757,"Ġaccept":2758,"Ġimmedi":2759,"Ġbrought":2760,"ĠMor":2761,"retary":2762,"Ġaccount":2763,"Ġaud":2764,"Re":2765,"band":2766,"Ġpack":2767,"Ġ23":2768,"Ġgrand":2769,"Ġleading":2770,"ĠSun":2771,"Ġage":2772,"Ġsett":2773,"cy":2774,"Ġdesc":2775,"ĠPhil":2776,"ĠDistrict":2777,"ida":2778,"ds":2779,"Ġtrade":2780,"ĠJackson":2781,"hold":2782,"Ġport":2783,"ceed":2784,"ĠDr":2785,"Ġtourn":2786,"Ġspent":2787,"Ġdata":2788,"Ġtrial":2789,"ornia":2790,"Ġended":2791,"Ġfilm":2792,"Ġmedical":2793,"ĠCup":2794,"Ġred":2795,"ĠBrown":2796,"emp":2797,"ĠFeb":2798,"rel":2799,"Ġinterview":2800,"Ġshowed":2801,"Ġgl":2802,"Ġanything":2803,"Ġpromot":2804,"Ġden":2805,"LE":2806,"Ġarg":2807,"rench":2808,"Ġhelped":2809,"uk":2810,"ivid":2811,"Ġcomput":2812,"BA":2813,"ires":2814,"ergy":2815,"Ġsearch":2816,"Ġreach":2817,"ondon":2818,"ĠIndia":2819,"Ġpitch":2820,"Ġnetwork":2821,"Ġmatter":2822,"Ġnamed":2823,"ability":2824,"Ġcases":2825,"osing":2826,"ĠGen":2827,"ĠOff":2828,"Ġplant":2829,"Ġfinish":2830,"Ġstudent":2831,"Ġregular":2832,"Ġmedia":2833,"urt":2834,"ander":2835,"Ġapplic":2836,"ĠCollege":2837,"Ġcustomers":2838,"ault":2839,"me":2840,"osition":2841,"Ġscheduled":2842,"'d":2843,"la":2844,"ama":2845,"ĠSenate":2846,"Ġstraight":2847,"not":2848,"iec":2849,"joy":2850,"Ġrev":2851,"acing":2852,"Ġ26":2853,"ivil":2854,"ona":2855,"Ġlat":2856,"Ġagreed":2857,"Ġheart":2858,"Ġincluded":2859,"Ġleave":2860,"Ġgradu":2861,"ST":2862,"Ġpaid":2863,"ĠWeb":2864,"Ġauthorities":2865,"oper":2866,"fact":2867,"Ġglo":2868,"Ġrad":2869,"Ġfeet":2870,"wide":2871,"ĠInternational":2872,"ĠAug":2873,"ises":2874,"Ġtried":2875,"Ġnec":2876,"vey":2877,"rup":2878,"While":2879,"Ġhous":2880,"unt":2881,"ĠRBI":2882,"ude":2883,"Ġmess":2884,"ĠMal":2885,"ĠCalifornia":2886,"Ġcharge":2887,"ift":2888,"Ġdrive":2889,"New":2890,"Ġattend":2891,"Ġcompetition":2892,"bs":2893,"My":2894,"ĠSept":2895,"Ġstarting":2896,"Ġforeign":2897,"Ġproposed":2898,"To":2899,"gency":2900,"Ġlower":2901,"Ġinvestigation":2902,"ĠEurope":2903,"Ġpen":2904,"ĠSy":2905,"ension":2906,"Ġdesp":2907,"Ġlargest":2908,"erve":2909,"change":2910,"men":2911,"Ġconc":2912,"Ġcontact":2913,"Ġpersonal":2914,"ges":2915,"lished":2916,"irst":2917,"Ġenjoy":2918,"Ġattempt":2919,"Ġparticular":2920,"Ġbiggest":2921,"Ġhuman":2922,"Ġsomeone":2923,"Ġphot":2924,"Ġjobs":2925,"ĠWhite":2926,"Ġcard":2927,"amb":2928,"ĠNews":2929,"Ġfeat":2930,"Jo":2931,"Ġlatest":2932,"nings":2933,"Ġeffort":2934,"Ġcrow":2935,"Ġpub":2936,"Ġmult":2937,"ecially":2938,"ocu":2939,"Ġworth":2940,"Ġpolicy":2941,"RA":2942,"Ġpurch":2943,"BC":2944,"eed":2945,"Ġcell":2946,"Ġacqu":2947,"Ġdisp":2948,"Ġforce":2949,"ograp":2950,"Ġapproved":2951,"Ġfocus":2952,"Ġboy":2953,"Ġopening":2954,"Ġsimilar":2955,"Ġpotential":2956,"Ġjump":2957,"rugg":2958,"Ġconsider":2959,"Ġstates":2960,"175":2961,"Ġphone":2962,"yle":2963,"onn":2964,"ĠDec":2965,"Ġearned":2966,"orpor":2967,"vision":2968,"Ġgun":2969,"ĠPolice":2970,"Ġincreased":2971,"hood":2972,"ĠWood":2973,"Ġprofess":2974,"lam":2975,"uary":2976,"ify":2977,"Ġcollege":2978,"Ġagreement":2979,"ros":2980,"Ġlaws":2981,"Ġesp":2982,"Ġbroad":2983,"ming":2984,"Ġcash":2985,"ĠPar":2986,"Ġclosed":2987,"Ġblack":2988,"lected":2989,"Both":2990,"Ġey":2991,"Ġlegal":2992,"Ġchanges":2993,"eared":2994,"add":2995,"Ġrights":2996,"105":2997,"Ġremain":2998,"ĠIsrael":2999,"Sh":3000,"275":3001,"Ġlove":3002,"Ġevents":3003,"Ġindivid":3004,"Ġbott":3005,"Ġnothing":3006,"Ġdoct":3007,"ĠScott":3008,"Ġrelease":3009,"Ġchampionship":3010,"Ġprobably":3011,"Ġreview":3012,"Ġstrugg":3013,"erem":3014,"Ġminister":3015,"Ġtournament":3016,"ky":3017,"unities":3018,"unior":3019,"295":3020,"Ġur":3021,"Ġfast":3022,"135":3023,"ĠBay":3024,"ears":3025,"195":3026,"lorida":3027,"ĠX":3028,"alled":3029,"By":3030,"Ġthrow":3031,"Ġaward":3032,"itness":3033,"Ġmag":3034,"ĠMus":3035,"165":3036,"Ġisn":3037,"avy":3038,"Ġsurpr":3039,"Ġfailed":3040,"while":3041,"Ġdespite":3042,"anch":3043,"rior":3044,"ips":3045,"Ġregion":3046,"Ġrefer":3047,"ĠLa":3048,"ĠLondon":3049,"185":3050,"venth":3051,"Ġsixth":3052,"Ġeither":3053,"155":3054,"265":3055,"ogn":3056,"Ġindic":3057,"Ġsignific":3058,"145":3059,"245":3060,"285":3061,"Ġmeans":3062,"Ġtalks":3063,"oph":3064,"Ġcandid":3065,"mp":3066,"inn":3067,"235":3068,"205":3069,"ials":3070,"Ġenergy":3071,"ĠJohnson":3072,"Ġsem":3073,"Ġfill":3074,"urance":3075,"Ġchairman":3076,"255":3077,"Ġorig":3078,"Ġrecomm":3079,"Ġanalyst":3080,"Ġvide":3081,"Ġgiving":3082,"mon":3083,"Be":3084,"fort":3085,"Ġterror":3086,"Ġespecially":3087,"vert":3088,"146":3089,"Ġtarget":3090,"ĠDan":3091,"108":3092,"ĠHol":3093,"Ġfollowed":3094,"play":3095,"opp":3096,"248":3097,"Ġchurch":3098,"roy":3099,"Ġtraff":3100,"Ġcurrently":3101,"Ġtick":3102,"Ġcirc":3103,"chie":3104,"Ġhomes":3105,"mit":3106,"158":3107,"ĠChamp":3108,"aven":3109,"ota":3110,"Ġcomplete":3111,"ample":3112,"Ġsigned":3113,"Ġconn":3114,"Ġdriver":3115,"oming":3116,"Ġlives":3117,"Ġfavor":3118,"istry":3119,"Ġsouth":3120,"Ġprosecut":3121,"138":3122,"278":3123,"Ġoffered":3124,"Ġamount":3125,"Â£":3126,"Ġdocu":3127,"outhern":3128,"ination":3129,"Ġdro":3130,"urning":3131,"Ġ27":3132,"238":3133,"Ġconfir":3134,"Ġban":3135,"ateg":3136,"258":3137,"178":3138,"298":3139,"208":3140,"inese":3141,"ĠEngland":3142,"Ġdest":3143,"oti":3144,"148":3145,"168":3146,"288":3147,"enced":3148,"uge":3149,"198":3150,"188":3151,"Ġenvironment":3152,"Ġ28":3153,"268":3154,"Ġserved":3155,"olic":3156,"Ġgoals":3157,"Ġnorth":3158,"udd":3159,"Ġcalls":3160,"Ġcoll":3161,"ĠMill":3162,"ĠMont":3163,"ĠSw":3164,"ĠJames":3165,"ĠSer":3166,"unte":3167,"icago":3168,"Ġrose":3169,"Ġestab":3170,"Ġpressure":3171,"Many":3172,"Ġidea":3173,"More":3174,"Ġagency":3175,"Ġdefe":3176,"ĠLake":3177,"ĠGroup":3178,"Ġefforts":3179,"Other":3180,"ĠGl":3181,"163":3182,"Ġbusinesses":3183,"Ġhands":3184,"Ġz":3185,"ĠFrench":3186,"ruary":3187,"inger":3188,"Ġ31":3189,"Ġfootball":3190,"Ġmind":3191,"Ġrates":3192,"Ġworks":3193,"duced":3194,"Ġchallen":3195,"ĠValley":3196,"Ġliving":3197,"Ġpassed":3198,"Ġprojects":3199,"raft":3200,"Ġconstruction":3201,"Ġproduction":3202,"order":3203,"ĠAustralia":3204,"Ġconduct":3205,"ĠBritish":3206,"Ġfair":3207,"Ġdisapp":3208,"apped":3209,"ource":3210,"Ġseventh":3211,"aily":3212,"Although":3213,"Ġsituation":3214,"Ġfly":3215,"Ġaddress":3216,"ĠReg":3217,"ĠMcC":3218,"NE":3219,"esc":3220,"Ġlic":3221,"Ġpred":3222,"Ġraised":3223,"emb":3224,"Ġqualif":3225,"anger":3226,"ĠUnion":3227,"Ġrisk":3228,"squ":3229,"Ġbrother":3230,"Ġengine":3231,"pro":3232,"read":3233,"ender":3234,"103":3235,"Ġentire":3236,"Ġextra":3237,"Ġstruck":3238,"Ġowners":3239,"Ġprograms":3240,"Ġreceive":3241,"ĠRiver":3242,"143":3243,"Ġinside":3244,"ipped":3245,"Ġcross":3246,"Ġdaughter":3247,"cement":3248,"193":3249,"233":3250,"Ġ2000":3251,"IS":3252,"erc":3253,"153":3254,"133":3255,"183":3256,"Ġbuilt":3257,"ĠJanuary":3258,"Ġhearing":3259,"Ġcontinued":3260,"Ġens":3261,"Ġnewsp":3262,"ugh":3263,"orial":3264,"203":3265,"Ġfelt":3266,"Ġrout":3267,"283":3268,"Even":3269,"Ġhol":3270,"adem":3271,"Ġarri":3272,"fully":3273,"ĠFebruary":3274,"Ad":3275,"aging":3276,"263":3277,"Ġopened":3278,"Ġdriving":3279,"rick":3280,"ĠHall":3281,"Ġspace":3282,"Ġwhole":3283,"ption":3284,"ĠClub":3285,"Ġopportunity":3286,"253":3287,"173":3288,"243":3289,"293":3290,"AT":3291,"era":3292,"273":3293,"207":3294,"Ġhopes":3295,"Ġsignificant":3296,"body":3297,"Ġfamilies":3298,"omas":3299,"Ġspot":3300,"Ġkept":3301,"Ġpret":3302,"Ġdescrib":3303,"adium":3304,"Ġvers":3305,"157":3306,"237":3307,"Ġintro":3308,"ĠWilliams":3309,"Ġfish":3310,"ĠKore":3311,"west":3312,"ĠFlorida":3313,"Ġdraw":3314,"vest":3315,"Ġleague":3316,"247":3317,"107":3318,"Ġvehicle":3319,"selves":3320,"Ġsal":3321,"ider":3322,"257":3323,"147":3324,"267":3325,"raw":3326,"lined":3327,"Ġproduct":3328,"ray":3329,"Ġbomb":3330,"ĠPart":3331,"ode":3332,"167":3333,"287":3334,"Ġeveryone":3335,"right":3336,"inals":3337,"Ġfresh":3338,"137":3339,"187":3340,"Ġinvestment":3341,"ĠWil":3342,"197":3343,"177":3344,"Ġincludes":3345,"Ġslow":3346,"Ġphys":3347,"Ġrespond":3348,"hib":3349,"277":3350,"Ġforces":3351,"Ġbaseball":3352,"Ġansw":3353,"256":3354,"Ġtravel":3355,"ker":3356,"ufact":3357,"297":3358,"undred":3359,"Ġthemselves":3360,"ibr":3361,"Ġovers":3362,"Ġfarm":3363,"ends":3364,"Ġmiles":3365,"ently":3366,"ĠRob":3367,"106":3368,"ĠOp":3369,"Ġrecogn":3370,"Ġaccused":3371,"Ġjudge":3372,"Ġmur":3373,"Ġready":3374,"Ġanim":3375,"136":3376,"Ab":3377,"Ġ29":3378,"196":3379,"Ġbox":3380,"Ġdeliver":3381,"Ġsafety":3382,"Ġalthough":3383,"Ġdog":3384,"han":3385,"yer":3386,"igr":3387,"irt":3388,"ING":3389,"town":3390,"val":3391,"176":3392,"166":3393,"266":3394,"206":3395,"Ġsurv":3396,"Ġeverything":3397,"Ġrequire":3398,"ĠBoard":3399,"Ġanti":3400,"Ġdollars":3401,"Ġheard":3402,"156":3403,"Ġspring":3404,"Ġassoci":3405,"Ġreturned":3406,"Pro":3407,"296":3408,"Ġoperations":3409,"Ġbid":3410,"276":3411,"ĠGeorge":3412,"186":3413,"236":3414,"Ġjail":3415,"airs":3416,"Ġevidence":3417,"come":3418,"246":3419,"Ġunderstand":3420,"Ëľ":3421,"ico":3422,"ĠSing":3423,"ĠCong":3424,"Ġstage":3425,"286":3426,"anta":3427,"Ġpeace":3428,"Ġchampion":3429,"uing":3430,"igan":3431,"Ġgrowing":3432,"Ġtakes":3433,"Ġoverall":3434,"Ġshows":3435,"ĠJim":3436,"Ar":3437,"Ġcancer":3438,"Ġdefense":3439,"down":3440,"ĠMil":3441,"ighth":3442,"ociety":3443,"ĠHealth":3444,"eople":3445,"Ġcause":3446,"Ġhus":3447,"Ġsave":3448,"ĠItal":3449,"ĠHam":3450,"ĠJose":3451,"104":3452,"ĠInternet":3453,"Ġ_":3454,"Ġcivil":3455,"ĠJones":3456,"Ġimpro":3457,"Ġfunds":3458,"rupt":3459,"Ġrevenue":3460,"aine":3461,"Ġimm":3462,"arliam":3463,"Ġflo":3464,"Ġsat":3465,"Ġcontribut":3466,"oo":3467,"Ġresident":3468,"Ġretail":3469,"hest":3470,"Ġrather":3471,"ume":3472,"Ġimpact":3473,"ped":3474,"ĠTown":3475,"Ġpoll":3476,"Ġinjury":3477,"arliament":3478,"During":3479,"Ġdraft":3480,"ournal":3481,"Ġmer":3482,"174":3483,"264":3484,"Ġtradition":3485,"itz":3486,"144":3487,"274":3488,"Ġprevent":3489,"Ġnegoti":3490,"Ġthous":3491,"ĠTV":3492,"ĠLou":3493,"254":3494,"284":3495,"oke":3496,"ĠChinese":3497,"ĠShe":3498,"194":3499,"Ġhappened":3500,"Ġcredit":3501,"Ġtraffic":3502,"alls":3503,"134":3504,"184":3505,"244":3506,"Ġsports":3507,"ĠAngel":3508,"Ġcrowd":3509,"Ġachie":3510,"ĠMic":3511,"ĠMike":3512,"eman":3513,"ĠChicago":3514,"Ġclean":3515,"Ġtro":3516,"234":3517,"Ġanyone":3518,"Am":3519,"Ġlack":3520,"imb":3521,"154":3522,"164":3523,"294":3524,"204":3525,"Ġspeed":3526,"Ġmurder":3527,"Ġtrou":3528,"Ġlink":3529,"ĠCor":3530,"ĠKing":3531,"Ġplanned":3532,"Ġnecess":3533,"Ġlonger":3534,"Ġdeter":3535,"Ġmater":3536,"Ġsoftware":3537,"Ġrank":3538,"Ġcompared":3539,"ĠMem":3540,"apt":3541,"Ġexample":3542,"Ġfunding":3543,"Ġmass":3544,"Ġhear":3545,"Ġcars":3546,"Ġmoment":3547,"aches":3548,"Ġrock":3549,"Ġcarry":3550,"Ġprovided":3551,"Ġrequest":3552,"ements":3553,"ĠCarol":3554,"Ġvalue":3555,"Ġwrong":3556,"SE":3557,"akistan":3558,"Ġquality":3559,"ĠQu":3560,"Ġnumbers":3561,"orrow":3562,"Ġpopular":3563,"Ġwhite":3564,"Ġknew":3565,"Ġrestaur":3566,"Ġtelevision":3567,"yan":3568,"ĠCath":3569,"ĠHill":3570,"merc":3571,"Ġcommon":3572,"ĠÃĤ":3573,"Ġtoward":3574,"ĠGreen":3575,"Ġsuper":3576,"Her":3577,"itiz":3578,"raz":3579,"Ġdeep":3580,"Ġvolunte":3581,"Ġexist":3582,"109":3583,"Ġdise":3584,"overed":3585,"Ġeconomy":3586,"Ġhusband":3587,"Ġpope":3588,"Ġabs":3589,"Ġveter":3590,"Ġtreatment":3591,"Ġexpand":3592,"Ġterm":3593,"bo":3594,"Ġappoint":3595,"Ġcult":3596,"oid":3597,"Ġwear":3598,"aled":3599,"Ġpatients":3600,"cle":3601,"ado":3602,"Ġkick":3603,"Ġremains":3604,"May":3605,"Ġsession":3606,"Ġblood":3607,"ĠComp":3608,"ĠBob":3609,"anced":3610,"199":3611,"139":3612,"oul":3613,"orthern":3614,"Ġdeg":3615,"Ġcontr":3616,"Ġimmediately":3617,"iring":3618,"Ġattorney":3619,"Ġwinner":3620,"Every":3621,"149":3622,"169":3623,"ipment":3624,"Ġforced":3625,"159":3626,"âĤ¬Ëľ":3627,"Ġcouldn":3628,"Ġowner":3629,"chers":3630,"uters":3631,"179":3632,"berg":3633,"Ġ2006":3634,"239":3635,"209":3636,"Ġencour":3637,"ager":3638,"189":3639,"249":3640,"299":3641,"Ġsupp":3642,"Ġconsidered":3643,"Ġadditional":3644,"Most":3645,"Ġmat":3646,"ĠMary":3647,"289":3648,"yl":3649,"ream":3650,"Ġhappy":3651,"Ġprofit":3652,"ĠCanada":3653,"ĠAugust":3654,"Ġerr":3655,"ĠMiss":3656,"269":3657,"ipal":3658,"Ġcerem":3659,"ites":3660,"Ġsn":3661,"aries":3662,"259":3663,"279":3664,"ilty":3665,"Ġresol":3666,"Ġincident":3667,"Ġthroughout":3668,"Ġbelieved":3669,"Ġgirls":3670,"hd":3671,"ĠTom":3672,"Ġattacks":3673,"Ġcreate":3674,"Ġconcerns":3675,"ĠDel":3676,"Ġsepar":3677,"obile":3678,"DA":3679,"ĠAustralian":3680,"iance":3681,"ship":3682,"Ġfuel":3683,"Ġstation":3684,"Ġshut":3685,"âĤ¬âĢľ":3686,"ĠGeneral":3687,"Ġcorpor":3688,"Ġtruck":3689,"win":3690,"unch":3691,"ĠPort":3692,"oston":3693,"Ġattract":3694,"ĠFranc":3695,"Ġquestions":3696,"Not":3697,"itch":3698,"ĠCr":3699,"ems":3700,"Ġincome":3701,"Ġactivities":3702,"Ġneighbor":3703,"hy":3704,"TA":3705,"isions":3706,"ĠRock":3707,"Ġmanufact":3708,"ĠTe":3709,"Ġprior":3710,"illage":3711,"Ġscene":3712,"Ġbask":3713,"Ġpractice":3714,"Mar":3715,"woman":3716,"leg":3717,"Ġinsp":3718,"ĠIraqi":3719,"Ġraise":3720,"Ġmoving":3721,"Ġseems":3722,"Ġappeared":3723,"Another":3724,"Ġcritic":3725,"mail":3726,"Ġappeal":3727,"mark":3728,"Ġsector":3729,"Ġvideo":3730,"Ġmiddle":3731,"ĠChe":3732,"uries":3733,"Ġplanning":3734,"ĠMex":3735,"ĠHow":3736,"ĠKen":3737,"zz":3738,"Ġguilty":3739,"Ġinstead":3740,"Ġbeginning":3741,"Ġadministration":3742,"orter":3743,"Ġrange":3744,"Ġspons":3745,"Ġgrant":3746,"Ġpretty":3747,"atory":3748,"lim":3749,"uclear":3750,"ĠGovernment":3751,"ĠEU":3752,"Ġpers":3753,"ocked":3754,"Ġlooked":3755,"Ġcomplain":3756,"Ġreve":3757,"istic":3758,"abour":3759,"ĠCommittee":3760,"foot":3761,"Ġlif":3762,"ĠWe":3763,"Ġgoes":3764,"Ġretire":3765,"Ġopposition":3766,"Ġgovern":3767,"outs":3768,"Ġdi":3769,"Ġclaims":3770,"jected":3771,"Ġterms":3772,"Ġbelieves":3773,"rig":3774,"Ġgone":3775,"ĠMatt":3776,"ĠOct":3777,"Ġcannot":3778,"ounded":3779,"Ġmajority":3780,"Ġstrike":3781,"etroit":3782,"utions":3783,"ĠDon":3784,"ari":3785,"ĠFore":3786,"Ġspending":3787,"illeg":3788,"Ġaim":3789,"Ġpiec":3790,"reng":3791,"Ġremember":3792,"Ġrequired":3793,"Also":3794,"Un":3795,"Ġfiled":3796,"Ġsale":3797,"Ġwond":3798,"Ġmis":3799,"irth":3800,"Ġrules":3801,"Ġcal":3802,"Ġath":3803,"Ġleaving":3804,"Ġactually":3805,"Ġinjured":3806,"Ġsoldiers":3807,"ĠSuper":3808,"John":3809,"IA":3810,"tt":3811,"Ġpositive":3812,"Ġprotect":3813,"Ġcomputer":3814,"Ġeasy":3815,"Ġmix":3816,"Ġgre":3817,"ĠPakistan":3818,"ivision":3819,"Ġequipment":3820,"squo":3821,"Mean":3822,"Ġbeg":3823,"etball":3824,"ĠIll":3825,"Ġroll":3826,"encies":3827,"ĠRobert":3828,"Ġconditions":3829,"Ġpoor":3830,"ĠMac":3831,"ĠGar":3832,"Ġunit":3833,"ĠSecurity":3834,"Ġill":3835,"oug":3836,"ĠApp":3837,"Ġvice":3838,"Ġdrugs":3839,"ĠSeptember":3840,"Ġregul":3841,"ĠMartin":3842,"Ġsocial":3843,"Ġrob":3844,"Ġquite":3845,"Ġjoined":3846,"Ġdropped":3847,"Ġcat":3848,"Ġproposal":3849,"ĠCongress":3850,"een":3851,"Ġcreat":3852,"ĠSal":3853,"Ġsurvey":3854,"Off":3855,"Ġvarious":3856,"Meanwhile":3857,"na":3858,"Ġpan":3859,"ĠPeter":3860,"ĠJeff":3861,"burg":3862,"atural":3863,"IT":3864,"Ġplaced":3865,"Ġearnings":3866,"ĠFrance":3867,"mercial":3868,"fect":3869,"Ġilleg":3870,"Ġpict":3871,"Ġminor":3872,"Ġincreasing":3873,"Ġcondition":3874,"ĠRichard":3875,"Ġdate":3876,"ĠWall":3877,"ux":3878,"Ġhundred":3879,"Ġglobal":3880,"Ġonline":3881,"These":3882,"unk":3883,"ĠGre":3884,"Ġgets":3885,"Ġadding":3886,"Ġorganization":3887,"Ġelse":3888,"Our":3889,"arden":3890,"Ġdoor":3891,"arent":3892,"Ġbatt":3893,"osh":3894,"Ġemb":3895,"ĠOpen":3896,"EN":3897,"set":3898,"Ġvac":3899,"Ġinsurance":3900,"Ġlearn":3901,"Ġarrived":3902,"Cl":3903,"US":3904,"ma":3905,"ober":3906,"Ġorganiz":3907,"Ġrelationship":3908,"Ġaw":3909,"rsquo":3910,"ĠCons":3911,"Ġstreng":3912,"Ġran":3913,"Ġtrain":3914,"Ġaccident":3915,"Ġattention":3916,"Ġinvestors":3917,"ĠCentral":3918,"Ġchallenge":3919,"rec":3920,"Ġnorm":3921,"ĠSpr":3922,"ĠHospital":3923,"Ġtrading":3924,"039":3925,"ica":3926,"Ġreform":3927,"ounts":3928,"Ġprem":3929,"Ġserve":3930,"Ġdetails":3931,"Ne":3932,"Ġeighth":3933,"Ġabove":3934,"Ġletter":3935,"Ġcreated":3936,"Ġbenefits":3937,"Ġshooting":3938,"Ġbottom":3939,"Br":3940,"Sp":3941,"kins":3942,"ĠFin":3943,"Ġplayoff":3944,"ha":3945,"stit":3946,"Ġclaimed":3947,"inth":3948,"ading":3949,"ĠCom":3950,"380":3951,"ili":3952,"Ġrise":3953,"itten":3954,"Ġthousands":3955,"night":3956,"Ġwitness":3957,"Ġamb":3958,"light":3959,"ĠMe":3960,"Ġeffect":3961,"Ġ70":3962,"ero":3963,"Ġindep":3964,"Ġevening":3965,"ĠPrime":3966,"makers":3967,"ĠRoy":3968,"ĠFrank":3969,"Ġconcerned":3970,"Ġwel":3971,"Ġbond":3972,"ĠAlex":3973,"ĠJud":3974,"Ġestimated":3975,"Ġcompleted":3976,"Ġboys":3977,"Ġsu":3978,"Ġ35":3979,"ĠChris":3980,"Ġviolence":3981,"Ġteachers":3982,"Don":3983,"Just":3984,"eder":3985,"ani":3986,"ĠSam":3987,"ĠChief":3988,"Ġ80":3989,"ano":3990,"Ġpush":3991,"isco":3992,"heriff":3993,"Ġoperating":3994,"Ġmissing":3995,"ructure":3996,"Is":3997,"duce":3998,"haps":3999,"Ġways":4000,"alty":4001,"Ġnuclear":4002,"Ġchoice":4003,"Ġunc":4004,"Ġelections":4005,"Ġtough":4006,"rial":4007,"ordin":4008,"Ġregard":4009,"Ġsuccessful":4010,"Ġmach":4011,"Ind":4012,"ĠCamp":4013,"etimes":4014,"estin":4015,"oking":4016,"ĠThomas":4017,"ĠAfrica":4018,"Ġhuge":4019,"Ġboost":4020,"Ġallowing":4021,"ĠIslam":4022,"Do":4023,"ĠÃĥ":4024,"Ġdig":4025,"Ġdanger":4026,"Ġnewspaper":4027,"CO":4028,"TON":4029,"ĠJust":4030,"ĠGermany":4031,"igned":4032,"480":4033,"Ġ500":4034,"Ġvoters":4035,"iant":4036,"Ġton":4037,"isher":4038,"Ġfacility":4039,"Ġstarts":4040,"unications":4041,"ĠPac":4042,"ĠPope":4043,"ĠEm":4044,"Ġcapt":4045,"Ġdamage":4046,"house":4047,"onse":4048,"Ġsense":4049,"Ġhor":4050,"ĠPol":4051,"ification":4052,"Ġwalked":4053,"Ġdesigned":4054,"Ġband":4055,"acts":4056,"velopment":4057,"ĠCommunity":4058,"Ġtwice":4059,"Ġquickly":4060,"Two":4061,"owers":4062,"ique":4063,"Ġgolf":4064,"irgin":4065,"Ġtrust":4066,"Ġpartners":4067,"Ġprotest":4068,"Ġcaused":4069,"game":4070,"term":4071,"680":4072,"espite":4073,"Ġfix":4074,"Ġpur":4075,"ĠNove":4076,"ĠGrand":4077,"Mc":4078,"ĠBag":4079,"Ġregional":4080,"ĠArmy":4081,"ĠLouis":4082,"acter":4083,"ushed":4084,"estic":4085,"From":4086,"Ġsources":4087,"ĠBoston":4088,"Ġspend":4089,"Ġoffering":4090,"Ġtransport":4091,"Ġsuffered":4092,"Ġvictims":4093,"Ġradio":4094,"Ġcitiz":4095,"ental":4096,"urb":4097,"ĠMass":4098,"uses":4099,"780":4100,"ĠBlack":4101,"ground":4102,"mber":4103,"Ġissued":4104,"Ġcop":4105,"ĠCap":4106,"ĠPress":4107,"Ġconsult":4108,"Ġhappen":4109,"Ġautom":4110,"Ġdisease":4111,"IL":4112,"Ġbird":4113,"lymp":4114,"ĠFort":4115,"nder":4116,"ĠBen":4117,"estival":4118,"ĠOffice":4119,"ĠDecember":4120,"Ġbab":4121,"Ġbattle":4122,"ĠSa":4123,"urk":4124,"Ġoffers":4125,"Ġability":4126,"Ġguard":4127,"Ġdrink":4128,"Ġtroops":4129,"oud":4130,"using":4131,"Ġ197":4132,"Ġseat":4133,"Ġregister":4134,"Ġkilling":4135,"ĠSteve":4136,"Ġvo":4137,"Ġscoring":4138,"ĠAtl":4139,"Ġfine":4140,"ĠOh":4141,"ancy":4142,"Ġmarkets":4143,"ĠDetroit":4144,"Ġcentral":4145,"Ġmotor":4146,"Ġlosing":4147,"Ġyouth":4148,"Ġrelig":4149,"ĠQue":4150,"Ġparts":4151,"Ġmissed":4152,"iminal":4153,"Ġexam":4154,"reme":4155,"well":4156,"rief":4157,"ĠTim":4158,"Ġapproach":4159,"Ġlevels":4160,"Ġcaught":4161,"Ġbirth":4162,"Ġpull":4163,"Ġitself":4164,"Ġmovie":4165,"Ġbenefit":4166,"Ġvehicles":4167,"CH":4168,"Ġdom":4169,"Ġweather":4170,"Ġoccur":4171,"Despite":4172,"onstr":4173,"ĠLee":4174,"Ġunion":4175,"Ġfinally":4176,"Ġcrime":4177,"Ġhelping":4178,"Ġeffective":4179,"Ġinjuries":4180,"bour":4181,"ny":4182,"Ġdrop":4183,"Ġtaxes":4184,"Ġobs":4185,"hol":4186,"iqu":4187,"Ġbed":4188,"ĠBer":4189,"rif":4190,"ĠRod":4191,"ĠGod":4192,"Ġdeclined":4193,"ĠEnglish":4194,"ashed":4195,"Ġtom":4196,"angu":4197,"Pl":4198,"Ġprim":4199,"ĠJapanese":4200,"Bec":4201,"Ġbul":4202,"Ġprogress":4203,"Ġdivision":4204,"Ġmessage":4205,"ĠNovember":4206,"ĠTig":4207,"Ġnoted":4208,"Ġenter":4209,"ĠCanad":4210,"iced":4211,"iles":4212,"Ġwouldn":4213,"Ġannoun":4214,"Ġbroke":4215,"Ġassistant":4216,"mond":4217,"nel":4218,"Ġesc":4219,"Ġwild":4220,"ĠAvenue":4221,"Ġknows":4222,"ĠClass":4223,"Ġsystems":4224,"rote":4225,"ĠCard":4226,"Ġweap":4227,"useum":4228,"inson":4229,"Ġlaunch":4230,"Ġ45":4231,"ĠDen":4232,"ĠNe":4233,"Ġjunior":4234,"ĠChar":4235,"Ġchanged":4236,"Ġdetermin":4237,"point":4238,"Ġstreet":4239,"ĠHaw":4240,"ĠLaw":4241,"Ġcontest":4242,"NEW":4243,"ĠOlymp":4244,"Ġfigures":4245,"Ġdecl":4246,"Ġseeking":4247,"Ġkid":4248,"annel":4249,"Ġlearned":4250,"Ġensure":4251,"Ġpair":4252,"ĠPer":4253,"ĠConference":4254,"Of":4255,"Ġsong":4256,"ailed":4257,"Ġprinc":4258,"En":4259,"Ġful":4260,"ĠTor":4261,"ĠGold":4262,"ĠService":4263,"300":4264,"uct":4265,"Ġsource":4266,"iser":4267,"Ġcommercial":4268,"Ġexcept":4269,"ĠCarolina":4270,"awn":4271,"arily":4272,"ĠAc":4273,"antage":4274,"Ġbasketball":4275,"lands":4276,"ennis":4277,"ĠAtt":4278,"Ġwat":4279,"Ġdrove":4280,"ĠMad":4281,"Ġexecut":4282,"990":4283,"Ġadmitted":4284,"ĠPet":4285,"ĠOn":4286,"Ġdemonstr":4287,"iled":4288,"Ġcollect":4289,"Ġspecific":4290,"Ġholding":4291,"AL":4292,"ote":4293,"Ġhistor":4294,"enty":4295,"ghan":4296,"soft":4297,"Ġsimply":4298,"evin":4299,"ĠChristian":4300,"Ġceremony":4301,"Or":4302,"Ġtied":4303,"ĠInter":4304,"Ġbases":4305,"Ġexperi":4306,"Ġwrote":4307,"Ġbal":4308,"ĠMount":4309,"ĠVirgin":4310,"Ġfaces":4311,"Ġdaily":4312,"ĠMel":4313,"usiness":4314,"ocal":4315,"Ġdisplay":4316,"ĠScot":4317,"Ġpopulation":4318,"Ġathlet":4319,"ze":4320,"Ġpet":4321,"Ġheavy":4322,"Ġadj":4323,"Ġattended":4324,"Ġdenied":4325,"Ġconfirmed":4326,"CC":4327,"EO":4328,"ID":4329,"Ġcas":4330,"Ġdin":4331,"ader":4332,"imum":4333,"ĠUK":4334,"Ġrecords":4335,"ĠServices":4336,"ĠMemorial":4337,"Ġninth":4338,"ĠWay":4339,"980":4340,"Ġpaper":4341,"ayer":4342,"ols":4343,"ĠDivision":4344,"Ġrepe":4345,"Ġprovides":4346,"Ġvoted":4347,"Ġindividual":4348,"Offic":4349,"ĠAriz":4350,"Ġrain":4351,"isted":4352,"Ġresponse":4353,"ĠBlair":4354,"ĠCatholic":4355,"Ex":4356,"ena":4357,"oma":4358,"Ġitems":4359,"action":4360,"Ġgreen":4361,"Ġusually":4362,"Sc":4363,"Ġpul":4364,"ĠHome":4365,"under":4366,"Ġhighest":4367,"Ġprofessional":4368,"ĠMiller":4369,"Ġcrew":4370,"itation":4371,"Ġteen":4372,"Ġoperation":4373,"Ġut":4374,"ĠCarl":4375,"Ġstrik":4376,"Ġdebt":4377,"Ġemergency":4378,"ibrary":4379,"Ġborder":4380,"aves":4381,"Ġelected":4382,"Ġlegislation":4383,"Ġpo":4384,"astic":4385,"Ġenfor":4386,"Ġcentre":4387,"Ġconstitution":4388,"Then":4389,"Ġdism":4390,"ucky":4391,"ĠMichigan":4392,"Ġiniti":4393,"Ġ90":4394,"Ġbi":4395,"ĠLos":4396,"Ġsil":4397,"Ġself":4398,"Ġinflu":4399,"ĠOhio":4400,"ken":4401,"ters":4402,"ouston":4403,"Ġmeth":4404,"ĠCal":4405,"ĠMot":4406,"isters":4407,"Ġ1999":4408,"ding":4409,"season":4410,"ĠOak":4411,"Ġarch":4412,"ĠAmericans":4413,"Ġstores":4414,"Its":4415,"Ġpun":4416,"ildren":4417,"Ġremained":4418,"ĠJoe":4419,"Ġhousing":4420,"ĠOctober":4421,"oe":4422,"sen":4423,"Ġalone":4424,"ĠNet":4425,"Ġassault":4426,"Ġreporters":4427,"ĠBeach":4428,"ĠParty":4429,"arr":4430,"Ġlab":4431,"state":4432,"Ġadop":4433,"ansas":4434,"Ġusers":4435,"Ġcorner":4436,"Ġcounter":4437,"Ġparticularly":4438,"Fr":4439,"Ġadvert":4440,"Ġseconds":4441,"Ġgold":4442,"ĠWestern":4443,"Ġcatch":4444,"ĠPalestin":4445,"Ġfloor":4446,"UR":4447,"Ġtie":4448,"imately":4449,"andon":4450,"Ġjury":4451,"Ġtrue":4452,"reek":4453,"Ġactive":4454,"ĠLeg":4455,"gery":4456,"Ġdrivers":4457,"Ġdescribed":4458,"mates":4459,"uild":4460,"yers":4461,"ĠBel":4462,"ĠGame":4463,"Ġlocated":4464,"Ġspokeswoman":4465,"tr":4466,"Ġtouch":4467,"igning":4468,"ĠCharl":4469,"Ġvotes":4470,"Ġbought":4471,"Ġdomin":4472,"Ġnatural":4473,"Ġminute":4474,"Ġtalking":4475,"Ġlaunched":4476,"ĠAngeles":4477,"Ġscreen":4478,"Ġguys":4479,"Ġpresented":4480,"ĠRepublican":4481,"stitute":4482,"Since":4483,"Ġaid":4484,"ĠBur":4485,"ĠBang":4486,"ĠFl":4487,"ĠStep":4488,"Ġperfect":4489,"iction":4490,"Ġparties":4491,"Ġlooks":4492,"Ġstopped":4493,"Ġpublished":4494,"Ġmist":4495,"ĠAct":4496,"Ġdoz":4497,"Ġsupply":4498,"Ġshots":4499,"Ġsuggested":4500,"Ġnecessary":4501,"People":4502,"imate":4503,"Ġcertainly":4504,"oes":4505,"ĠBig":4506,"ĠUN":4507,"Ġinterested":4508,"aith":4509,"iation":4510,"Ġborn":4511,"Ġavoid":4512,"ĠBritain":4513,"Americ":4514,"Ġbrief":4515,"agement":4516,"Ġcriminal":4517,"Ġdelay":4518,"Ġlose":4519,"Ġdeveloped":4520,"ĠAfrican":4521,"Ġillegal":4522,"gen":4523,"asts":4524,"rosoft":4525,"Ġsport":4526,"Ġclin":4527,"Ġdowntown":4528,"Ġtransfer":4529,"Ġanalysts":4530,"aut":4531,"yr":4532,"Ġten":4533,"onents":4534,"astern":4535,"Ġjoint":4536,"Ġconfidence":4537,"Ġseemed":4538,"van":4539,"Ġcam":4540,"Ġmount":4541,"iders":4542,"ĠIr":4543,"Ġconserv":4544,"Ġretired":4545,"Ġoriginal":4546,"Ġrecommend":4547,"hdad":4548,"Ġcorporate":4549,"hi":4550,"Ġspeak":4551,"Ġselling":4552,"Ġhotel":4553,"400":4554,"hester":4555,"Ġwide":4556,"ĠSim":4557,"Ġwilling":4558,"enses":4559,"lementary":4560,"bur":4561,"ini":4562,"omen":4563,"ĠBow":4564,"Ġreserv":4565,"Ġteach":4566,"Ġcommit":4567,"Ġpitched":4568,"Ġalleg":4569,"Ġpreviously":4570,"lers":4571,"oted":4572,"Ġsle":4573,"ĠCle":4574,"Ġscient":4575,"Ġwritten":4576,"ĠChampionship":4577,"Ġsize":4578,"Ġwest":4579,"place":4580,"Ġrestr":4581,"ette":4582,"ĠDirect":4583,"ĠJr":4584,"Ġspread":4585,"Ġrefused":4586,"Because":4587,"ĠStadium":4588,"Ġwaiting":4589,"Ġfigure":4590,"Ġmill":4591,"ĠIran":4592,"Ġdefin":4593,"Ġhonor":4594,"ĠAsia":4595,"800":4596,"Ġcontinues":4597,"Ġadvantage":4598,"Ġleadership":4599,"Ġpicked":4600,"ĠSecretary":4601,"Ġdegree":4602,"ĠMexico":4603,"ĠBaghdad":4604,"no":4605,"Ġsym":4606,"ĠAg":4607,"Ġwithd":4608,"Ġ400":4609,"Ġactivity":4610,"Ġwait":4611,"MA":4612,"Ġver":4613,"rect":4614,"Ġrule":4615,"ĠField":4616,"umn":4617,"Ġsuppl":4618,"de":4619,"athe":4620,"ĠJew":4621,"Ġimplement":4622,"Ġfacilities":4623,"uro":4624,"Ġsend":4625,"Ġlog":4626,"ĠLiber":4627,"ables":4628,"Ġcomplex":4629,"Ġwords":4630,"Ġsolid":4631,"embly":4632,"SU":4633,"Ġang":4634,"Ġrecru":4635,"Ġguy":4636,"Ġcolle":4637,"Any":4638,"About":4639,"Ġcities":4640,"stead":4641,"Ġplays":4642,"iscal":4643,"EL":4644,"za":4645,"Ġparliament":4646,"ously":4647,"Ġmeasure":4648,"Ġinn":4649,"Ġrap":4650,"Ġhasn":4651,"Ġcrash":4652,"Ġconvicted":4653,"Ġresponsible":4654,"Reuters":4655,"Ġopin":4656,"hens":4657,"Ġoption":4658,"Ġpenalty":4659,"ĠArizona":4660,"Ġcalling":4661,"ledge":4662,"Ġmeetings":4663,"Ġdomestic":4664,"sy":4665,"asion":4666,"acity":4667,"ĠNor":4668,"ĠArab":4669,"ĠDevelopment":4670,"Ġparking":4671,"Ġgovernor":4672,"\",":4673,"Dr":4674,"Ġfired":4675,"Ġbag":4676,"Ġpounds":4677,"arters":4678,"Ġweak":4679,"Ġmeant":4680,"Ġtal":4681,"Ġinsurg":4682,"ĠAnn":4683,"Ġputting":4684,"ĠDemocrats":4685,"ĠKorea":4686,"ĠCub":4687,"ĠMur":4688,"Ġapparent":4689,"ĠVirginia":4690,"SA":4691,"Ġones":4692,"ĠCEO":4693,"ĠTony":4694,"Ġflag":4695,"going":4696,"Ġchalleng":4697,"Ġbur":4698,"arry":4699,"Ġlay":4700,"ĠTour":4701,"ĠLabour":4702,"ĠStock":4703,"Ġ33":4704,"ropri":4705,"ĠMalays":4706,"ĠMuslim":4707,"Ġtraditional":4708,"Bl":4709,"ench":4710,"edom":4711,"icide":4712,"Ġlived":4713,"ĠKh":4714,"Ġexpects":4715,"Ġblue":4716,"Ġsurgery":4717,"Ġolder":4718,"Ġelimin":4719,"ĠAfghan":4720,"Ġruling":4721,"Ġsides":4722,"idel":4723,"Ġnames":4724,"ĠSox":4725,"ula":4726,"ĠLt":4727,"Ġseed":4728,"Ġscr":4729,"Ġentered":4730,"ĠCanadian":4731,"Over":4732,"usion":4733,"Ġunl":4734,"arp":4735,"Ġmission":4736,"ĠMer":4737,"ĠEduc":4738,"Ġspl":4739,"Ġagencies":4740,"Ġsecretary":4741,"aza":4742,"Ġsites":4743,"ĠRussia":4744,"rang":4745,"aron":4746,"icient":4747,"Ġaren":4748,"ellig":4749,"Ġrow":4750,"Ġsquad":4751,"Ġestablish":4752,"apers":4753,"Ġbelow":4754,"Ġreasons":4755,"Ġordered":4756,"Ġ`":4757,"ĠNBA":4758,"ipl":4759,"Ġindependent":4760,"IC":4761,"know":4762,"Ġairl":4763,"Ġpurs":4764,"Ġpartner":4765,"Ġcommitted":4766,"Those":4767,"Ġmayor":4768,"Ġsubst":4769,"Ġapplications":4770,"Ġanswer":4771,"wan":4772,"Ġmention":4773,"Ġwhom":4774,"enders":4775,"Ġabuse":4776,"Ġword":4777,"Ġarm":4778,"Ġpitcher":4779,"Ġstreets":4780,"Ġdocument":4781,"bre":4782,"road":4783,"eck":4784,"Ġjournal":4785,"Ġunits":4786,"ĠClark":4787,"Ġeventually":4788,"ĠDavis":4789,"Ġgain":4790,"Ġgives":4791,"ĠPublic":4792,"Ġcomments":4793,"Ġmedic":4794,"Ġposted":4795,"Ġhundreds":4796,"Ġcitizens":4797,"ront":4798,"anes":4799,"Ġgar":4800,"ĠHouston":4801,"ĠFire":4802,"Ġproviding":4803,"ĠAnton":4804,"Ġrestaurant":4805,"gia":4806,"inally":4807,"Ġbow":4808,"Ġpil":4809,"Ġhitting":4810,"Ġstret":4811,"ĠFirst":4812,"Ġsurround":4813,"ĠTrans":4814,"Ġprepared":4815,"Ġimproved":4816,"Ġneighborhood":4817,"kn":4818,"Ġfat":4819,"elling":4820,"Ġdemocr":4821,"Ġskills":4822,"Ġdollar":4823,"Ġallegedly":4824,"agon":4825,"ĠFord":4826,"Ġprime":4827,"Ġdecades":4828,"Ġsometimes":4829,"Ġversion":4830,"Ġtrouble":4831,"Ġwonder":4832,"Ġgreater":4833,"Sen":4834,"hand":4835,"Ġwid":4836,"Ġonto":4837,"Ġ300":4838,"ĠYank":4839,"Ġconfident":4840,"Ġhomer":4841,"Ġmodel":4842,"Ġfighting":4843,"Ġtomorrow":4844,"erg":4845,"ĠBrian":4846,"izing":4847,"Ġfees":4848,"Ġidentified":4849,"Ġfeatures":4850,"TH":4851,"aylor":4852,"ĠExchange":4853,"yond":4854,"Ġfle":4855,"Ġdire":4856,"elly":4857,"Ġaltern":4858,"Ġresources":4859,"Ġuniversity":4860,"Ġwarned":4861,"ĠIsland":4862,"Ġexperts":4863,"Ġvisitors":4864,"ĠHoward":4865,"Ġsound":4866,"Ġmobile":4867,"Ġded":4868,"Ġnomin":4869,"ĠHen":4870,"Ġdecide":4871,"ati":4872,"Ġnice":4873,"Ġcarried":4874,"Ġlawyer":4875,"Ġpulled":4876,"Ġrelief":4877,"Ġseeing":4878,"Ġrespect":4879,"coming":4880,"Ġconsumers":4881,"600":4882,"FL":4883,"FP":4884,"Ġsuit":4885,"Ġlines":4886,"Ġlabor":4887,"rovers":4888,"Ġbeyond":4889,"ĠMag":4890,"122":4891,"Ġtable":4892,"Ġfiscal":4893,"Ġacadem":4894,"Ġacknow":4895,"Ġslight":4896,"?\"":4897,"Ġowned":4898,"Ġcampus":4899,"inois":4900,"Ġdefeat":4901,"211":4902,"Res":4903,"ien":4904,"Ġcast":4905,"Ġgrew":4906,"ĠDun":4907,"Ġvillage":4908,"Ġplaces":4909,"ustr":4910,"Ġtext":4911,"Only":4912,"ĠAttorney":4913,"egr":4914,"hour":4915,"Ãħ":4916,"isation":4917,"elson":4918,"ibly":4919,"Ġgraduate":4920,"erly":4921,"ĠCam":4922,"ĠMa":4923,"eban":4924,"phone":4925,"iami":4926,"Ġbooks":4927,"Ġurged":4928,"heast":4929,"ilton":4930,"Ġstorm":4931,"Ġexerc":4932,"ĠKim":4933,"icks":4934,"Ġcapacity":4935,"Ġbasis":4936,"ORK":4937,"gs":4938,"ĠPe":4939,"ĠPrem":4940,"Ġexact":4941,"Ġtrail":4942,"Ġsigns":4943,"Ġapproval":4944,"Ġstandard":4945,"Ġcloser":4946,"Ġcandidates":4947,"month":4948,"Ġimmigr":4949,"Ġir":4950,"Ġreduce":4951,"ĠMiddle":4952,"Ġproceed":4953,"Ġweight":4954,"Ġsafe":4955,"Ġachieve":4956,"Ġbod":4957,"ala":4958,"ersey":4959,"Ġnote":4960,"Ġ32":4961,"Ġbecoming":4962,"vention":4963,"Ġlimited":4964,"Ġdoctors":4965,"Ġmatches":4966,"ca":4967,"Ġsac":4968,"Ġsun":4969,"orado":4970,"Ġseats":4971,"rav":4972,"Ġcontrovers":4973,"Ġdeterm":4974,"Ġasking":4975,"Ġoptions":4976,"Among":4977,"mar":4978,"uties":4979,"osen":4980,"Ġintegr":4981,"Ġnearby":4982,"Once":4983,"Ġpurchase":4984,"Ph":4985,"Ġhurt":4986,"icts":4987,"ĠWal":4988,"Ġremaining":4989,"Ġdefic":4990,"Ġsimple":4991,"ronic":4992,"Ġbaby":4993,"Mart":4994,"Ġfear":4995,"illa":4996,"ĠStar":4997,"ĠBrad":4998,"ribution":4999,"Ġmanaged":5000,"Ġmarketing":5001,"Ġcuts":5002,"anguage":5003,"ka":5004,"Ġtight":5005,"iling":5006,"utch":5007,"ĠMP":5008,"ategy":5009,"Ġconsecutive":5010,"Ġ75":5011,"Ġtack":5012,"ĠCont":5013,"iment":5014,"rie":5015,"Ġupon":5016,"ĠOne":5017,"INGTON":5018,"NA":5019,"Tr":5020,"Ġagree":5021,"Ġperm":5022,"Ġdifference":5023,"ĠColumb":5024,"Ġmarri":5025,"Ġruled":5026,"Ġeye":5027,"icians":5028,"omes":5029,"ĠSocial":5030,"ola":5031,"Ġcooper":5032,"icip":5033,"illed":5034,"ĠVan":5035,"ression":5036,"Ġafford":5037,"Ġtype":5038,"holders":5039,"ita":5040,"arian":5041,"Ġhar":5042,"raud":5043,"ansion":5044,"Instead":5045,"Ġcommunities":5046,"Ġsupporters":5047,"Ġspoke":5048,"Ġopportunities":5049,"iors":5050,"Ġer":5051,"Ġdistr":5052,"ĠDar":5053,"ores":5054,"Ġcomfort":5055,"Ġexhib":5056,"iana":5057,"standing":5058,"Ġsexual":5059,"ĠForce":5060,"Ġcharacter":5061,"eld":5062,"ĠLu":5063,"Ġplate":5064,"uals":5065,"quarter":5066,"sey":5067,"Ġdepart":5068,"ĠAndrew":5069,"Ġtickets":5070,"cel":5071,"fit":5072,"illing":5073,"ĠRay":5074,"ĠYORK":5075,"Ġrelated":5076,"Ġbarrel":5077,"ĠEducation":5078,"Ġwall":5079,"Ġcool":5080,"ils":5081,"ador":5082,"Ġstories":5083,"rive":5084,"ĠRam":5085,"Ġseasons":5086,"Ġdeputy":5087,"ĠZeal":5088,"Ġcritical":5089,"Ġveteran":5090,"Ġwood":5091,"ayers":5092,"ĠPenn":5093,"Ġ36":5094,"Ġsubject":5095,"rist":5096,"roud":5097,"Ġcris":5098,"ĠMedical":5099,"ĠDemocratic":5100,"Ġreligious":5101,"pm":5102,"itors":5103,"Ġep":5104,"amber":5105,"abb":5106,"ĠMayor":5107,"Ġfavorite":5108,"Ġexisting":5109,"Con":5110,"Dav":5111,"Ġsens":5112,"Ġsister":5113,"Ġsouthern":5114,"rip":5115,"Ġspir":5116,"Ġnormal":5117,"Ġtalent":5118,"Gr":5119,"rey":5120,"Ġrare":5121,"ĠRyan":5122,"Ġshown":5123,"Ġassess":5124,"Ġplants":5125,"âĢľ":5126,"Ġfacing":5127,"Ġwalking":5128,"EC":5129,"ES":5130,"den":5131,"Ġhur":5132,"ĠSouthern":5133,"Ġrally":5134,"iple":5135,"Ġexpressed":5136,"Ġscience":5137,"Le":5138,"Ġbatter":5139,"Ġnative":5140,"Ġele":5141,"aming":5142,"Ġprosp":5143,"Ġouts":5144,"Ġ1997":5145,"Ġpaying":5146,"Ġclasses":5147,"CAA":5148,"Ġintroduced":5149,"ĠZealand":5150,"long":5151,"asc":5152,"ĠSystem":5153,"abled":5154,"Ġ1998":5155,"Ġstandards":5156,"Ġsuspect":5157,"Ġfellow":5158,"Ġmeasures":5159,"Ġphotograp":5160,"OL":5161,"Ġeth":5162,"ĠEll":5163,"Ġmostly":5164,"Ġvari":5165,"Ġmagaz":5166,"Ġphysical":5167,"ĠCharles":5168,"Ġdetermine":5169,".'":5170,"ĠBol":5171,"oses":5172,"ordan":5173,"Ġcontent":5174,"Ġproduced":5175,"Ġexplained":5176,"Ġfuneral":5177,"Ġinitial":5178,"Ġstreak":5179,"Ġtonight":5180,"abin":5181,"Ġlocation":5182,"Ġsmaller":5183,"Rep":5184,"more":5185,"put":5186,"Ġblo":5187,"Ġshop":5188,"ĠKent":5189,"ĠDef":5190,"Ġartic":5191,"TV":5192,"gers":5193,"Ġpace":5194,"ĠSociety":5195,"oles":5196,"ami":5197,"ĠLat":5198,"ĠKn":5199,"Ġunf":5200,"duction":5201,"Ġheaded":5202,"Ġfavour":5203,"Ġlimit":5204,"Ġaudience":5205,"rit":5206,"Ġult":5207,"ĠTimes":5208,"cohol":5209,"empor":5210,"Ġallegations":5211,"Se":5212,"Ġbench":5213,"Ġthrew":5214,"ĠRog":5215,"agn":5216,"resp":5217,"151":5218,"ĠInstitute":5219,"Ġwins":5220,"Ġstrategy":5221,"Ġshowing":5222,"Ġdeveloping":5223,"Ġsubs":5224,"Ġsingles":5225,"Ġsentence":5226,"Ġdebate":5227,"rolled":5228,"Ġobserv":5229,"ns":5230,"nam":5231,"oen":5232,"elled":5233,"ĠBlue":5234,"Ġspeech":5235,"Ġhoping":5236,"Before":5237,"Ġseparate":5238,"ĠDirector":5239,"Ġbat":5240,"merce":5241,"Ġthinking":5242,"ength":5243,"ASH":5244,"pool":5245,"Ġride":5246,"Ġasp":5247,"ewhere":5248,"Ġlarger":5249,"Ġreading":5250,"Ġwire":5251,"olars":5252,"amily":5253,"ria":5254,"ĠDoug":5255,"ĠHum":5256,"ĠKevin":5257,"Ġfeature":5258,"Ġordin":5259,"Ġdoctor":5260,"ait":5261,"Ġfem":5262,"Ġserving":5263,"Ġbrand":5264,"Ġlawmakers":5265,"Ġfeeling":5266,"Ġcustomer":5267,"Ġappears":5268,"Ġcombined":5269,"ĠFrancisco":5270,"Ġretirement":5271,"ĠIllinois":5272,"Will":5273,"ein":5274,"ĠBell":5275,"ĠFound":5276,"Ġfinding":5277,"Ġvoice":5278,"war":5279,"Ġtim":5280,"Ġfan":5281,"Ġfaith":5282,"istics":5283,"Ġresear":5284,"ĠOl":5285,"Ġindex":5286,"Ġextrem":5287,"Ġtrend":5288,"Ġrevealed":5289,"ias":5290,"Ġcateg":5291,"Ġtowards":5292,"occer":5293,"Ġperhaps":5294,"Ġkeeping":5295,"Ġairport":5296,"burgh":5297,"212":5298,"LA":5299,"Ġmaster":5300,"ĠLew":5301,"ordon":5302,"Ġappl":5303,"ÅĵI":5304,".-":5305,"arant":5306,"Ġhaven":5307,"rier":5308,"ĠTechn":5309,"abil":5310,"ĠStan":5311,"Ġstrateg":5312,"Ġ1990":5313,"Ġstatus":5314,"Ġdocuments":5315,"ĠJoseph":5316,"da":5317,"friend":5318,"enger":5319,"Ġemot":5320,"Ġsquare":5321,"Ġaccepted":5322,"opping":5323,"RO":5324,"Ġyards":5325,"ĠPost":5326,"ĠItalian":5327,"Ġstrength":5328,"700":5329,"Pr":5330,"va":5331,"lying":5332,"ĠWind":5333,"Ġexchange":5334,"ounger":5335,"Ġconsist":5336,"ĠJudge":5337,"Ġdetermined":5338,"PA":5339,"yc":5340,"orage":5341,"itter":5342,"olution":5343,"elph":5344,"anging":5345,"Ġsurf":5346,"Ġobvious":5347,"ĠConn":5348,"Ġ48":5349,"Ġeast":5350,"ĠAh":5351,"ĠNCAA":5352,"Ġworst":5353,"Ġallows":5354,"Ġemployee":5355,"Ġconsidering":5356,"Ġcandidate":5357,"Ġstuff":5358,"ÅĵWe":5359,"Ġoccup":5360,"ĠGeorgia":5361,"Ġresponsibility":5362,"craft":5363,"Ġswe":5364,"ĠBoy":5365,"Ġwatching":5366,"ĠSingh":5367,"Ġcontributed":5368,"Ġtem":5369,"Ġsch":5370,"Ġburn":5371,"ici":5372,"Ġflight":5373,"Ġpositions":5374,"Ġtesting":5375,"Ġlicense":5376,"Ġpiece":5377,"Ġbodies":5378,"pound":5379,"Ġpriz":5380,"sea":5381,"anks":5382,"Ġincreases":5383,"Ġconsumer":5384,"..":5385,"where":5386,"Ġtask":5387,"Ġrival":5388,"anda":5389,"ĠGreg":5390,"oday":5391,"ums":5392,"Ġagent":5393,"ockey":5394,"Ġdefend":5395,"Ġindustrial":5396,"Ġweapons":5397,"ĠAntonio":5398,"ĠSand":5399,"agues":5400,"Ġlearning":5401,"ĠIndiana":5402,"Ġfully":5403,"Ġopinion":5404,"Each":5405,"Ġmarg":5406,"Ġdark":5407,"Ġstarter":5408,"pping":5409,"Ġsche":5410,"Ġcaptain":5411,"rett":5412,"Ġestate":5413,"ĠRussian":5414,"ĠMicrosoft":5415,"GA":5416,"bell":5417,"fl":5418,"Ġsoph":5419,"ĠMiami":5420,"Ġyounger":5421,"ĠTurk":5422,"ĠFederal":5423,"Ġ34":5424,"Ġelectric":5425,"intendent":5426,"Ġwearing":5427,"Ġdirection":5428,"iar":5429,"Ġ44":5430,"inch":5431,"orne":5432,"Ġgall":5433,"ĠBut":5434,"ĠRec":5435,"ups":5436,"Ġselected":5437,"Ġupd":5438,"Ġintellig":5439,"Ġpresence":5440,"Ġadvanced":5441,"Ġenvironmental":5442,"Â©":5443,"Ġproud":5444,"Ġstood":5445,"aint":5446,"Ġvent":5447,"ellow":5448,"Ġaffect":5449,"Ġexplos":5450,"ĠAbd":5451,"Ġcounts":5452,"icial":5453,"Ġreven":5454,"ĠSo":5455,"ĠLind":5456,"ĠUt":5457,"ipping":5458,"Ġschedule":5459,"ĠScotland":5460,"Ġcrisis":5461,"Ġwarm":5462,"Ġreduced":5463,"Ġrat":5464,"Ġracing":5465,"ĠKe":5466,"Ġaccounts":5467,"Ġsetting":5468,"Ġbuildings":5469,"ĠCoast":5470,"Ġdebut":5471,"Ġmaterial":5472,"Ġpanel":5473,"Ġdismiss":5474,"SP":5475,"Ġ43":5476,"oms":5477,"ĠDer":5478,"arks":5479,"Ġdecisions":5480,"Ġrelative":5481,"Ġaffected":5482,"Ġeasily":5483,"fight":5484,"Ġtests":5485,"iny":5486,"iner":5487,"Ġwed":5488,"Ġnurs":5489,"ĠLeban":5490,"955":5491,"Ġprefer":5492,"Ġchem":5493,"Ġprompt":5494,"Ġargu":5495,"Ġacknowled":5496,"ĠWater":5497,"Ġbehav":5498,"Ġprotection":5499,"ĠAsian":5500,"known":5501,"ĠHer":5502,"Ġuns":5503,"Ġrelie":5504,"Ġproduce":5505,"adesh":5506,"Ġpurp":5507,"Ġmarriage":5508,"Ġess":5509,"rea":5510,"Ġfee":5511,"Ġfraud":5512,"Ġmort":5513,"ĠTre":5514,"ĠGall":5515,"Ġship":5516,"Ġwebs":5517,"Ġcrack":5518,"Ġinstall":5519,"Ġstocks":5520,"Ġapplication":5521,"ĠPalestinian":5522,"elphia":5523,"--":5524,"md":5525,"ua":5526,"ache":5527,"ĠMah":5528,"ĠIt":5529,"ĠRon":5530,"ĠEar":5531,"antic":5532,"Ġ38":5533,"ĠArt":5534,"Ġadvance":5535,"Ġtreated":5536,"Ġdoubt":5537,"Ġbegins":5538,"Ġhair":5539,"oked":5540,"Ġfeed":5541,"Ġplane":5542,"Ġdiscovered":5543,"ĠRev":5544,"ĠMinistry":5545,"Ġclosing":5546,"Ġeyes":5547,"ĠTigers":5548,"ĠFoundation":5549,"Ġrejected":5550,"ĠMid":5551,"Ġraces":5552,"ĠWalk":5553,"ĠYoung":5554,"atican":5555,"ĠAnderson":5556,"Ġappearance":5557,"ĠSupreme":5558,"vin":5559,"Ġaware":5560,"Ġproced":5561,"Ġsentenced":5562,"Ġsolution":5563,"ĠResearch":5564,"ĠWilson":5565,"board":5566,"Ġdangerous":5567,"ĠAtlanta":5568,"ez":5569,"olen":5570,"ĠDes":5571,"ĠLong":5572,"ological":5573,"shire":5574,"ĠIsraeli":5575,"Ġvolunteers":5576,"Ġerror":5577,"Ġstriking":5578,"mad":5579,"Ġsection":5580,"rep":5581,"itely":5582,"Their":5583,"ugg":5584,"Ġentertain":5585,"Ġpersonnel":5586,"Ġpatient":5587,"Ġ``":5588,"eas":5589,"Ġsort":5590,"Ġcert":5591,"anish":5592,"Ġdipl":5593,"ĠMos":5594,"ĠTenn":5595,"aped":5596,"Ġcoal":5597,"Ġearn":5598,"ibb":5599,"Ġbills":5600,"Ġdedic":5601,"ked":5602,"Ġgather":5603,"Ġsuperv":5604,"Ġdirectly":5605,"Ġmodern":5606,"Ġapart":5607,"Ġpitching":5608,"bury":5609,"Ġpool":5610,"Ġrough":5611,"ĠDu":5612,"sequ":5613,"ĠStud":5614,"Ġresc":5615,"ĠChap":5616,"ova":5617,"Ġtriple":5618,"Ġstanding":5619,"Ġdisappoint":5620,"Ġsupposed":5621,"Ġrepeated":5622,"Four":5623,"TO":5624,"iate":5625,"ila":5626,"ĠPit":5627,"Ġrising":5628,"icket":5629,"Ġdefence":5630,"Ġhighly":5631,"Ġcompete":5632,"Ġnegotiations":5633,"Ġsacrif":5634,"urer":5635,"quir":5636,"Ġexpansion":5637,"Ġapprec":5638,"Ġsecret":5639,"ishop":5640,"Ġwrite":5641,"ĠColorado":5642,"Ġmarried":5643,"Ġfilled":5644,"Ġestablished":5645,"razil":5646,"ĠAfghanistan":5647,"Ġflood":5648,"ĠEr":5649,"Ġoffices":5650,"964":5651,"nergy":5652,"ĠPlan":5653,"ĠSeries":5654,"ĠJason":5655,"Ġfinance":5656,"Ġfaced":5657,"Ġmaint":5658,"Ġroads":5659,"can":5660,"ko":5661,"Ġalb":5662,"ĠTri":5663,"ifer":5664,"ictor":5665,"Ġprogramme":5666,"Ġobject":5667,"Ġsurprise":5668,"Ġticket":5669,"ĠConserv":5670,"Ġenforcement":5671,"ya":5672,"itude":5673,"ĠBusiness":5674,"ĠDi":5675,"ĠWell":5676,"ĠOs":5677,"Ġdecade":5678,"Ġsuspended":5679,"Ġauthority":5680,"ĠJustice":5681,"Ġsociety":5682,"ĠGood":5683,"ĠVatican":5684,"airman":5685,"Ġbroken":5686,"Ġanimals":5687,"Ġpicture":5688,"Ġannouncement":5689,".)":5690,"ios":5691,"ĠBre":5692,"ĠLions":5693,"ĠGary":5694,"ĠNick":5695,"787":5696,"Ġvoting":5697,"Ġpackage":5698,"ban":5699,"like":5700,"Ġsought":5701,"odd":5702,"Ġscen":5703,"Ġlob":5704,"ĠIslamic":5705,"ĠPacific":5706,"Ġwithdraw":5707,"Ġsubsid":5708,"First":5709,"Sch":5710,"WASH":5711,"lig":5712,"Ġ65":5713,"Ġboss":5714,"ĠCast":5715,"Ġsav":5716,"ĠAsh":5717,"Ġalcohol":5718,"ĠFair":5719,"ĠKansas":5720,"605":5721,"iverpool":5722,"âĢļÂ¬?":5723,"Ġapartment":5724,"Ġpromote":5725,"Ġlawsuit":5726,"ĠSum":5727,"ĠSqu":5728,"ĠJac":5729,"405":5730,"685":5731,"355":5732,"angers":5733,"ashion":5734,"Ġpromised":5735,"aska":5736,"WASHINGTON":5737,"net":5738,"Ġnorthern":5739,"505":5740,"485":5741,"785":5742,"Ġarrang":5743,"969":5744,"Ġpossibility":5745,"Ġchoose":5746,"Ġthreatened":5747,"Ġfrequ":5748,"ĠDaniel":5749,"Ġoccurred":5750,"mdash":5751,"ao":5752,"Ġlanguage":5753,"Ġnations":5754,"amm":5755,"Ġrail":5756,"ĠDie":5757,"755":5758,"apping":5759,"Ġconfl":5760,"Ġfailure":5761,"Ġlosses":5762,"Ġreplace":5763,"ĠSeattle":5764,"Ġmillions":5765,"LO":5766,"part":5767,"Ġhy":5768,"ĠSur":5769,"ĠJordan":5770,"ĠInt":5771,"Ġbuying":5772,"Ġministry":5773,"949":5774,"Ġbanks":5775,"sych":5776,"Ġdeficit":5777,"Cont":5778,"Sec":5779,"life":5780,"ĠSil":5781,"ĠViet":5782,"385":5783,"Ġwriting":5784,"Ġhouses":5785,"oration":5786,"Ġriver":5787,"Ġexpert":5788,"705":5789,"otten":5790,"Ġpolicies":5791,"Ġreplaced":5792,"Ġculture":5793,"athered":5794,"Ġfemale":5795,"AM":5796,"Comp":5797,"Earl":5798,"Mich":5799,"Per":5800,"RE":5801,"bl":5802,"ivery":5803,"oh":5804,"ĠSol":5805,"ĠColl":5806,"ĠTy":5807,"ĠLuc":5808,"305":5809,"655":5810,"Ġcounties":5811,"Ġforecast":5812,"Ġsteps":5813,"Ġdinner":5814,"olarship":5815,"GE":5816,"itals":5817,"ĠTer":5818,"Ġsecure":5819,"455":5820,"Ġcompetitive":5821,"oenix":5822,"chen":5823,"uction":5824,"ishes":5825,"Ġlock":5826,"ads":5827,"Ġassets":5828,"Ġbrain":5829,"Ġconnection":5830,"Like":5831,"entially":5832,"ĠKar":5833,"303":5834,"608":5835,"458":5836,"788":5837,"688":5838,"Ġuses":5839,"956":5840,"Ġstudies":5841,"ĠSports":5842,"Ġcorrect":5843,"ĠBrook":5844,"Ġorganizations":5845,"Officials":5846,",''":5847,"rast":5848,"Ġhole":5849,"owed":5850,"ĠLas":5851,"ĠLyn":5852,"408":5853,"905":5854,"Ġlisted":5855,"Ġclearly":5856,"Ġpath":5857,"adelphia":5858,"ĠSar":5859,"imp":5860,"ĠNorthern":5861,"ĠEag":5862,"308":5863,"758":5864,"676":5865,"grade":5866,"Ġmemory":5867,"azz":5868,"Ġinstit":5869,"udden":5870,"Ġsleep":5871,"Under":5872,"mes":5873,"ses":5874,"Ġwish":5875,"Ġlength":5876,"Ġstolen":5877,"Ġconvers":5878,"ĠGra":5879,"Ġplat":5880,"Ġplenty":5881,"ivity":5882,"Ġperman":5883,"508":5884,"488":5885,"Ġcoast":5886,"Ġknowledge":5887,"ĠRober":5888,"Ġrecorded":5889,"Ġsweep":5890,"ĠPrince":5891,"ĠPhilipp":5892,"Ġappointed":5893,"ĠYankees":5894,"Ġvariety":5895,"met":5896,"mate":5897,"Ġaver":5898,"Ġcold":5899,"ĠGov":5900,"Ġoffense":5901,"ureau":5902,"708":5903,"Ġarriv":5904,"Ġprec":5905,"Ġeditor":5906,"Ġspeaking":5907,"Ġdigital":5908,"900":5909,"uly":5910,"rell":5911,"Ġfile":5912,"usive":5913,"aked":5914,"388":5915,"358":5916,"Ġvisiting":5917,"engers":5918,"Ġpleaded":5919,"Ġresponded":5920,"Ġhorse":5921,"Ġdeclared":5922,"mir":5923,"Ġwounded":5924,"Ġduty":5925,"irk":5926,"ĠRick":5927,"Ġvir":5928,"quarters":5929,"ictions":5930,"783":5931,"957":5932,"Ġremoved":5933,"Ġaircraft":5934,"Ġdestroy":5935,"Ġroute":5936,"cing":5937,"hew":5938,"inning":5939,"omore":5940,"olis":5941,"Ġisland":5942,"ĠFar":5943,"ĠJon":5944,"Ġvia":5945,"101":5946,"658":5947,"633":5948,"Ġreceiving":5949,"Ġvisited":5950,"Ġdistance":5951,"helsea":5952,"Ġparticipate":5953,"American":5954,"Ġstretch":5955,"Ġexactly":5956,"Earlier":5957,"Ġawards":5958,"Ġsust":5959,"Ġhired":5960,"Ġgiant":5961,"ĠTaylor":5962,"ĠHa":5963,"Invest":5964,"653":5965,"356":5966,"Ġboat":5967,"Ġdecline":5968,"ĠIndust":5969,"Ġhoped":5970,"Ġtrees":5971,"Ġregistered":5972,"ropriate":5973,"bro":5974,"mouth":5975,"yo":5976,"struction":5977,"ĠPC":5978,"ĠPist":5979,"enda":5980,"102":5981,"ĠOld":5982,"507":5983,"403":5984,"Ġ37":5985,"703":5986,"453":5987,"789":5988,"683":5989,"383":5990,"111":5991,"954":5992,"958":5993,"Ġcoordin":5994,"formation":5995,"Ġ41":5996,"Ġheads":5997,"Ġrespective":5998,"ĠAdministr":5999,"Ġprosecutors":6000,"ĠStephen":6001,"App":6002,"iest":6003,"Ġstars":6004,"ription":6005,"Ġprove":6006,"483":6007,"Ġ55":6008,"Ġadvice":6009,"Ġinvestigators":6010,"Ġtelephone":6011,"Ġsuicide":6012,"BM":6013,"bas":6014,"Ġsnow":6015,"Ġcards":6016,"ompl":6017,"ĠAuthor":6018,"ĠHot":6019,"antly":6020,"304":6021,"307":6022,"503":6023,"677":6024,"637":6025,"937":6026,"Ġremind":6027,"Ġprovince":6028,"Ġguarant":6029,"Ġextended":6030,"Ġestimates":6031,"Ġbroadcast":6032,"Go":6033,"ĠWild":6034,"aph":6035,"201":6036,"407":6037,"757":6038,"Ġgrab":6039,"Ġbaseman":6040,"ĠHighway":6041,"Ġconclud":6042,"Ġindividuals":6043,"Ġconducted":6044,"Ġfarmers":6045,"Ġdelivered":6046,"Ġmassive":6047,"Ġbalance":6048,"Ġslightly":6049,"AA":6050,"uted":6051,"Ġrural":6052,"ulated":6053,"Ġchances":6054,"Ġworse":6055,"995":6056,"406":6057,"607":6058,"456":6059,"353":6060,"221":6061,"Ġcollection":6062,"Ġ1996":6063,"Ġinvolve":6064,"Ġbringing":6065,"Ġcompletely":6066,"Ġfreedom":6067,"related":6068,"Ġsplit":6069,"Ġthr":6070,"Ġbeating":6071,"Ġheat":6072,"Ġstick":6073,"ĠBul":6074,"iful":6075,"ĠFre":6076,"ĠGM":6077,"ĠEastern":6078,"Ġju":6079,"Ġadults":6080,"506":6081,"ĠVeg":6082,"784":6083,"786":6084,"687":6085,"753":6086,"673":6087,"636":6088,"othing":6089,"ĠIndones":6090,"Ġhealthy":6091,"Ġexpectations":6092,"Ġconcert":6093,"Ġcarrying":6094,"Ġprimary":6095,"Ġmagazine":6096,"Ġrevenues":6097,"comm":6098,"overy":6099,"onz":6100,"isp":6101,"Ġpension":6102,"oln":6103,"ĠIT":6104,"606":6105,"387":6106,"959":6107,"ancing":6108,"634":6109,"933":6110,"936":6111,"Ġ42":6112,"enny":6113,"Ġholds":6114,"ĠAllen":6115,"Ġindicated":6116,"Ġconflict":6117,"Col":6118,"born":6119,"rid":6120,"erous":6121,"Ġstake":6122,"ĠBrazil":6123,"603":6124,"604":6125,"Ġ39":6126,"756":6127,"386":6128,"656":6129,"657":6130,"Ġreturning":6131,"Ġdogs":6132,"El":6133,"Ġstyle":6134,"ĠId":6135,"ighter":6136,"Ġdeleg":6137,"Ġaggress":6138,"Ġclients":6139,"306":6140,"504":6141,"izes":6142,"707":6143,"486":6144,"457":6145,"684":6146,"686":6147,"357":6148,"674":6149,"Ġexercise":6150,"Ġtemper":6151,"ga":6152,"Ġfit":6153,"owell":6154,"ĠTal":6155,"ĠFred":6156,"191":6157,"509":6158,"404":6159,"487":6160,"754":6161,"354":6162,"953":6163,"Ġemph":6164,"exp":6165,"Former":6166,"Ġbigger":6167,"Ġwriter":6168,"Star":6169,"Ġswim":6170,"Ġmovement":6171,"Ġinvolving":6172,"Ġdoubles":6173,"ĠRepublicans":6174,"Ġawarded":6175,"BS":6176,"IP":6177,"ĠCra":6178,"Ġhelic":6179,"ript":6180,"ĠRel":6181,"ĠRoman":6182,"132":6183,"182":6184,"272":6185,"ipe":6186,"609":6187,"706":6188,"454":6189,"Ġleads":6190,"939":6191,"Ġ49":6192,"Ġbridge":6193,"iversary":6194,"Ġrequires":6195,"ĠCentre":6196,"Ġwalks":6197,"fielder":6198,"ĠSteven":6199,"Ġmeaning":6200,"Ġanimal":6201,"ĠItaly":6202,"Ġcontracts":6203,"Ġinfluence":6204,"uilding":6205,"Co":6206,"ĠCreek":6207,"asters":6208,"Ġvan":6209,"162":6210,"uster":6211,"Ġfirms":6212,"309":6213,"Ġenh":6214,"704":6215,"222":6216,"ĠYear":6217,"Ġcrude":6218,"Ġlawyers":6219,"Ġworldwide":6220,"Ġprofits":6221,"Ġdelivery":6222,"Ġcoup":6223,"Ġseriously":6224,"Ġfishing":6225,"Ġpartnership":6226,"rastructure":6227,"gu":6228,"Ġsoccer":6229,"Ġhosp":6230,"Ġliber":6231,"Ġnor":6232,"ĠRs":6233,"252":6234,"161":6235,"291":6236,"202":6237,"Ġagents":6238,"Ġunable":6239,"Ġunless":6240,"459":6241,"639":6242,"Ġbusy":6243,"incoln":6244,"Ġraising":6245,"Ġpowerful":6246,"ompson":6247,"Ġconnect":6248,"ĠAcadem":6249,"Ġapparently":6250,"Ġintelligence":6251,"Ġhelicop":6252,"Ġgathered":6253,"imony":6254,"ĠIm":6255,"ulate":6256,"ĠDrive":6257,"oren":6258,"ĠWork":6259,"ĠGordon":6260,"allas":6261,"152":6262,"142":6263,"Ġselect":6264,"484":6265,"489":6266,"654":6267,"359":6268,"Ġloan":6269,"473":6270,"Ġcentury":6271,"Ġowns":6272,"ĠdonÃ¢":6273,"ĠDev":6274,"Ġclubs":6275,"Ġassistance":6276,"ĠParis":6277,"Ġdistricts":6278,"Ġwebsite":6279,"Ġice":6280,"reland":6281,"ito":6282,"Ġpra":6283,"Ġnar":6284,"Ġnature":6285,"Ġring":6286,"ĠHus":6287,"131":6288,"242":6289,"232":6290,"262":6291,"ĠERA":6292,"384":6293,"679":6294,"Ġhelps":6295,"Ġblow":6296,"Ġpassengers":6297,"Ġwelcome":6298,"care":6299,"kin":6300,"ato":6301,"Ġod":6302,"Ġstations":6303,"ĠTra":6304,"172":6305,"181":6306,"231":6307,"Ġworry":6308,"ItÃ¢":6309,"409":6310,"985":6311,"759":6312,"659":6313,"908":6314,"112":6315,"onto":6316,"Ġmyself":6317,"Ġhandle":6318,"Ġcovered":6319,"Ġnone":6320,"Ġhero":6321,"ĠBuck":6322,"ĠLo":6323,"ĠLand":6324,"292":6325,"ĠEnergy":6326,"999":6327,"Ġshel":6328,"Ġimage":6329,"ĠMarsh":6330,"Ġwarning":6331,"Ġstands":6332,"Ġpointed":6333,"Ġimmediate":6334,"Ġprofessor":6335,"ruption":6336,"ĠTownship":6337,"ĠJewish":6338,"ĠPistons":6339,"iro":6340,"eless":6341,"ĠAz":6342,"Ġ150":6343,"ĠFox":6344,"apore":6345,"141":6346,"241":6347,"282":6348,"Ġresign":6349,"988":6350,"689":6351,"389":6352,"ogue":6353,"433":6354,"ysis":6355,"Ġsubm":6356,"minute":6357,"Ġlots":6358,"Ġadvoc":6359,"Ġsurprised":6360,"abinet":6361,"ĠLewis":6362,"ww":6363,"Ġ46":6364,"het":6365,"Ġgained":6366,"embers":6367,"atever":6368,"Ġpled":6369,"271":6370,"709":6371,"Ġarms":6372,"907":6373,"934":6374,"Ġimpress":6375,"ĠSpanish":6376,"Ġdram":6377,"Ġ''":6378,"Ġstruggling":6379,"Ġadjust":6380,"ĠDiego":6381,"FA":6382,"dney":6383,"ni":6384,"vis":6385,"Ġign":6386,"Ġtow":6387,"alyst":6388,"ĠSheriff":6389,"acement":6390,"andal":6391,"ĠHun":6392,"192":6393,"ivals":6394,"Ġnotice":6395,"Ġquiet":6396,"Ġarmed":6397,"909":6398,"Ġaccompl":6399,"ÅĵThe":6400,"ricult":6401,"Ġreturns":6402,"atically":6403,"Ġfalling":6404,"ernand":6405,"Ġsettle":6406,"Ġexecutives":6407,"ĠWayne":6408,"Ġmethod":6409,"fighters":6410,"ladesh":6411,"yard":6412,"ining":6413,"Ġfestival":6414,"Ġmax":6415,"thony":6416,"ĠWat":6417,"ĠJersey":6418,"251":6419,"171":6420,"281":6421,"261":6422,"Ġacres":6423,"998":6424,"Ġimag":6425,"121":6426,"ĠClin":6427,"Ġfactor":6428,"ĠSpring":6429,"emporary":6430,"OT":6431,"cia":6432,"gn":6433,"rd":6434,"Ġtend":6435,"omet":6436,"Ġlunch":6437,"lywood":6438,"andy":6439,"Ġagricult":6440,"ampa":6441,"Ġarmy":6442,"903":6443,"Ġcoff":6444,"nedy":6445,"Ġeasier":6446,"Ġexcell":6447,"ĠMalaysia":6448,"Man":6449,"Ġsitting":6450,"ĠSu":6451,"Ġstem":6452,"osure":6453,"Ġproved":6454,"udi":6455,"Ġunique":6456,"447":6457,"obody":6458,"Ġrunners":6459,"Ġfeels":6460,"Ġsingled":6461,"2005":6462,"Ġtalked":6463,"Ġinteresting":6464,"Ġtechnical":6465,"Ġdiscussion":6466,"Ġmaterials":6467,"ĠForest":6468,"Ġcreating":6469,"David":6470,"IV":6471,"Ġble":6472,"Ġlibrary":6473,"Ġstorage":6474,"ĠAward":6475,"Ġrac":6476,"ĠRad":6477,"ĠFla":6478,"983":6479,"437":6480,"477":6481,"Ġwinners":6482,"ĠPhoenix":6483,"Ġsummit":6484,"ĠMorgan":6485,"ĠApple":6486,"Ġexperienced":6487,"Ġspirit":6488,"Ed":6489,"Ġtree":6490,"993":6491,"906":6492,"443":6493,"Ġinvited":6494,"973":6495,"Ġeffects":6496,"ologies":6497,"Ġcontinuing":6498,"Ġbasic":6499,"Ġ&#":6500,"Ġoptim":6501,"Ġpleased":6502,"Ġcounsel":6503,"ĠCompany":6504,"OU":6505,"Ġcode":6506,"Ġder":6507,"ĠSanta":6508,"urers":6509,"ĠLife":6510,"Ġ2007":6511,"986":6512,"Ġcommand":6513,"Ġdefensive":6514,"Ġsets":6515,"nesota":6516,"Ġfrustr":6517,"Ġdiscussed":6518,"ĠGuard":6519,"Ġpushed":6520,"Ġcontain":6521,"Ġamend":6522,"Ġanniversary":6523,"Ġpolitics":6524,"ijing":6525,"Ġfreshman":6526,"Ġresolution":6527,"ĠForeign":6528,"Ġaimed":6529,"ĠVegas":6530,"Ġi":6531,"Ġsudden":6532,"Ġpsych":6533,"Ġfort":6534,"otte":6535,"essions":6536,"Ġspark":6537,"Ġoffensive":6538,"oster":6539,"977":6540,"476":6541,"664":6542,"666":6543,"ĠAlb":6544,"ĠMcG":6545,"Ġfocused":6546,"Ġfamiliar":6547,"empts":6548,"Ġholes":6549,"Ġdefinitely":6550,"President":6551,"week":6552,"wise":6553,"Ġdance":6554,"Ġclim":6555,"987":6556,"904":6557,"434":6558,"ĠPhill":6559,"ĠPhiladelphia":6560,"Bar":6561,"Ġharm":6562,"Ġdrew":6563,"ĠTele":6564,"ĠHay":6565,"Ġplus":6566,"Ġjur":6567,"Ġkil":6568,"ĠOw":6569,"996":6570,"976":6571,"436":6572,"Ġhanded":6573,"Ġopponents":6574,"Ġpossibly":6575,"ĠBarb":6576,"ĠMedic":6577,"ĠDenver":6578,"CI":6579,"aug":6580,"do":6581,"vo":6582,"Ġtall":6583,"ĠMs":6584,"Ġstro":6585,"Ġstadium":6586,"Ġchain":6587,"Ġvirt":6588,"994":6589,"997":6590,"Ġjustice":6591,"Ġcoaches":6592,"veland":6593,"weight":6594,"Ġtrib":6595,"Ġdirectors":6596,"Ġedge":6597,"gypt":6598,"Ġinvestigating":6599,"Ġdistribut":6600,"ĠOlympic":6601,"De":6602,"ror":6603,"Ġongoing":6604,"ĠMet":6605,"cean":6606,"Ġspr":6607,"anged":6608,"446":6609,"962":6610,"Ġmonthly":6611,"ĠAssociated":6612,"Ġhistoric":6613,"dom":6614,"inter":6615,"etime":6616,"owa":6617,"Ġcommunic":6618,"onsin":6619,"464":6620,"Ġshoulder":6621,"Ġ1995":6622,"Ġpatrol":6623,"Ġshareholders":6624,"aiwan":6625,"isconsin":6626,"Ġacquis":6627,"Ġdiagn":6628,",'":6629,"SAN":6630,"Ġtast":6631,"Ġwestern":6632,"Ġcro":6633,"Ġgrown":6634,"Ġeat":6635,"Ġyield":6636,"ĠDave":6637,"aka":6638,"ĠLiverpool":6639,"984":6640,"athan":6641,"Ġmaybe":6642,"Ġinstruct":6643,"Ġreality":6644,"Ġmaintain":6645,"OND":6646,"echan":6647,"Ġrenew":6648,"Ġattempted":6649,"Ġprincipal":6650,"AD":6651,"Today":6652,"hs":6653,"ario":6654,"ican":6655,"acle":6656,"igg":6657,"ĠBru":6658,"ĠPower":6659,"emeter":6660,"Ġaccomp":6661,"Ġloved":6662,"974":6663,"Ġgoods":6664,"Ġactions":6665,"Ġflow":6666,"Ġthinks":6667,"Ġhappens":6668,"Ġinfrastructure":6669,"ĠExecutive":6670,"unicipal":6671,"Ġtelling":6672,"Ġadvertising":6673,"ĠLtd":6674,"Ġalternative":6675,"uan":6676,"oning":6677,"Ġhall":6678,"ĠRome":6679,"ointing":6680,"444":6681,"Ġnoon":6682,"474":6683,"Ġcolumn":6684,"Ġopposed":6685,"anny":6686,"Ġargued":6687,"Ġsemi":6688,"Ġentertainment":6689,"Ġmuseum":6690,"urities":6691,"ĠDo":6692,"ĠGil":6693,"odge":6694,"ĠElementary":6695,"Ġthanks":6696,"awa":6697,"anchester":6698,"Ġreporter":6699,"Ġcrimes":6700,"Ġunderst":6701,"Ġheading":6702,"Ġpossession":6703,"Ġdeaths":6704,"ĠRBIs":6705,"Ġmultiple":6706,"Ġarchit":6707,"Ġcommitment":6708,"Ġresearchers":6709,"Ġemphas":6710,"vard":6711,"rees":6712,"aling":6713,"stein":6714,"Ġformed":6715,"Ġstress":6716,"ĠitÃ¢":6717,"ĠGh":6718,"ogs":6719,"979":6720,"439":6721,"479":6722,"469":6723,"Ġflat":6724,"Ġeval":6725,"Ġsuspected":6726,"Ġchanging":6727,"ĠSydney":6728,"Ġchallenges":6729,"ĠRoberts":6730,"GO":6731,"South":6732,"Ġturning":6733,"ĠCD":6734,"eland":6735,"ĠAN":6736,"Ġconcl":6737,"ĠRos":6738,"ĠFund":6739,"ĠEv":6740,"ĠEric":6741,"Ġcompens":6742,"ĠKong":6743,"Ġagenda":6744,"989":6745,"Ġsmoke":6746,"Ġdiscl":6747,"ĠCommerce":6748,"Ġdozen":6749,"Can":6750,"Sm":6751,"fol":6752,"ximately":6753,"Ġurg":6754,"Ġmaker":6755,"Ġdry":6756,"ĠSaf":6757,"ĠCare":6758,"oline":6759,"ela":6760,"ĠMu":6761,"ĠBra":6762,"Ġalive":6763,"ĠJun":6764,"Ġven":6765,"449":6766,"Ġsucceed":6767,"tenance":6768,"ĠBroad":6769,"Ġdevices":6770,"Ġglass":6771,"Ġjumped":6772,"gent":6773,"las":6774,"eren":6775,"icing":6776,"aying":6777,"aders":6778,"olit":6779,"apolis":6780,"Ġselection":6781,"ĠVictor":6782,"Three":6783,"Ġwinter":6784,"Ġtestimony":6785,"Ġelig":6786,"Ġperformed":6787,"Ġorders":6788,"Ġdispute":6789,"Add":6790,"ED":6791,"Rec":6792,"bors":6793,"stone":6794,"iger":6795,"ishing":6796,"669":6797,"Ġending":6798,"ĠSpain":6799,"Ġanticip":6800,"Ġdoubled":6801,"Ġcircum":6802,"Ġsatis":6803,"ĠRoyal":6804,"Ġscheme":6805,"Ġsacrifice":6806,"Ġalbum":6807,"ĠIreland":6808,"ĠTest":6809,"ewart":6810,"ĠKelly":6811,"uez":6812,"ĠVer":6813,"rence":6814,"loom":6815,"Ġsupported":6816,"Ġ1994":6817,"Ġ1980":6818,"Ġsuffering":6819,"Ġrepresentatives":6820,"ĠMarket":6821,"AC":6822,"Ġbeaut":6823,"eline":6824,"ĠRM":6825,"ĠHel":6826,"Ġresist":6827,"Ġexpenses":6828,"Ġdiss":6829,"Ġ52":6830,"Ġpercentage":6831,"ĠManagement":6832,"Ġrecommended":6833,"ĠIrish":6834,"Ġarticle":6835,"Ġacknowledged":6836,"ĠAuthority":6837,"Let":6838,"Ġfears":6839,"Ġmale":6840,"lets":6841,"ĠMain":6842,"ĠLincoln":6843,"Ġvend":6844,"acks":6845,"Ġexpensive":6846,"501":6847,"Ġfinals":6848,"781":6849,"Ġinterests":6850,"centr":6851,"Ġgrass":6852,"auk":6853,"azing":6854,"Ġpresidential":6855,"ĠAdam":6856,"Ġsettlement":6857,"Ġplatform":6858,"Ġpermanent":6859,"IM":6860,"ooth":6861,"rant":6862,"onent":6863,"Ġfashion":6864,"stitution":6865,"ĠPa":6866,"hers":6867,"ĠWisconsin":6868,"ector":6869,"iants":6870,"look":6871,"Ġcoverage":6872,"Ġblast":6873,"Ġheadquarters":6874,"Ġcustody":6875,"Ġlargely":6876,"ĠPatrick":6877,"Ġdefeated":6878,"ĠSingapore":6879,"Ġhospitals":6880,"HS":6881,"Ġinquir":6882,"Ġmand":6883,"Ġdial":6884,"uneral":6885,"ĠBry":6886,"ĠPier":6887,"951":6888,"Ġbelong":6889,"Ġcomplaint":6890,"Ġplayoffs":6891,"ĠDerby":6892,"ih":6893,"person":6894,"iller":6895,"Ġwaste":6896,"ĠRice":6897,"ĠHills":6898,"Ġrecover":6899,"602":6900,"701":6901,"952":6902,"672":6903,"ancial":6904,"Ġknee":6905,"prise":6906,"Ġminimum":6907,"ĠMarc":6908,"ĠProgram":6909,"Ġmoves":6910,"Ġfunction":6911,"ĠRegional":6912,"ĠCampbell":6913,"emetery":6914,"high":6915,"atz":6916,"aton":6917,"Ġbreat":6918,"ĠBull":6919,"ifying":6920,"ĠNations":6921,"Ġadult":6922,"401":6923,"682":6924,"632":6925,"941":6926,"iamond":6927,"Ġairline":6928,"ET":6929,"GH":6930,"Ġsheriff":6931,"atures":6932,"Ġcited":6933,"ĠCross":6934,"ĠPres":6935,"ĠWeek":6936,"Ġspect":6937,"ĠChairman":6938,"301":6939,"601":6940,"782":6941,"737":6942,"ĠThompson":6943,"942":6944,"Ġcurren":6945,"Ġsinger":6946,"ĠAssembly":6947,"Ġrounds":6948,"Ġparent":6949,"Ġdevice":6950,"Ġcells":6951,"ĠWoods":6952,"ĠUtah":6953,"ora":6954,"Ġcru":6955,"stop":6956,"urrent":6957,"Ġstructure":6958,"ecial":6959,"ulf":6960,"ĠFood":6961,"Ġupset":6962,"Ġclient":6963,"ĠOk":6964,"Ġmanage":6965,"owned":6966,"482":6967,"Ġattempts":6968,"Ġcourts":6969,"Ġtermin":6970,"Ġjudges":6971,"Ġideas":6972,"ĠMoham":6973,"Ġinflation":6974,"Ġenjoyed":6975,"Ġterrorist":6976,"Ġmachine":6977,"ĠTransport":6978,"Comm":6979,"aver":6980,"gment":6981,"hander":6982,"ician":6983,"ĠEgypt":6984,"Ġintent":6985,"631":6986,"atters":6987,"Ġnumerous":6988,"Ġtestified":6989,"Ġpurchased":6990,"Ġcomplaints":6991,"Ġwedding":6992,"Ġdiplom":6993,"Part":6994,"box":6995,"hus":6996,"ycle":6997,"esides":6998,"Ġpage":6999,"Ġmental":7000,"icious":7001,"Ġheav":7002,"Ġstated":7003,"ĠPen":7004,"endence":7005,"abilities":7006,"302":7007,"651":7008,"351":7009,"961":7010,"Ġcutting":7011,"Ġreferend":7012,"Ġpieces":7013,"Ġsongs":7014,"Ġnarrow":7015,"Gen":7016,"Mark":7017,"PS":7018,"sewhere":7019,"Ġconcentr":7020,"okyo":7021,"Ġinches":7022,"451":7023,"652":7024,"Ġearth":7025,"backs":7026,"Ġgeneration":7027,"Ġmixed":7028,"Ġregarding":7029,"ĠLegisl":7030,"Ġrapid":7031,"AU":7032,"Car":7033,"vy":7034,"Ġhun":7035,"ĠCirc":7036,"Ġshared":7037,"402":7038,"702":7039,"452":7040,"382":7041,"671":7042,"Ġemp":7043,"Ġguess":7044,"Ġnegative":7045,"Ġwireless":7046,"ĠWalker":7047,"million":7048,"Ġsan":7049,"oral":7050,"Ġbound":7051,"Ġliter":7052,"ĠFestival":7053,"ĠKo":7054,"681":7055,"erald":7056,"Ġentry":7057,"ĠMinnesota":7058,"ĠUSA":7059,"Ġemployment":7060,"Ġsuspects":7061,"Ġtitles":7062,"ĠOffic":7063,"Ġholiday":7064,"Ġrestaurants":7065,"ĠToronto":7066,"ĠKentucky":7067,"City":7068,"Ġ47":7069,"Ġfought":7070,"ĠPent":7071,"Ġshr":7072,"Ġabandon":7073,"752":7074,"352":7075,"932":7076,"Ġinsisted":7077,"Ġidentity":7078,"Ġrequirements":7079,"Ġpictures":7080,"ĠAcademy":7081,"sters":7082,"ĠAgency":7083,"ĠPre":7084,"ours":7085,"ĠJul":7086,"ĠJean":7087,"ĠGolf":7088,"ĠEver":7089,"Ġunp":7090,"481":7091,"381":7092,"ogle":7093,"Ġamid":7094,"ĠProf":7095,"Ġprepare":7096,"Ġproposals":7097,"Ġoverseas":7098,"Ġtroub":7099,"Qu":7100,"Ġsigning":7101,"Ġweren":7102,"ĠAve":7103,"Ġdoors":7104,"751":7105,"away":7106,"encing":7107,"ĠMcK":7108,"Ġshortly":7109,"Ġmilitants":7110,"Ġseniors":7111,"Ġteaching":7112,"ho":7113,"iot":7114,"Ġfel":7115,"Ġbon":7116,"Ġmail":7117,"Ġlap":7118,"ĠSant":7119,"ĠBas":7120,"ĠBern":7121,"Ġconven":7122,"ĠTaiwan":7123,"ĠWales":7124,"âĤ¬Â¢":7125,"502":7126,"ensions":7127,"ĠArts":7128,"aze":7129,"Ġsubsc":7130,"Ġfranch":7131,"Ġparticipants":7132,"Ġcommissioners":7133,"Ġwindow":7134,"Ġqualifying":7135,"Ġpolls":7136,"BO":7137,"pe":7138,"Ġdie":7139,"Ġshopping":7140,"Ġworried":7141,"raf":7142,"ĠStr":7143,"ikely":7144,"Ġinvent":7145,"Ġacting":7146,"Ġfamous":7147,"Still":7148,"Ġsolo":7149,"Ġviews":7150,"Ġrebounds":7151,"ĠTeam":7152,"Ġkidn":7153,"ĠVietnam":7154,"350":7155,"door":7156,"iable":7157,"worth":7158,"Ġauction":7159,"Ġdress":7160,"Ġdream":7161,"ĠRoss":7162,"ĠTw":7163,"resents":7164,"ello":7165,"Ġ($":7166,"Ġrecalled":7167,"Ġbecomes":7168,"ĠEnter":7169,"overty":7170,"Ġfilms":7171,"ĠMrs":7172,"ĠMoore":7173,"ĠKorean":7174,"Ġvolunteer":7175,"ĠKennedy":7176,"ĠBangladesh":7177,"ĠPitts":7178,"LAN":7179,"VD":7180,"gage":7181,"Ġbare":7182,"ali":7183,"employ":7184,"Ġintended":7185,"iano":7186,"Ġloans":7187,"Ġpresc":7188,"istration":7189,"Ġgenerally":7190,"Ġmotion":7191,"Ġphoto":7192,"addam":7193,"Ġabsol":7194,"Ġmanufacturing":7195,"Ġwatched":7196,"ĠHenry":7197,"star":7198,"ĠDis":7199,"ĠDallas":7200,"ĠNot":7201,"ĠNAS":7202,"Ġdeals":7203,"ĠKu":7204,"Ġapply":7205,"Ġdisabled":7206,"izon":7207,"Ġpassing":7208,"Ġpassenger":7209,"Ġfields":7210,"Ġreflect":7211,"Ġrepresentative":7212,"strong":7213,"Ġinsurgents":7214,"Ġscholarship":7215,"alysts":7216,"ius":7217,"Ġtag":7218,"Ġties":7219,"Ġtheft":7220,"Ġsending":7221,"Ġeld":7222,"illy":7223,"iform":7224,"ĠJer":7225,"essee":7226,"Ġoutstanding":7227,"931":7228,"734":7229,"Ġeverybody":7230,"Ġapproximately":7231,"Ġexcited":7232,"Ġcomputers":7233,"Ġthrowing":7234,"Ġdemocracy":7235,"ĠBolton":7236,"CP":7237,"book":7238,"Âł":7239,"Ġfal":7240,"Ġfru":7241,"ĠManchester":7242,"acked":7243,"Ġthank":7244,"Ġrunner":7245,"ĠInvest":7246,"Ġrepresents":7247,"Ġgrade":7248,"phy":7249,"Ġfewer":7250,"ĠBeijing":7251,"Ġfailing":7252,"Ġoccasion":7253,"Ġidentify":7254,"Ġsophomore":7255,"Michael":7256,"Pat":7257,"bec":7258,"Ġtherap":7259,"ouri":7260,"Ġgang":7261,"ĠMuseum":7262,"ĠFour":7263,"Ġchap":7264,"ĠElect":7265,"Ġquoted":7266,"902":7267,"ĠYou":7268,"ugby":7269,"Ġcollected":7270,"Ġ1993":7271,"ĠTrade":7272,"Ġnationwide":7273,"Ġconfirm":7274,"Ġzone":7275,"Ġadopt":7276,"Ġextremely":7277,"kes":7278,"rich":7279,"oned":7280,"Ġment":7281,"ĠDub":7282,"ĠJam":7283,"ĠLittle":7284,"ĠGe":7285,"Ġcomprom":7286,"ĠChannel":7287,"Ġrecovered":7288,"Ġministers":7289,"Ġends":7290,"Ġdriven":7291,"Ġproperties":7292,"Ġcausing":7293,"Ġsalary":7294,"Ġsupplies":7295,"ĠColumbia":7296,"oard":7297,"sun":7298,"water":7299,"Ġwine":7300,"Ġlit":7301,"Ġgro":7302,"rix":7303,"ocks":7304,"ribute":7305,"Ġprofession":7306,"Ġinternal":7307,"Ġinitially":7308,"Ġimprovement":7309,"Ġgranted":7310,"ĠNetwork":7311,"Ġunlikely":7312,"ĠSquare":7313,"Ġaggressive":7314,"fe":7315,"Ġwound":7316,"ĠTampa":7317,"Ġunivers":7318,"Ġexpress":7319,"Ġimportance":7320,"ĠHarris":7321,"Ġlegislative":7322,"Ġassociation":7323,"ĠHamilton":7324,"ĠDonald":7325,"ĠOakland":7326,"Aust":7327,"uana":7328,"ĠChelsea":7329,"ĠFeder":7330,"ĠLabor":7331,"Ġnotes":7332,"onda":7333,"issions":7334,"441":7335,"ĠProt":7336,"Ġranked":7337,"ĠCraig":7338,"ONDON":7339,"Har":7340,"wr":7341,"erk":7342,"atre":7343,"lyn":7344,"ĠBall":7345,"ĠPoint":7346,"Ġchosen":7347,"Ġsees":7348,"ĠKash":7349,"Ġperfor":7350,"aval":7351,"431":7352,"Ġgovernments":7353,"ĠAnthony":7354,"ĠAli":7355,"Ġmanagers":7356,"Ġforest":7357,"beat":7358,"Ġartists":7359,"ĠCleveland":7360,"Ġsurrounding":7361,"Ġacademic":7362,"Ġvirus":7363,".''":7364,"Ġbail":7365,"isa":7366,"rog":7367,"tery":7368,"ĠBase":7369,"ĠParliament":7370,"ĠHur":7371,"abit":7372,"okie":7373,"olds":7374,"Ġworker":7375,"Ġcommun":7376,"Ġloaded":7377,"972":7378,"umped":7379,"Ġbreaking":7380,"Ġreportedly":7381,"Ġveterans":7382,"Ġregulations":7383,"Ms":7384,"cont":7385,"free":7386,"law":7387,"ĠWars":7388,"ĠGreat":7389,"amples":7390,"661":7391,"662":7392,"Ġmaintenance":7393,"Ġpaint":7394,"Ġstruggle":7395,"Ġresidential":7396,"Ġincreasingly":7397,"Ġconservative":7398,"Ġreferendum":7399,"bound":7400,"rain":7401,"itory":7402,"unning":7403,"riers":7404,"ĠHart":7405,"ctions":7406,"ĠJosh":7407,"ĠLin":7408,"ĠGaza":7409,"ĠNFL":7410,"outheast":7411,"901":7412,"471":7413,"Ġ51":7414,"Ġentering":7415,"ducing":7416,"ĠCole":7417,"Ġchampions":7418,"ĠExp":7419,"Ġscores":7420,"Ġquestioned":7421,"Ġterrorism":7422,"Ġlinked":7423,"Ġsponsored":7424,"Ġbatters":7425,"Ġwonderful":7426,"Ġsweet":7427,"Ġdisappointed":7428,"DP":7429,"Ġtennis":7430,"utt":7431,"Ġeg":7432,"ĠAv":7433,"ĠBureau":7434,"ĠDow":7435,"ĠTokyo":7436,"ĠFil":7437,"Ġleaves":7438,"ĠStewart":7439,"Ġappropriate":7440,"Ġmanaging":7441,"State":7442,"Ġcoaching":7443,"Ġattacked":7444,"Ġhousehold":7445,"owski":7446,"Ġflying":7447,"Ġcriticism":7448,"Ġbirthday":7449,"Ġathletes":7450,"ĠAdministration":7451,"Ġcircumst":7452,"col":7453,"dy":7454,"Ġfol":7455,"Ġfaster":7456,"Ġpending":7457,"ilit":7458,"Ġgarden":7459,"aco":7460,"Ġrivals":7461,"ĠHy":7462,"ĠJess":7463,"Ġupcoming":7464,"Ġunus":7465,"orses":7466,"Ġroof":7467,"736":7468,"Ġphones":7469,"otted":7470,"Ġoperate":7471,"Ġmainly":7472,"Ġclassroom":7473,"Ġvolume":7474,"Ġstayed":7475,"ijuana":7476,"Ġstruggled":7477,"Ġerrors":7478,"Ġsubstant":7479,"Ġcomfortable":7480,"Ġrespectively":7481,"Ġbeautiful":7482,"dale":7483,"mile":7484,"hem":7485,"ĠFBI":7486,"ĠLord":7487,"Ġvision":7488,"733":7489,"Ġcolor":7490,"Ġdetect":7491,"Ġadvis":7492,"Ġfactors":7493,"Ġconvinc":7494,"regon":7495,"royo":7496,"riguez":7497,"ĠFinancial":7498,"ĠMountain":7499,"Ġdismissed":7500,"Ġrelatively":7501,"ĠLebanon":7502,"Def":7503,"HL":7504,"IR":7505,"pet":7506,"rison":7507,"Ġsand":7508,"olid":7509,"ĠLady":7510,"ĠLarry":7511,"992":7512,"981":7513,"442":7514,"971":7515,"461":7516,"Ġassists":7517,"ĠCountry":7518,"Ġdevelopers":7519,"Why":7520,"Ġconstit":7521,"Ġlineup":7522,"Ġanalysis":7523,"senal":7524,"Ġsavings":7525,"Ġarchitect":7526,"AFP":7527,"Ro":7528,"Reg":7529,"eded":7530,"Ġtot":7531,"Ġmic":7532,"ĠAff":7533,"Ġyard":7534,"ĠIowa":7535,"ĠDown":7536,"Ġneither":7537,"ĠOut":7538,"982":7539,"Ġpregn":7540,"472":7541,"Ġflu":7542,"Ġswitch":7543,"Ġprotests":7544,"ĠAndy":7545,"Ġdiscussions":7546,"Ġrenov":7547,"Ġfinishing":7548,"ĠChampions":7549,"ĠRobinson":7550,"Ġfixed":7551,"Ġcolleagues":7552,"Ġimpressive":7553,"pass":7554,"ram":7555,"eds":7556,"Ġhal":7557,"Ġgay":7558,"emen":7559,"aks":7560,"Ġshift":7561,"Ġspots":7562,"Ġkit":7563,"Ġcompar":7564,"Ġimages":7565,"Ġconsp":7566,"462":7567,"everal":7568,"Ġdeploy":7569,"Ġpayment":7570,"Ġdrawn":7571,"Ġlowest":7572,"Ġcelebration":7573,"Ġportion":7574,"ĠScottish":7575,"ĠDelhi":7576,"Donald":7577,"Ġtransportation":7578,"idelines":7579,"ĠTennessee":7580,"Ġhelicopter":7581,"LONDON":7582,"MP":7583,"car":7584,"half":7585,"turn":7586,"real":7587,"ĠSac":7588,"ĠSus":7589,"432":7590,"777":7591,"Ġremove":7592,"arsh":7593,"Ġsteel":7594,"ylvan":7595,"Ġwitnesses":7596,"Ġventure":7597,"Rich":7598,"deg":7599,"ping":7600,"uate":7601,"Ġtaught":7602,"itage":7603,"Ġmechan":7604,"Ġreh":7605,"olph":7606,"eler":7607,"Ġsharp":7608,"991":7609,"icken":7610,"Ġhighway":7611,"Ġhighlight":7612,"Ġobt":7613,"idden":7614,"Ġequal":7615,"Ġneighbour":7616,"ĠCommissioner":7617,"Ġaccounting":7618,"ĠSprings":7619,"ĠCapital":7620,"Ġscientists":7621,"orneys":7622,"Ġdedicated":7623,"Ag":7624,"oured":7625,"enter":7626,"Ġliqu":7627,"Ġgains":7628,"amin":7629,"ĠRose":7630,"ĠNelson":7631,"Ġtruth":7632,"icals":7633,"Ġbackground":7634,"Ġmarked":7635,"ĠShi":7636,"Ġswing":7637,"iminary":7638,"Ġtypes":7639,"Ġmulti":7640,"Ġrobber":7641,"Ġminority":7642,"ĠWallace":7643,"Ġmachines":7644,"ĠHawai":7645,"ĠMotor":7646,"Ġcontroversial":7647,"ĠTechnology":7648,"Jack":7649,"eing":7650,"itche":7651,"ĠMajor":7652,"ĠBir":7653,"Ġaside":7654,"Ġconver":7655,"ĠHong":7656,"ĠGlo":7657,"Ġbacked":7658,"739":7659,"ĠArm":7660,"Ġtaxp":7661,"Ġdealing":7662,"Ġstatements":7663,"Ġgreatest":7664,"Ġtested":7665,"ĠAdams":7666,"Ġsolutions":7667,"Ġemerged":7668,"fortun":7669,"Ġsponsors":7670,"Ġeligible":7671,"CAR":7672,"OP":7673,"cow":7674,"equ":7675,"uts":7676,"ĠCost":7677,"Ġyen":7678,"ĠJay":7679,"ĠNash":7680,"ĠEconom":7681,"Ġtrained":7682,"ella":7683,"active":7684,"Ġcommunications":7685,"Ġpayments":7686,"Ġpassion":7687,"Ġturns":7688,"China":7689,"enedict":7690,"ĠOrgan":7691,"Ġcelebrate":7692,"Maybe":7693,"ĠLiberal":7694,"expected":7695,"Ġexcellent":7696,"06":7697,"750":7698,"aud":7699,"edy":7700,"Ġtools":7701,"ĠAth":7702,"Ġrub":7703,"Ġriding":7704,"agers":7705,"ĠFamily":7706,"ounter":7707,"Ġuniform":7708,"load":7709,"onym":7710,"Ġequity":7711,"Ġvalues":7712,"Ġpreparing":7713,"Ġacquired":7714,"Ġcooperation":7715,"Japan":7716,"Ġrein":7717,"Ġbeach":7718,"ira":7719,"ĠDick":7720,"ĠJournal":7721,"usted":7722,"aret":7723,"Ġprel":7724,"Ġenthus":7725,"Ġpharm":7726,"Ġpoliticians":7727,"Ġmovies":7728,"Ġjoining":7729,"ĠAirport":7730,"Ġcopy":7731,"Ġinnov":7732,"Ġpurpose":7733,"ylvania":7734,"001":7735,"Ġages":7736,"awi":7737,"Ġadds":7738,"Ġblamed":7739,"Ġrelay":7740,"Ġmodels":7741,"ITY":7742,"Author":7743,"Ġlaugh":7744,"Ġrich":7745,"ĠDaily":7746,"Ġexcl":7747,"Ġnewly":7748,"Ġrecon":7749,"ampton":7750,"ĠCommunications":7751,"areness":7752,"ennifer":7753,"Ġvisits":7754,"Ġoblig":7755,"Ġqualified":7756,"profit":7757,"Ġencourage":7758,"Ġtackle":7759,"ĠLegislature":7760,"Dan":7761,"Several":7762,"bar":7763,"rimin":7764,"iture":7765,"Ġhurd":7766,"Ġreject":7767,"ĠAk":7768,"ĠDVD":7769,"Ġshape":7770,"assador":7771,"ocking":7772,"Ġknocked":7773,"Ġcruc":7774,"Ġbrings":7775,"Ġdiscip":7776,"Ġkeeps":7777,"Ġpitches":7778,"Ġletters":7779,"Ġphotos":7780,"ĠMontana":7781,"degree":7782,"Bush":7783,"Im":7784,"LC":7785,"Paul":7786,"ek":7787,"uj":7788,"eras":7789,"ĠCarter":7790,"ĠLane":7791,"umber":7792,"Ġclimb":7793,"Ġherself":7794,"Ġlocations":7795,"ĠShow":7796,"Ġlisten":7797,"Ġexplain":7798,"Ġcorruption":7799,"Ġclosely":7800,"Ġdeadline":7801,"Ġoriginally":7802,"Ġbrothers":7803,"Ġillness":7804,"Ġdrinking":7805,"Ġutility":7806,"Ġpunish":7807,"Ġmaximum":7808,"Ġheavily":7809,"ĠKashmir":7810,"Call":7811,"Cons":7812,"Dem":7813,"Mor":7814,"North":7815,"SB":7816,"eals":7817,"Ġsick":7818,"ĠSl":7819,"ĠSher":7820,"third":7821,"riff":7822,"ĠDam":7823,"ĠRaf":7824,"ĠFoot":7825,"Ġexcess":7826,"Ġwheel":7827,"ĠStand":7828,"Ġarts":7829,"Ġattending":7830,"ĠReal":7831,"Ġfirefighters":7832,"Ġfallen":7833,"Ġeastern":7834,"Ġtourism":7835,"Ġgasoline":7836,"ĠCharlotte":7837,"NY":7838,"die":7839,"mo":7840,"uros":7841,"yal":7842,"Ġcry":7843,"Ġflex":7844,"ĠSaddam":7845,"etts":7846,"ĠBBC":7847,"osa":7848,"Ġcongress":7849,"ĠDutch":7850,"ĠWright":7851,"776":7852,"ĠMarine":7853,"Ġsevere":7854,"Ġstriker":7855,"Ġrooms":7856,"Ġneighbors":7857,"Ġimprovements":7858,"Ġpilot":7859,"ĠPenns":7860,"aukee":7861,"West":7862,"Ġtrop":7863,"Ġthrown":7864,"Ġrevers":7865,"igators":7866,"ĠMaine":7867,"Ġrum":7868,"ĠWomen":7869,"ĠHo":7870,"Ġvill":7871,"ocol":7872,"pper":7873,"Ġunve":7874,"ĠChamber":7875,"Ġserves":7876,"ommod":7877,"eeper":7878,"ĠAlan":7879,"Ġtraded":7880,"Ġnetworks":7881,"Ġpetition":7882,"ĠWindows":7883,"ĠEarth":7884,"ĠIntel":7885,"fall":7886,"front":7887,"Ġsew":7888,"Ġpoverty":7889,"aly":7890,"Ġlaid":7891,"ĠSk":7892,"Ġforms":7893,"ĠGonz":7894,"eller":7895,"Ġuser":7896,"Ġcapable":7897,"ĠTrust":7898,"Ġreplacement":7899,"Ġrecommendations":7900,"Current":7901,"best":7902,"feld":7903,"lah":7904,"maker":7905,"sa":7906,"wa":7907,"Ġwhatever":7908,"Ġprohib":7909,"ĠHear":7910,"athy":7911,"774":7912,"Ġbright":7913,"Ġtries":7914,"Ġyourself":7915,"Ġ800":7916,"Ġ1970":7917,"Ġeducational":7918,"Ġcomplained":7919,"Ġrepresenting":7920,"Ġcommissioner":7921,"iece":7922,"ĠHollywood":7923,"Ġsurvived":7924,"Ġinstitutions":7925,"Follow":7926,"burn":7927,"key":7928,"Ġtank":7929,"Ġcore":7930,"Ġmatters":7931,"ione":7932,"ura":7933,"ĠDean":7934,"Ġ250":7935,"Ġoutcome":7936,"Ġresume":7937,"Ġresigned":7938,"Ġrot":7939,"Ġregime":7940,"Ġassum":7941,"Ġrelatives":7942,"Ġcourses":7943,"Ġconstruct":7944,"Ġlikes":7945,"Ġviolent":7946,"ĠSea":7947,"Ġcombination":7948,"Ġcleared":7949,"Ġsettled":7950,"Ġexpanded":7951,"Ġwidely":7952,"Ġelectricity":7953,"ĠSoft":7954,"Ġcircumstances":7955,"Ass":7956,"Brown":7957,"Ġgift":7958,"utely":7959,"ĠCape":7960,"irts":7961,"003":7962,"ĠPut":7963,"ĠHoll":7964,"Ġanywhere":7965,"Ġmeets":7966,"Ġprovider":7967,"Ġentr":7968,"ĠSpurs":7969,"Ġmotiv":7970,"Ġrepresented":7971,"Ġcombat":7972,"Ġfeatured":7973,"Ġsemif":7974,"Ġprosecution":7975,"ĠDefense":7976,"Conn":7977,"hat":7978,"rete":7979,"orough":7980,"Ġfinger":7981,"Ġhook":7982,"Ġdivers":7983,"ĠCru":7984,"ĠCelt":7985,"007":7986,"ĠTan":7987,"eway":7988,"ĠGal":7989,"essor":7990,"Ġplastic":7991,"Ġexceed":7992,"Ġsea":7993,"Ġaccommod":7994,"Ġprepar":7995,"Ġweekly":7996,"ĠAnt":7997,"Ġconfront":7998,"Ġapprove":7999,"Ġbanking":8000,"Ġbankrupt":8001,"Ġgraduation":8002,"Ġplease":8003,"Ġencouraged":8004,"Ġrecruit":8005,"THE":8006,"ĠLatin":8007,"Ġordinance":8008,"ĠClinton":8009,"MS":8010,"mosp":8011,"waukee":8012,"Ġ85":8013,"inent":8014,"002":8015,"008":8016,"osite":8017,"ĠRen":8018,"Ġoffenders":8019,"Ġresidence":8020,"assy":8021,"Ġaccus":8022,"Ġslam":8023,"Analysts":8024,"arents":8025,"Ġevac":8026,"ĠSenior":8027,"Ġengineering":8028,"Ġmentioned":8029,"Ġprize":8030,"Ġbehavior":8031,"ĠOfficer":8032,"DC":8033,"Neal":8034,"OC":8035,"gests":8036,"nic":8037,"new":8038,"Ġcoin":8039,"Ġtoug":8040,"Ġhorses":8041,"Ġreward":8042,"Ġbear":8043,"Ġforg":8044,"005":8045,"006":8046,"009":8047,"ĠTerry":8048,"agan":8049,"ĠHold":8050,"ĠLibrary":8051,"ĠNaz":8052,"ĠChildren":8053,"ogan":8054,"Ġ58":8055,"Ġcrashed":8056,"779":8057,"eneg":8058,"Ġsuggests":8059,"Ġrisks":8060,"Ġsoftball":8061,"Ġprisoners":8062,"Ġcelebrated":8063,"Ġimproving":8064,"ĠQueens":8065,"Ġimmigration":8066,"ĠBruce":8067,"450":8068,"Get":8069,"June":8070,"bie":8071,"cell":8072,"held":8073,"rehens":8074,"Ġtoll":8075,"Ġhat":8076,"004":8077,"Ġtruly":8078,"Though":8079,"Ġstring":8080,"Ġ72":8081,"Ġformal":8082,"Ġtraveling":8083,"Ġstepped":8084,"Ġcultural":8085,"Ġpriority":8086,"Ġcaptured":8087,"Ġathletic":8088,"Ġcategory":8089,"ME":8090,"Mon":8091,"Ġreact":8092,"ĠArea":8093,"ĠBalt":8094,"ĠBloom":8095,"Ġrush":8096,"uma":8097,"Ġjour":8098,"Ġincent":8099,"Ġ57":8100,"Ġrepair":8101,"764":8102,"491":8103,"492":8104,"Ġhandling":8105,"plus":8106,"Ġcompeting":8107,"Ġfielder":8108,"Ġballs":8109,"Ġdistribution":8110,"Ġtravell":8111,"Ġlimits":8112,"Ġdozens":8113,"daq":8114,"%.":8115,"final":8116,"Ġfurn":8117,"Ġmol":8118,"Ġmile":8119,"Ġlie":8120,"uter":8121,"ĠBet":8122,"ĠTwo":8123,"ĠJen":8124,"Ġ2008":8125,"achus":8126,"Ġproper":8127,"opez":8128,"Ġballot":8129,"ĠAbu":8130,"Ġstaying":8131,"Ġannounce":8132,"ĠPremier":8133,"Ġapplied":8134,"ĠEagles":8135,"Ġcompensation":8136,"iat":8137,"Ġcable":8138,"Ġfled":8139,"ĠSab":8140,"ĠCITY":8141,"Ġsteal":8142,"Ġconcept":8143,"ĠRey":8144,"ĠNort":8145,"uests":8146,"Ġblame":8147,"Ġreporting":8148,"ĠEnvironment":8149,"Ġveget":8150,"Ġbehalf":8151,"Ġgrounds":8152,"ĠCorporation":8153,"Ġdemanded":8154,"Ġpushing":8155,"Ġsurface":8156,"ĠMarshall":8157,"Ġfalse":8158,"April":8159,"Yet":8160,"iac":8161,"Ġpip":8162,"ĠCat":8163,"ĠCro":8164,"illo":8165,"ĠAC":8166,"usal":8167,"essed":8168,"mances":8169,"805":8170,"336":8171,"oviet":8172,"ĠBridge":8173,"Ġflowers":8174,"lett":8175,"Ġinstitution":8176,"ĠCooper":8177,"attered":8178,"Ġartist":8179,"Ġranks":8180,"Ġstrikeouts":8181,"Johnson":8182,"Ġcatcher":8183,"ĠCardinals":8184,"sunami":8185,"HP":8186,"bow":8187,"fast":8188,"lines":8189,"meter":8190,"Ġmurd":8191,"imal":8192,"Ġrid":8193,"Ġrall":8194,"ĠJunior":8195,"Ġchose":8196,"Ġovernight":8197,"Ġdesk":8198,"Ġrelax":8199,"Ġ64":8200,"769":8201,"Ġdonated":8202,"lington":8203,"ĠAustin":8204,"Ġestimate":8205,"ĠDemocrat":8206,"Ġgraduated":8207,"Ġurban":8208,"Ġsatell":8209,"Ġbegun":8210,"Ġinitiative":8211,"Ġadopted":8212,"Ġsupervis":8213,"Ġinquiry":8214,"Mo":8215,"uations":8216,"Ġ67":8217,"Ġtun":8218,"Ġaf":8219,"Ġsessions":8220,"Ġcoc":8221,"itable":8222,"arch":8223,"asdaq":8224,"Ġmut":8225,"ented":8226,"ĠSub":8227,"Ġshif":8228,"abet":8229,"Ġunions":8230,"Ġ56":8231,"Ġdemands":8232,"bridge":8233,"Ġmarijuana":8234,"Ġplea":8235,"ĠReserve":8236,"Ġsteady":8237,"Ġreaching":8238,"ĠMusic":8239,"Ġreforms":8240,"Ġwelcom":8241,"ĠSystems":8242,"Ġpreliminary":8243,"):":8244,"gar":8245,"uzz":8246,"whel":8247,"Ġham":8248,"Ġforget":8249,"ĠAut":8250,"ĠLim":8251,"ĠGames":8252,"Ġincidents":8253,"ixon":8254,"855":8255,"Ġdefending":8256,"Ġdefender":8257,"Ġproperly":8258,"Ġopener":8259,"loyd":8260,"ĠDeputy":8261,"Ġaffairs":8262,"Ġmusical":8263,"Ġpractices":8264,"Ġcalc":8265,"ĠSaudi":8266,"ĠRodriguez":8267,"Ġmistake":8268,"ĠIndonesia":8269,"Ġfranchise":8270,"Com":8271,"Law":8272,"PR":8273,"Ġgap":8274,"irates":8275,"Ġsaved":8276,"ĠHor":8277,"abama":8278,"ords":8279,"Ġscale":8280,"Ġrecip":8281,"ĠVol":8282,"Ġteammates":8283,"ossible":8284,"333":8285,"Ġempt":8286,"ĠSharon":8287,"Ġpublicly":8288,"Ġfindings":8289,"Ġorganized":8290,"Ġelsewhere":8291,"ĠParker":8292,"Ġcritics":8293,"ĠIII":8294,"Ġunderstanding":8295,"itzer":8296,"ĠMissouri":8297,"ĠMoscow":8298,"Ġdestroyed":8299,"04":8300,"Gu":8301,"Well":8302,"bon":8303,"iners":8304,"Ġtheater":8305,"Ġsons":8306,"Ġcrop":8307,"Ġbike":8308,"Ġlift":8309,"stra":8310,"eling":8311,"ĠBaker":8312,"Ġrating":8313,"akh":8314,"aki":8315,"Ġexport":8316,"ikh":8317,"Ġ53":8318,"Ġremov":8319,"ologist":8320,"Ġinformed":8321,"ĠHead":8322,"ĠAdv":8323,"Ġsoldier":8324,"Ġappearances":8325,"ĠAbbas":8326,"Ġdamaged":8327,"Ġlicens":8328,"Ġsignificantly":8329,"Ġassociated":8330,"Ġappointment":8331,"Ġdegrees":8332,"ĠQueen":8333,"Anyone":8334,"William":8335,"Ġmargin":8336,"Ġargument":8337,"ĠPentagon":8338,"Five":8339,"boy":8340,"sec":8341,"Ġsad":8342,"Ġborrow":8343,"Ġpole":8344,"ĠWel":8345,"rah":8346,"Ġwealth":8347,"ĠOper":8348,"Ġunemploy":8349,"ĠVillage":8350,"mann":8351,"Ġattorneys":8352,"Ġ54":8353,"ĠIndians":8354,"Ġinstalled":8355,"Ġpattern":8356,"Ġtourists":8357,"ournament":8358,"Ġtrips":8359,"Ġpredicted":8360,"Ġachieved":8361,"Ġvacc":8362,"Ġwaters":8363,"Authorities":8364,"ĠPennsylvania":8365,"Mic":8366,"Mike":8367,"RI":8368,"reation":8369,"Ġcorn":8370,"Ġciting":8371,"anim":8372,"Ġbin":8373,"Ġpal":8374,"ĠSon":8375,"Ġnoticed":8376,"ĠOregon":8377,"ensus":8378,"Ġusual":8379,"337":8380,"Ġmemorial":8381,"Ġfounder":8382,"Ġstronger":8383,"ambling":8384,"Ġfeaturing":8385,"respond":8386,"Ġcoffee":8387,"Ġcurrency":8388,"Ġunusual":8389,"achusetts":8390,"Fort":8391,"hard":8392,"rament":8393,"Ġwet":8394,"ĠMir":8395,"ĠMasters":8396,"iracy":8397,"ĠPant":8398,"earing":8399,"opy":8400,"ĠFuneral":8401,"Ġchannel":8402,"ickets":8403,"Ġquit":8404,"Ġdecre":8405,"808":8406,"888":8407,"Ġ600":8408,"Ġmarks":8409,"Ġguards":8410,"Ġdonations":8411,"Ġphase":8412,"Ġapproached":8413,"Ġpresentation":8414,"Ġresulted":8415,"Ġtypically":8416,"Ġchecks":8417,"Ġcontacted":8418,"onna":8419,"Ġcamera":8420,"ĠMurphy":8421,"ĠHotel":8422,"ĠAffairs":8423,"EST":8424,"Here":8425,"gt":8426,"Ġ63":8427,"Ġce":8428,"eda":8429,"Ġtool":8430,"acre":8431,"ĠMetro":8432,"ĠPeople":8433,"Ġvul":8434,"Ġvital":8435,"ortion":8436,"ĠKat":8437,"Ġweb":8438,"ignment":8439,"ĠYouth":8440,"Ġreput":8441,"732":8442,"Ġcenters":8443,"Ġsurge":8444,"Ġsupporting":8445,"Ġpromise":8446,"Ġemployers":8447,"Ġclaiming":8448,"Ġskin":8449,"Ġmetal":8450,"ĠWhit":8451,"alties":8452,"Ġportfol":8453,"Ġdrawing":8454,"ILLE":8455,"Ġcrews":8456,"ĠHuman":8457,"ĠTurkey":8458,"ĠAbdul":8459,"Ġroughly":8460,"Ġrepeatedly":8461,"Ġinvolvement":8462,"Ġfelony":8463,"Som":8464,"fire":8465,"uce":8466,"Ġtape":8467,"ashes":8468,"ĠBurn":8469,"opher":8470,"ĠHend":8471,"ĠFalls":8472,"oute":8473,"Ġintention":8474,"Ġdesire":8475,"Ġdesper":8476,"Ġannually":8477,"ullah":8478,"Ġinstance":8479,"ĠdidnÃ¢":8480,"Ġelectronic":8481,"Ġlanded":8482,"Ġsuffer":8483,"Ġnewspapers":8484,"Ġmotorcy":8485,"ĠOnt":8486,"Ġjournalists":8487,"Ġfatal":8488,"Ġkilomet":8489,"Ġacquisition":8490,"Ste":8491,"hr":8492,"inct":8493,"ĠMod":8494,"imore":8495,"Ġatmosp":8496,"ĠBenedict":8497,"ĠPan":8498,"aken":8499,"ĠHon":8500,"oca":8501,"iesel":8502,"Ġoverwhel":8503,"log":8504,"731":8505,"858":8506,"Ġguest":8507,"ĠArgent":8508,"Ġfoundation":8509,"ĠLeader":8510,"Ġ1991":8511,"Ġoperates":8512,"Ġregularly":8513,"Ġtargeted":8514,"Ġsurviv":8515,"Ġawareness":8516,"Ġsymb":8517,"Ġdepartments":8518,"itchell":8519,"LS":8520,"Ġpup":8521,"Ġgross":8522,"ĠAst":8523,"ĠTurn":8524,"ĠGarden":8525,"804":8526,"Ġ62":8527,"ĠArch":8528,"Ġsmoking":8529,"Ġoperators":8530,"Ġorganis":8531,"Ġdrama":8532,"Ġtreas":8533,"Ġtells":8534,"Ġgraduates":8535,"Ġattendance":8536,"ĠSyria":8537,"Ġmanufacturers":8538,"Ġpremium":8539,"ĠFinance":8540,"ĠMassachusetts":8541,"Ġmountain":8542,"Perhaps":8543,"ĠRadio":8544,"Austral":8545,"Ġcrucial":8546,"Following":8547,"Ġjourney":8548,"Ġmolest":8549,"lan":8550,"Ġast":8551,"onies":8552,"Ġbars":8553,"uther":8554,"ĠBou":8555,"ĠDeb":8556,"ĠWin":8557,"ĠJerry":8558,"ĠNov":8559,"Ġupper":8560,"itters":8561,"rows":8562,"Ġamazing":8563,"Ġremark":8564,"ĠAlbert":8565,"ĠAlabama":8566,"Stud":8567,"Ġbreast":8568,"Ġdrag":8569,"aughters":8570,"Ġcontributions":8571,"ĠFranklin":8572,"IDS":8573,"ycling":8574,"ĠTreas":8575,"Ġperformances":8576,"SC":8577,"Sup":8578,"casts":8579,"hit":8580,"ps":8581,"tic":8582,"ye":8583,"Ġtrem":8584,"ĠBart":8585,"ĠIP":8586,"riot":8587,"ĠToy":8588,"ĠTrib":8589,"ĠHug":8590,"ĠFree":8591,"sein":8592,"Ġcomplic":8593,"Ġrecovery":8594,"Ġotherwise":8595,"ancer":8596,"Ġmoder":8597,"Ġfastest":8598,"Ġcollabor":8599,"Ġpredict":8600,"ĠCardinal":8601,"ĠEvans":8602,"lahoma":8603,"Right":8604,"UN":8605,"Ġtsunami":8606,"Ġcart":8607,"Ġmyst":8608,"Ġmunicipal":8609,"eting":8610,"igation":8611,"cho":8612,"Ġalert":8613,"ĠRh":8614,"ĠHal":8615,"Ġagg":8616,"anche":8617,"Ġ59":8618,"Ġmonit":8619,"Ġmonitor":8620,"334":8621,"ĠSpecial":8622,"Ġfiling":8623,"boro":8624,"Ġapolog":8625,"Ġchampionships":8626,"Next":8627,"Brit":8628,"Ġescape":8629,"Ġdominated":8630,"Ġprompted":8631,"Ġamendment":8632,"PH":8633,"VILLE":8634,"ais":8635,"iences":8636,"rad":8637,"Ġmir":8638,"Ġeuros":8639,"sex":8640,"Ġhadn":8641,"ĠUC":8642,"Ġprint":8643,"Ġcook":8644,"856":8645,"Ġremote":8646,"Ġshouldn":8647,"Ġ1992":8648,"Ġmedal":8649,"Ġspecies":8650,"Ġextensive":8651,"ĠEngine":8652,"Ġpotentially":8653,"iership":8654,"mingham":8655,"ĠAtlantic":8656,"Act":8657,"tle":8658,"top":8659,"rend":8660,"enz":8661,"Ġtouc":8662,"usch":8663,"ulations":8664,"ĠWolf":8665,"ĠHIV":8666,"ĠGer":8667,"Ġvast":8668,"odes":8669,"Ġunanim":8670,"Ġexports":8671,"Ġopens":8672,"Ġtheme":8673,"803":8674,"Ġmemor":8675,"Ġofficially":8676,"Ġpasses":8677,"ĠSunni":8678,"Ġneck":8679,"ĠMilan":8680,"bourne":8681,"ĠCarlos":8682,"Ġverd":8683,"ĠJacob":8684,"Ġsubmitted":8685,"ĠFootball":8686,"ports":8687,"wich":8688,"Ġ,":8689,"Ġmound":8690,"style":8691,"Ġgotten":8692,"ĠSom":8693,"elle":8694,"ĠMarg":8695,"children":8696,"ĠPas":8697,"ĠIBM":8698,"esty":8699,"ĠDak":8700,"ĠFarm":8701,"Ġplot":8702,"ivan":8703,"Ġscandal":8704,"Ġsomebody":8705,"853":8706,"854":8707,"339":8708,"Ġdeveloper":8709,"Ġmembership":8710,"Ġtransl":8711,"ĠRussell":8712,"Ġsupports":8713,"Ġcasino":8714,"Ġcoalition":8715,"Investigators":8716,"ĠAthlet":8717,"High":8718,"MC":8719,"Ġsight":8720,"iti":8721,"esa":8722,"Ġmigr":8723,"Ġreaction":8724,"Ġnobody":8725,"ĠSud":8726,"unction":8727,"ĠBapt":8728,"early":8729,"ĠTech":8730,"ĠGiants":8731,"ques":8732,"ellor":8733,"ĠKy":8734,"Ġpermit":8735,"Ġresort":8736,"Ġcontrolled":8737,"aved":8738,"icking":8739,"ateral":8740,"Ġsurve":8741,"Ġdirected":8742,"Ġwarrant":8743,"Ġfactory":8744,"Ġproducers":8745,"ĠJuan":8746,"ĠGovern":8747,"Ġtracks":8748,"ĠPalm":8749,"Ġblocks":8750,"Ġconvinced":8751,"Look":8752,"Out":8753,"Te":8754,"Ġ76":8755,"Ġtemporary":8756,"org":8757,"edia":8758,"Ġped":8759,"Ġtoss":8760,"Ġmouth":8761,"Ġduties":8762,"Ġeuro":8763,"ĠSoviet":8764,"ĠCall":8765,"ĠDennis":8766,"ĠTam":8767,"ĠWard":8768,"ĠGard":8769,"istant":8770,"ĠStation":8771,"Ġacts":8772,"orders":8773,"806":8774,"857":8775,"Ġflights":8776,"Ġdeputies":8777,"Ġextend":8778,"Ġtowns":8779,"class":8780,"Ġtargets":8781,"ĠMilwaukee":8782,"rehensive":8783,"ramento":8784,"bn":8785,"ĠSir":8786,"ĠCas":8787,"ĠCour":8788,"Ġstruct":8789,"ĠBud":8790,"ema":8791,"ĠRangers":8792,"ĠHist":8793,"Ġassembly":8794,"Ġactual":8795,"Ġguide":8796,"Ġfounded":8797,"Ġdealers":8798,"Ġspeaker":8799,"Ġexciting":8800,"ĠMorris":8801,"ĠHoly":8802,"Others":8803,"Ġrequested":8804,"Ġsuperintendent":8805,"Ġuncertain":8806,"urban":8807,"Ġdelayed":8808,"Ġinnoc":8809,"Ġultimately":8810,"ĠDouglas":8811,"Ġobviously":8812,"Ġvendors":8813,"Em":8814,"uy":8815,"anj":8816,"Ġburg":8817,"Ġmal":8818,"Ġdad":8819,"level":8820,"Ġelementary":8821,"oto":8822,"irty":8823,"thouse":8824,"ĠFed":8825,"anton":8826,"Ġtrick":8827,"Ġaccur":8828,"Ġaddressed":8829,"807":8830,"Ġknowing":8831,"elfare":8832,"Ġrealize":8833,"Ġproducer":8834,"ronics":8835,"ĠGoogle":8836,"Ġmoments":8837,"Prosecut":8838,"Ġtrucks":8839,"Ġmedicine":8840,"Ġrescue":8841,"Ġcoordinator":8842,"Ġconcluded":8843,"650":8844,"Pal":8845,"Rob":8846,"gom":8847,"Ġwing":8848,"Ġhiring":8849,"aser":8850,"acco":8851,"ĠCur":8852,"othes":8853,"ĠTo":8854,"Ġunknown":8855,"owners":8856,"itional":8857,"859":8858,"annon":8859,"Ġinvestigate":8860,"Ġshortstop":8861,"Ġhonored":8862,"Ġdevast":8863,"Ġcrore":8864,"Ġbankruptcy":8865,"Ġreputation":8866,"850":8867,"Besides":8868,"SS":8869,"uable":8870,"zy":8871,"itr":8872,"Ġpock":8873,"ĠMy":8874,"ĠHard":8875,"ĠGriff":8876,"ĠNic":8877,"ĠKurd":8878,"Ġclothing":8879,"Ġimpressed":8880,"Ġimpossible":8881,"Ġproviders":8882,"Ġspeculation":8883,"Ġfundament":8884,"ĠHeat":8885,"Ġindustries":8886,"Ġ1989":8887,"ĠReds":8888,"Ġconcrete":8889,"ography":8890,"Ġbonds":8891,"Eng":8892,"ĠGolden":8893,"Ġpursue":8894,"ĠPittsburgh":8895,"Ġvulner":8896,"313":8897,"760":8898,"vant":8899,"Ġtub":8900,"Ġcul":8901,"Ġmph":8902,"Ġguests":8903,"Ġstages":8904,"apes":8905,"iavo":8906,"Ġteens":8907,"Inter":8908,"Ġmemories":8909,"ĠArroyo":8910,"enez":8911,"Ġlegs":8912,"ĠScience":8913,"Ġcheap":8914,"works":8915,"Ġparks":8916,"ORT":8917,"Ġkicked":8918,"Ġcontrast":8919,"ĠGarcia":8920,"ĠCubs":8921,"Ġflew":8922,"Ġpermission":8923,"Ġstrategic":8924,"Ġemotional":8925,"Ġenhance":8926,"ĠTransportation":8927,"Che":8928,"LU":8929,"ae":8930,"gie":8931,"Ġ66":8932,"onic":8933,"Ġpump":8934,"Ġhockey":8935,"Ġla":8936,"Ġlux":8937,"Ġgym":8938,"Ġeating":8939,"Ġstable":8940,"Ġconsequ":8941,"ĠWith":8942,"ĠGulf":8943,"ĠNeb":8944,"Ġsole":8945,"enson":8946,"gricult":8947,"Ġregistration":8948,"Ġblind":8949,"ĠMarl":8950,"Ġ69":8951,"shot":8952,"ippi":8953,"Ġparade":8954,"ceded":8955,"Ġstrongly":8956,"Ġsuspension":8957,"Ġhonors":8958,"Ġparticipation":8959,"Ġbeaten":8960,"Ġprosecutor":8961,"Ġqualify":8962,"Ġrecognized":8963,"Ġabsence":8964,"Senior":8965,"Ġcompromise":8966,"ĠSoftware":8967,"ĠDakota":8968,"317":8969,"320":8970,"Dep":8971,"Matt":8972,"SW":8973,"Ġfence":8974,"Ġet":8975,"adow":8976,"ĠMen":8977,"ĠMat":8978,"ĠMall":8979,"Ġstole":8980,"owe":8981,"Ġsaves":8982,"ĠBah":8983,"ĠWy":8984,"ĠJennifer":8985,"ĠEnd":8986,"Ġaged":8987,"Ġupgr":8988,"inez":8989,"Ġdisag":8990,"aware":8991,"Ġinterim":8992,"809":8993,"Ġbranch":8994,"Ġlongest":8995,"Ġhandful":8996,"ĠSpeed":8997,"Ġstatistics":8998,"incial":8999,"Ġactivists":9000,"Ġcauses":9001,"castle":9002,"Ġreferring":9003,"Ġmerger":9004,"ĠMatthew":9005,"Ġcasual":9006,"ĠConnect":9007,"Ġprocedures":9008,"Ġgathering":9009,"330":9010,"Having":9011,"Local":9012,"called":9013,"dem":9014,"Ġtent":9015,"ints":9016,"Ġfant":9017,"Ġbeer":9018,"osis":9019,"umes":9020,"ĠOcean":9021,"asey":9022,"Ġconsolid":9023,"Ġphil":9024,"Ġvictories":9025,"irlines":9026,"anna":9027,"Ġcreation":9028,"ĠManager":9029,"ĠSecurities":9030,"Ġauto":9031,"Ġparticipating":9032,"Ġsurprising":9033,"ĠJefferson":9034,"Ġweapon":9035,"ĠBowl":9036,"ĠRogers":9037,"ĠStanley":9038,"Ġliberal":9039,"Ġaccomplish":9040,"Ġtaste":9041,"Ġsatisf":9042,"Ġabsolutely":9043,"Ġkitchen":9044,"ĠBaptist":9045,"San":9046,"auty":9047,"making":9048,"alo":9049,"Ġstressed":9050,"iri":9051,"ĠBh":9052,"ardo":9053,"ocation":9054,"ulty":9055,"ĠIns":9056,"ĠBron":9057,"Ġextension":9058,"Ġchest":9059,"Ġtechnologies":9060,"Ġpleas":9061,"ĠIndianapolis":9062,"Ġthreats":9063,"Ġpromotion":9064,"Ġepis":9065,"Ġhurric":9066,"Ġprospect":9067,"ĠWells":9068,"ĠBirmingham":9069,"Ġours":9070,"Ġpap":9071,"Ġpowers":9072,"aro":9073,"Ġnights":9074,"Ġge":9075,"urst":9076,"ĠMun":9077,"ĠMets":9078,"ĠBand":9079,"Ġanonym":9080,"Ġ120":9081,"Ġranging":9082,"ĠTournament":9083,"ĠLad":9084,"ĠLaur":9085,"Ġsecured":9086,"Ġdeserv":9087,"incinn":9088,"viously":9089,"Ġjudicial":9090,"Ġreaders":9091,"Ġgenerate":9092,"Ġwindows":9093,"Ġrecognize":9094,"Ġpersu":9095,"Ġprotesters":9096,"ĠLawrence":9097,"Ġassessment":9098,"Ġresignation":9099,"Ġdialogue":9100,"Ġbarely":9101,"Ġatmosphere":9102,"815":9103,"950":9104,"aus":9105,"iated":9106,"uits":9107,"Ġ68":9108,"eries":9109,"Ġcraft":9110,"Ġbarg":9111,"ĠSix":9112,"Ġrugby":9113,"ĠDh":9114,"ĠFerr":9115,"ĠNat":9116,"ĠVen":9117,"Ġdisaster":9118,"Ġtherefore":9119,"ancellor":9120,"Ġgrants":9121,"771":9122,"772":9123,"ĠProject":9124,"Ġscoreless":9125,"Ġadministrative":9126,"Ġassociate":9127,"Ġsilver":9128,"Ġlobby":9129,"Ġwithdrawal":9130,"325":9131,"Bay":9132,"Count":9133,"Red":9134,"how":9135,"then":9136,"zen":9137,"atab":9138,"esus":9139,"Ġmos":9140,"Ġdaughters":9141,"Ġnerv":9142,"Ġforth":9143,"ĠCemetery":9144,"urf":9145,"ching":9146,"ĠProp":9147,"ĠLocal":9148,"Ġchip":9149,"Ġshock":9150,"Ġshoes":9151,"1990":9152,"Ġroster":9153,"overs":9154,"Ġinvestments":9155,"ĠSha":9156,"Ġdiscount":9157,"Ġinstru":9158,"Ġhappening":9159,"Ġfriendly":9160,"Ġsuccessfully":9161,"Ġcondem":9162,"Ġprobation":9163,"Ġcharity":9164,"Ġpacked":9165,"ĠMississ":9166,"Ġcontroversy":9167,"Ġnursing":9168,"ĠHussein":9169,"Ġclimbed":9170,"Ġjurors":9171,"ĠBarbara":9172,"ĠOklahoma":9173,"ĠSacramento":9174,"Ġobtained":9175,"Ġexclusive":9176,"375":9177,"978":9178,"auc":9179,"heim":9180,"Ġsy":9181,"Ġlies":9182,"Ġbeef":9183,"ĠSav":9184,"ĠCab":9185,"ĠMother":9186,"ĠRoc":9187,"Ġking":9188,"Ġreserve":9189,"Ġinters":9190,"Ġexplor":9191,"886":9192,"ĠMaria":9193,"ahoo":9194,"837":9195,"364":9196,"Ġrequests":9197,"ception":9198,"Ġquarterback":9199,"ĠEdward":9200,"ĠWarren":9201,"Ġencounter":9202,"Ġglad":9203,"Ġsearching":9204,"Ġcameras":9205,"warz":9206,"incinnati":9207,"360":9208,"916":9209,"finals":9210,"mission":9211,"Ġera":9212,"Ġisol":9213,"Ġyellow":9214,"ĠDod":9215,"ĠNev":9216,"apse":9217,"Ġkeen":9218,"Ġmeat":9219,"Ġnovel":9220,"836":9221,"Ġbelief":9222,"Ġslipped":9223,"374":9224,"Ġputs":9225,"Ġhitter":9226,"Ġboards":9227,"Ġargue":9228,"News":9229,"Ġcollaps":9230,"Ġeffectively":9231,"ĠSimon":9232,"ĠRoger":9233,"ĠPlanning":9234,"ĠGraham":9235,"ĠBulld":9236,"Ġelderly":9237,"Currently":9238,"970":9239,"VI":9240,"ui":9241,"uated":9242,"Ġing":9243,"Ġtiny":9244,"erb":9245,"Ġpages":9246,"lease":9247,"ĠSean":9248,"Ġforum":9249,"ĠCivil":9250,"urse":9251,"ĠMeth":9252,"aping":9253,"ubb":9254,"ĠInf":9255,"Ġimports":9256,"Ġassigned":9257,"Ġactor":9258,"Ġlegend":9259,"Who":9260,"Ġhomered":9261,"iveness":9262,"Ġtraveled":9263,"Ġtypical":9264,"Ġroutine":9265,"ĠPremiership":9266,"425":9267,"413":9268,"475":9269,"Jeff":9270,"Net":9271,"Work":9272,"cts":9273,"lad":9274,"inations":9275,"Ġhire":9276,"roe":9277,"ĠSri":9278,"ima":9279,"ĠIR":9280,"ĠHom":9281,"ĠFel":9282,"ĠNich":9283,"ively":9284,"Ġabroad":9285,"Ġoutdoor":9286,"iley":9287,"rene":9288,"Ġcommander":9289,"Ġcovers":9290,"887":9291,"ternal":9292,"Ġperforming":9293,"Ġspecialist":9294,"rolling":9295,"Ġbuyers":9296,"Ġblocked":9297,"ĠSwed":9298,"Ġentirely":9299,"Ġrecognition":9300,"ĠPoland":9301,"Ġangry":9302,"Ġconsistent":9303,"Ġsatellite":9304,"419":9305,"440":9306,"Are":9307,"TC":9308,"aired":9309,"father":9310,"uous":9311,"Ġtact":9312,"Ġpapers":9313,"Ġinmates":9314,"ĠABC":9315,"ĠPad":9316,"ĠID":9317,"agg":9318,"avel":9319,"ĠGirl":9320,"abeth":9321,"udson":9322,"anted":9323,"ĠChild":9324,"Ġrecording":9325,"Ġanybody":9326,"883":9327,"Ġhardly":9328,"Ġalongside":9329,"ĠSchiavo":9330,"Ġpubl":9331,"oppers":9332,"Ġbanned":9333,"Ġarrive":9334,"Ġlinks":9335,"winning":9336,"Ġlifted":9337,"Ġawa":9338,"ĠTiger":9339,"ĠClassic":9340,"Ġprincip":9341,"ĠCircuit":9342,"Ġprofessionals":9343,"625":9344,"775":9345,"925":9346,"Later":9347,"ext":9348,"Ġsear":9349,"ayed":9350,"Ġlights":9351,"ĠSky":9352,"ĠMick":9353,"owered":9354,"Ġrand":9355,"ĠIan":9356,"ĠRet":9357,"ĠLy":9358,"ikes":9359,"ĠVice":9360,"Ġrookie":9361,"Ġattitude":9362,"inder":9363,"ibilities":9364,"ĠArk":9365,"Ġdeliber":9366,"Ġlandsc":9367,"Mrs":9368,"Ġoccas":9369,"Ġdivid":9370,"etrole":9371,"Ġthreatening":9372,"Ġdemanding":9373,"Ġmessages":9374,"Ġexperiences":9375,"Ġfavourite":9376,"ernandez":9377,"atzinger":9378,"Ġabandoned":9379,"Ġfruit":9380,"Ġwelcomed":9381,"2000":9382,"340":9383,"495":9384,"870":9385,"920":9386,"RAN":9387,"Ġhel":9388,"ĠDur":9389,"ĠDiamond":9390,"ĠGa":9391,"ĠNavy":9392,"ĠKl":9393,"raid":9394,"ailand":9395,"Inc":9396,"Ġworksh":9397,"argo":9398,"anked":9399,"ĠInn":9400,"Ġcricket":9401,"Ġstrict":9402,"761":9403,"Ġsmart":9404,"ĠShan":9405,"Ġefficient":9406,"âĤ¬ÂĿ.":9407,"Ġdetain":9408,"Ġframe":9409,"Ġcamps":9410,"ĠBarry":9411,"Ġexpecting":9412,"Ġcontrols":9413,"Ġparticipated":9414,"Ġfairly":9415,"Ġbirds":9416,"Ġprimarily":9417,"Ġscientific":9418,"Ġmortgage":9419,"Ġmaintained":9420,"Ġempty":9421,"Ġverdict":9422,"319":9423,"399":9424,"499":9425,"630":9426,"740":9427,"member":9428,"ta":9429,"Ġburd":9430,"idency":9431,"ĠSgt":9432,"anded":9433,"ateur":9434,"Ġshops":9435,"acters":9436,"Ġrecall":9437,"Ġearning":9438,"Ġguidelines":9439,"Ġannounc":9440,"ĠLeon":9441,"Ġpromises":9442,"Ġinfield":9443,"Ġswept":9444,"Ġhosted":9445,"Ġmidfielder":9446,"ĠPalace":9447,"ĠMedia":9448,"Ġcharacters":9449,"Ġresolve":9450,"Ġrolled":9451,"Ġbattery":9452,"Ġcertific":9453,"Ġconstitu":9454,"etroleum":9455,"420":9456,"470":9457,"623":9458,"915":9459,"919":9460,"913":9461,"918":9462,"960":9463,"Geor":9464,"Me":9465,"bel":9466,"western":9467,"Â´":9468,"Ġtip":9469,"Ġfoul":9470,"Ġbath":9471,"Ġmap":9472,"stream":9473,"urches":9474,"ĠBeck":9475,"Ġseized":9476,"Ġcontribution":9477,"ĠVa":9478,"Ġinterp":9479,"ĠIndep":9480,"ĠAlaska":9481,"ĠMcL":9482,"Ġadvised":9483,"Ġpersonally":9484,"Ġdelight":9485,"Ġaffili":9486,"ĠCarr":9487,"Ġbadly":9488,"Ġinterviews":9489,"ĠMexican":9490,"Ġcalm":9491,"Ġfulf":9492,"Ġinitiatives":9493,"ĠDuncan":9494,"Ġtotally":9495,"ĠEconomic":9496,"Ġportfolio":9497,"315":9498,"418":9499,"429":9500,"410":9501,"430":9502,"448":9503,"465":9504,"435":9505,"490":9506,"640":9507,"724":9508,"727":9509,"845":9510,"917":9511,"910":9512,"Back":9513,"Oh":9514,"larg":9515,"Ġ/":9516,"eration":9517,"ori":9518,"Ġow":9519,"Ġbats":9520,"ilateral":9521,"aya":9522,"Ġloud":9523,"ĠSel":9524,"ĠCorn":9525,"etary":9526,"ĠMitchell":9527,"Ġank":9528,"ĠRoute":9529,"ĠTodd":9530,"ĠLi":9531,"okes":9532,"uren":9533,"anges":9534,"ashing":9535,"555":9536,"762":9537,"Ġlongtime":9538,"Ġfinds":9539,"Ġrealized":9540,"Ġharder":9541,"force":9542,"ynam":9543,"Ġconnected":9544,"ĠAlexander":9545,"Ġconstitutional":9546,"break":9547,"Ġdelegation":9548,"Ġtremend":9549,"329":9550,"310":9551,"365":9552,"395":9553,"415":9554,"468":9555,"438":9556,"620":9557,"675":9558,"816":9559,"820":9560,"830":9561,"880":9562,"924":9563,"975":9564,"938":9565,"965":9566,"Fire":9567,"Ġ73":9568,"orry":9569,"Ġcrown":9570,"Ġdu":9571,"Ġdil":9572,"Ġlaps":9573,"utr":9574,"ĠCrown":9575,"Ġstuck":9576,"ĠBa":9577,"Ġcomeb":9578,"ĠRidge":9579,"ĠTime":9580,"ĠGro":9581,"Ġchips":9582,"ĠNad":9583,"ections":9584,"elli":9585,"Ġoutlook":9586,"Ġunexpected":9587,"onduct":9588,"Ġovercome":9589,"Ġenable":9590,"ĠVill":9591,"Ġpeak":9592,"rowing":9593,"Ġsmooth":9594,"Ġmedium":9595,"Ġbroker":9596,"Ġpostp":9597,"Ġrent":9598,"Ġcollapse":9599,"prof":9600,"Ġmomentum":9601,"Ġshutout":9602,"ĠSuperintendent":9603,"Ġlabel":9604,"Ġparliamentary":9605,"Ġgrabbed":9606,"Ġdramatic":9607,"Ġunderstood":9608,"326":9609,"416":9610,"424":9611,"617":9612,"660":9613,"690":9614,"860":9615,"898":9616,"875":9617,"928":9618,"929":9619,"945":9620,"Members":9621,"TS":9622,"Us":9623,"WA":9624,"case":9625,"cious":9626,"inburgh":9627,"icon":9628,"Ġli":9629,"Ġlucky":9630,"Ġgreet":9631,"Ġeager":9632,"etter":9633,"ĠMax":9634,"changed":9635,"tha":9636,"ĠReb":9637,"acket":9638,"Ġaccidents":9639,"Ġstudying":9640,"aho":9641,"Ġdetained":9642,"Ġdetailed":9643,"ĠMcM":9644,"Ġemployed":9645,"ĠProv":9646,"Ġfinancing":9647,"Ġdrives":9648,"ĠEdwards":9649,"LES":9650,"Ġengineer":9651,"Ġmerch":9652,"Ġnecessarily":9653,"Ġcriticized":9654,"Ġpersp":9655,"ĠOlympics":9656,"Ġnomination":9657,"ĠBaltimore":9658,"328":9659,"414":9660,"613":9661,"616":9662,"618":9663,"770":9664,"765":9665,"824":9666,"840":9667,"914":9668,"923":9669,"927":9670,"930":9671,"940":9672,"Jud":9673,"Pre":9674,"TE":9675,"ci":9676,"cons":9677,"pan":9678,"reck":9679,"Ġcabinet":9680,"Ġfate":9681,"Ġbull":9682,"Ġhunt":9683,"stown":9684,"ĠAcc":9685,"Ġprobe":9686,"ĠHorn":9687,"essing":9688,"Ġcomprehensive":9689,"ĠOtt":9690,"Ġremarks":9691,"ĠArsenal":9692,"Ġ71":9693,"Ġdevelopments":9694,"Ġoperator":9695,"ĠCook":9696,"Ġhonest":9697,"Ġhotels":9698,"Ġadministrator":9699,"Ġlegislators":9700,"ĠRichmond":9701,"Ġcovering":9702,"Neither":9703,"Ġconsultant":9704,"Ġpulling":9705,"Ġexplosion":9706,"Ġrobbery":9707,"abetes":9708,"Students":9709,"370":9710,"423":9711,"428":9712,"426":9713,"460":9714,"445":9715,"478":9716,"614":9717,"627":9718,"648":9719,"715":9720,"720":9721,"730":9722,"825":9723,"810":9724,"878":9725,"865":9726,"885":9727,"968":9728,"935":9729,"Council":9730,"Iraq":9731,"La":9732,"Ġfare":9733,"Ġhang":9734,"Ġhike":9735,"icut":9736,"Ġluck":9737,"ĠSA":9738,"ĠCincinnati":9739,"ĠAgricult":9740,"thur":9741,"ework":9742,"Ġchamber":9743,"Ġvig":9744,"Ġexit":9745,"izabeth":9746,"appy":9747,"Ġpreserve":9748,"Ġslated":9749,"Ġdetention":9750,"Ġfunded":9751,"bek":9752,"ĠPlay":9753,"Ġconviction":9754,"Ġpenalties":9755,"Ġreferred":9756,"Ġdropping":9757,"Ġcivilian":9758,"Everyone":9759,"ĠPortland":9760,"Ġvacation":9761,"Ġnormally":9762,"ĠJustin":9763,"ergus":9764,"Ġexhibition":9765,"Ġaspects":9766,"Ġoptimistic":9767,"Prosecutors":9768,"ĠMississippi":9769,"%,":9770,"314":9771,"316":9772,"348":9773,"345":9774,"378":9775,"427":9776,"628":9777,"645":9778,"799":9779,"768":9780,"814":9781,"813":9782,"828":9783,"890":9784,"Bur":9785,"Min":9786,"don":9787,"fish":9788,"gun":9789,"sm":9790,"ski":9791,"Ġtort":9792,"Ġwake":9793,"itol":9794,"Ġpin":9795,"Ġmob":9796,"Ġthus":9797,"ĠAirlines":9798,"ĠBox":9799,"Ġalter":9800,"ĠDNA":9801,"Ġprojected":9802,"ĠRivers":9803,"Ġcharter":9804,"isting":9805,"ĠKirk":9806,"Ġmanner":9807,"aceut":9808,"ĠVo":9809,"ĠVeter":9810,"Ġstudio":9811,"lando":9812,"Ġguit":9813,"Ġfollows":9814,"Ġpitchers":9815,"Ġinfection":9816,"Ġdrunk":9817,"idding":9818,"Ġliked":9819,"ĠGrant":9820,"Ġmeters":9821,"Ġarrests":9822,"Ġcardinals":9823,"Ġownership":9824,"ĠPhilippines":9825,"Ġimagine":9826,"318":9827,"324":9828,"368":9829,"338":9830,"335":9831,"417":9832,"498":9833,"624":9834,"610":9835,"670":9836,"678":9837,"635":9838,"695":9839,"725":9840,"718":9841,"726":9842,"729":9843,"748":9844,"790":9845,"826":9846,"848":9847,"926":9848,"948":9849,"km":9850,"Ġburning":9851,"ayton":9852,"Ġlake":9853,"store":9854,"Ġease":9855,"ĠChen":9856,"ĠPine":9857,"ĠTro":9858,"ĠLock":9859,"ĠLopez":9860,"ĠNep":9861,"raising":9862,"Ġweigh":9863,"Ġenem":9864,"luding":9865,"ontiff":9866,"Ġdepos":9867,"Ġfalls":9868,"Ġdivided":9869,"holder":9870,"Ġunclear":9871,"ĠMotors":9872,"Ġtransferred":9873,"Ġburied":9874,"Ġimmigrants":9875,"ĠKeith":9876,"Ġessential":9877,"Ġaveraged":9878,"Ġtemperatures":9879,"Ġpraised":9880,"Ġsuddenly":9881,"ĠLinux":9882,"Ġrehabil":9883,"Democr":9884,"!\"":9885,"323":9886,"398":9887,"390":9888,"615":9889,"619":9890,"668":9891,"665":9892,"716":9893,"798":9894,"745":9895,"795":9896,"IG":9897,"MB":9898,"cats":9899,"rical":9900,"xic":9901,"Ġ95":9902,"levard":9903,"Ġlane":9904,"Ġforcing":9905,"Ġconce":9906,"ĠDor":9907,"ĠDomin":9908,"ĠTel":9909,"ĠTop":9910,"izer":9911,"Ġprovision":9912,"Ġrequiring":9913,"ĠDeL":9914,"ĠBoeing":9915,"Ġdesignated":9916,"ĠHarry":9917,"Ġcircuit":9918,"Ġattractive":9919,"Ġcopies":9920,"Ġexception":9921,"Ġrestrictions":9922,"ĠMurray":9923,"Second":9924,"Ġshelter":9925,"Ġdiagnosed":9926,"Ġbonus":9927,"Ġfolks":9928,"Richard":9929,"Ġburgl":9930,"Ġluxury":9931,"'.":9932,"327":9933,"626":9934,"629":9935,"699":9936,"698":9937,"638":9938,"719":9939,"714":9940,"713":9941,"717":9942,"723":9943,"710":9944,"778":9945,"823":9946,"829":9947,"895":9948,"zer":9949,"Ġ77":9950,"Ġfires":9951,"Ġpm":9952,"Ġhung":9953,"Ġrear":9954,"etr":9955,"ĠMason":9956,"ĠAp":9957,"ĠBrew":9958,"rien":9959,"rible":9960,"ĠDal":9961,"ĠDet":9962,"ĠRand":9963,"agu":9964,"ĠFal":9965,"ĠForm":9966,"ĠGib":9967,"umer":9968,"abwe":9969,"abbed":9970,"Ġshell":9971,"Ġroles":9972,"ĠThailand":9973,"Ġpreserv":9974,"ĠTheatre":9975,"eyer":9976,"ĠBrandon":9977,"Ġdiscrimin":9978,"Ġtransition":9979,"lining":9980,"Ġproducing":9981,"ĠSecond":9982,"Ġcorrespond":9983,"Ġterritory":9984,"imbabwe":9985,"Ġexpanding":9986,"Ġencouraging":9987,"ĠMaryland":9988,"Ġambassador":9989,"ĠMadison":9990,"Ġreserves":9991,"Ġeliminate":9992,"Ġhyd":9993,"Contact":9994,"Ġarrival":9995,"Ġsubstantial":9996,"Ġconspiracy":9997,"ĠQueensland":9998,"ĠBulldogs":9999,"Ġcomeback":10000,"525":10001,"728":10002,"738":10003,"817":10004,"818":10005,"827":10006,"Europ":10007,"with":10008,"Ġiron":10009,"inos":10010,"onso":10011,"Ġmine":10012,"Ġdatab":10013,"ĠCow":10014,"etic":10015,"ĠMaj":10016,"ĠBuff":10017,"ĠBuilding":10018,"Ġanc":10019,"ĠIÃ¢":10020,"ĠLove":10021,"oded":10022,"1980":10023,"abe":10024,"abad":10025,"Ġoutput":10026,"ĠChand":10027,"Ġsoil":10028,"Ġload":10029,"Ġinterior":10030,"ĠInformation":10031,"Ġbelt":10032,"Ġentit":10033,"Ġ74":10034,"641":10035,"Ġsubsequ":10036,"Ġopponent":10037,"ĠReuters":10038,"Ġdemol":10039,"Ġavo":10040,"ipper":10041,"Ġpickup":10042,"Ġviolation":10043,"Ġtreaty":10044,"Ġconsumption":10045,"Ġpeaceful":10046,"ĠLouisiana":10047,"Ġsustain":10048,"Ġguarantee":10049,"Ġaccompan":10050,"Ġtaxpayers":10051,"Ġafraid":10052,"550":10053,"735":10054,"899":10055,"868":10056,"838":10057,"Cr":10058,"IAN":10059,"mas":10060,"mers":10061,"xy":10062,"Ġhaul":10063,"Ġdict":10064,"ĠShel":10065,"acon":10066,"olt":10067,"Ġrape":10068,"Ġriders":10069,"ĠDrug":10070,"Ġspin":10071,"oker":10072,"Ġclothes":10073,"Ġexposed":10074,"aching":10075,"oga":10076,"Ġprayer":10077,"Ġteammate":10078,"athon":10079,"Ġimpl":10080,"ĠShar":10081,"Ġreception":10082,"Att":10083,"Ġcompetitors":10084,"Ġclassic":10085,"Ġpicking":10086,"Ġviolations":10087,"Ġhosts":10088,"Ġdeadly":10089,"Ġmeanwhile":10090,"Ġpromoting":10091,"Ġterrorists":10092,"Ġslowly":10093,"ĠBobby":10094,"Ġchallenging":10095,"Ġeliminated":10096,"ĠKnights":10097,"Ġunfair":10098,"Ġagriculture":10099,"ĠBraves":10100,"Ġresistance":10101,"Ġunveiled":10102,"Ġcocaine":10103,"819":10104,"835":10105,"HA":10106,"Sim":10107,"aeda":10108,"hitter":10109,"li":10110,"Ġty":10111,"inted":10112,"Ġfab":10113,"Ġinaug":10114,"stal":10115,"Ġbeauty":10116,"ĠCP":10117,"olics":10118,"Ġyes":10119,"estyle":10120,"Ġje":10121,"ĠUk":10122,"Ġcontained":10123,"actions":10124,"attan":10125,"Ġdetail":10126,"Ġbrown":10127,"Ġthoughts":10128,"Ġorganisation":10129,"ĠNorthwest":10130,"Ġprocessing":10131,"Ġideal":10132,"Ġstream":10133,"Ġstrengthen":10134,"Ġenterprise":10135,"ĠMuslims":10136,"Phil":10137,"Ġelements":10138,"Ġprocedure":10139,"Ġscenes":10140,"Ġstroke":10141,"gomery":10142,"Ġperspective":10143,"Bill":10144,"Det":10145,"Gar":10146,"Jim":10147,"Saturday":10148,"bi":10149,"bus":10150,"mont":10151,"wick":10152,"Ġsounds":10153,"ingly":10154,"Ġdont":10155,"Ġdump":10156,"Ġreduction":10157,"ulous":10158,"ĠUr":10159,"ĠUnder":10160,"Ġintense":10161,"Ġexposure":10162,"Ġendors":10163,"Ġplanes":10164,"Ann":10165,"Ġlegit":10166,"ĠCox":10167,"Ġvolunt":10168,"ĠEdinburgh":10169,"ĠOrange":10170,"STON":10171,"onnie":10172,"Ġmagn":10173,"Ġreveal":10174,"Ġcreative":10175,"Ġbarrels":10176,"Ġfrequently":10177,"Ġfortun":10178,"Ġanticipated":10179,"warzeneg":10180,"Af":10181,"EA":10182,"MI":10183,"Such":10184,"ba":10185,"cut":10186,"eaking":10187,"Ġwave":10188,"Ġwelfare":10189,"armed":10190,"alia":10191,"ĠAaron":10192,"ewhat":10193,"Ġspell":10194,"seeded":10195,"ĠKel":10196,"ĠKhan":10197,"venile":10198,"Ġscre":10199,"Ġboom":10200,"Ġfeared":10201,"Ġimposed":10202,"ucks":10203,"Ġdepend":10204,"Ġsignal":10205,"742":10206,"791":10207,"Ġprominent":10208,"ĠPrinc":10209,"Ġdifferences":10210,"Ġvaluable":10211,"Ġ1985":10212,"Ġadministrators":10213,"ĠBrother":10214,"Ġsemin":10215,"ĠSwiss":10216,"ĠControl":10217,"Ġtalented":10218,"ĠCollins":10219,"www":10220,"Ġcommunication":10221,"Ġpunishment":10222,"ĠToyota":10223,"ĠHughes":10224,"ĠGovernor":10225,"enezuel":10226,"Ob":10227,"TI":10228,"aire":10229,"keep":10230,"Ġwrest":10231,"Ġfier":10232,"Ġhyp":10233,"Ġdiet":10234,"Ġlad":10235,"ĠBat":10236,"ĠBears":10237,"ĠDame":10238,"ĠRub":10239,"ĠFisher":10240,"Ġvs":10241,"Ġsharing":10242,"Ġexempt":10243,"ĠEst":10244,"Ġappeals":10245,"ĠMarines":10246,"Ġ61":10247,"ullivan":10248,"642":10249,"phis":10250,"691":10251,"Asked":10252,"enna":10253,"Ġfiles":10254,"Ġlanding":10255,"Ġgirlfriend":10256,"Ġsugar":10257,"Ġadmission":10258,"Ġsurvive":10259,"Ġspecifically":10260,"Ġbatting":10261,"iciency":10262,"Ġupdate":10263,"ĠChapel":10264,"Ġarrangements":10265,"ĠLucas":10266,"Ġmonitoring":10267,"540":10268,"Finally":10269,"Russ":10270,"def":10271,"iy":10272,"mons":10273,"Ġwage":10274,"Ġcig":10275,"Ġcow":10276,"Ġcup":10277,"Ġhabit":10278,"idance":10279,"ayette":10280,"Ġlabour":10281,"ĠSr":10282,"ims":10283,"ĠBal":10284,"Ġrushed":10285,"ĠKyle":10286,"Ġexplo":10287,"Ġquot":10288,"Ġprev":10289,"Ġcarrier":10290,"Ġbrands":10291,"692":10292,"ĠZimbabwe":10293,"afe":10294,"ĠAthens":10295,"Ġrebels":10296,"Ġchallenged":10297,"ĠChampionships":10298,"Ġdemocratic":10299,"Ġsensitive":10300,"ĠSilver":10301,"ĠSafety":10302,"Ġchapter":10303,"Jackson":10304,"NYSE":10305,"opyright":10306,"Ġcollapsed":10307,"ĠMethod":10308,"Ġankle":10309,"erguson":10310,"570":10311,"535":10312,"Park":10313,"Rem":10314,"School":10315,"Ġfro":10316,"Ġbic":10317,"ingham":10318,"Ġmood":10319,"Ġdre":10320,"ĠMore":10321,"ĠPatt":10322,"osoph":10323,"ĠRa":10324,"ĠRap":10325,"ĠTen":10326,"ĠNiger":10327,"Ġdispl":10328,"Through":10329,"Ġundert":10330,"332":10331,"Ġmini":10332,"Ġbuses":10333,"Ġemail":10334,"Ġtrials":10335,"Ġ700":10336,"Ġtransform":10337,"Ġmilitant":10338,"Ġsky":10339,"Ġvalid":10340,"scale":10341,"Ġcaution":10342,"Ġviewers":10343,"ĠAmb":10344,"Ġadmits":10345,"ĠResources":10346,"Ġpremier":10347,"Ġindependence":10348,"Ġbullp":10349,"ĠAhmad":10350,"ĠPhillips":10351,"ĠSusan":10352,"Ġentrance":10353,"Ġunemployment":10354,"ĠConnecticut":10355,"513":10356,"518":10357,"580":10358,"Ac":10359,"DS":10360,"Six":10361,"inity":10362,"Ġbone":10363,"Ġpays":10364,"Ġhip":10365,"ĠAy":10366,"ĠAub":10367,"Ġrig":10368,"ĠGene":10369,"ocated":10370,"Ġloose":10371,"ollar":10372,"Ġembr":10373,"ĠSpace":10374,"Ġfaculty":10375,"ĠConstitution":10376,"Ġcontractor":10377,"Ġ1988":10378,"helle":10379,"Ġguns":10380,"ĠPartners":10381,"Ġanswered":10382,"Ġsubstance":10383,"handed":10384,"ĠHunter":10385,"Ġfurniture":10386,"warzenegger":10387,"560":10388,"Big":10389,"OS":10390,"but":10391,"hurst":10392,"Ġwalls":10393,"orer":10394,"Ġfitness":10395,"Ġnom":10396,"Ġgambling":10397,"ĠSi":10398,"ĠSat":10399,"ĠCher":10400,"aments":10401,"illen":10402,"Ġramp":10403,"than":10404,"Ġlease":10405,"Ġshore":10406,"Ġshall":10407,"acking":10408,"ĠKrist":10409,"Ġclar":10410,"Ġincred":10411,"Ġcancel":10412,"Ġcontribute":10413,"Ġpartly":10414,"331":10415,"Ġimplic":10416,"Ġdiscover":10417,"ĠReid":10418,"Ġedition":10419,"Ġobst":10420,"ĠAlliance":10421,"Ġchoices":10422,"Ġsponsor":10423,"iques":10424,"Ġbags":10425,"Ġaffordable":10426,"Ġburned":10427,"Ġsustained":10428,"Ġagricultural":10429,"General":10430,"516":10431,"523":10432,"530":10433,"548":10434,"595":10435,"585":10436,"Further":10437,"OW":10438,"RM":10439,"bane":10440,"ded":10441,"will":10442,"Ġtorn":10443,"orate":10444,"Ġcattle":10445,"eding":10446,"leading":10447,"Ġec":10448,"olly":10449,"amo":10450,"etown":10451,"ĠAP":10452,"Ġproof":10453,"ĠWade":10454,"ĠHans":10455,"ĠLab":10456,"ĠGrove":10457,"Ġchurches":10458,"ĠNik":10459,"erez":10460,"ĠKr":10461,"Ġadvent":10462,"Ġboge":10463,"Ġinvasion":10464,"hips":10465,"741":10466,"Ġwrit":10467,"ĠIraqis":10468,"Ġlesson":10469,"Ġfutures":10470,"Ġpicks":10471,"Ġtourist":10472,"Ġkinds":10473,"ĠMartinez":10474,"Ġpainting":10475,"ĠGlen":10476,"Ġcrossed":10477,"Ġbombing":10478,"Ġoversee":10479,"ĠFrancis":10480,"Ġbedroom":10481,"Ġrepeat":10482,"ĠPalestinians":10483,"Ġchemical":10484,"Ġreliever":10485,"Ġvenue":10486,"ĠNASCAR":10487,"ĠShiite":10488,"Ġaccompanied":10489,"517":10490,"520":10491,"575":10492,"565":10493,"967":10494,"James":10495,"Nearly":10496,"face":10497,"iary":10498,"ture":10499,"heastern":10500,"Ġpinch":10501,"ĠSoutheast":10502,"elves":10503,"ĠBishop":10504,"ĠPerry":10505,"ĠHu":10506,"Ġlect":10507,"umi":10508,"ĠEp":10509,"ĠKal":10510,"ĠUp":10511,"ported":10512,"ousing":10513,"Ġprovincial":10514,"Ġcapabilities":10515,"792":10516,"Ġformerly":10517,"Ġveto":10518,"Ġobtain":10519,"Ġhardware":10520,"Ġspokesperson":10521,"header":10522,"Ġreasonable":10523,"Ġgenerated":10524,"ĠPatrol":10525,"Ġwinds":10526,"Ġindicate":10527,"Ġpersons":10528,"Ġrelationships":10529,"ĠMadrid":10530,"ĠPeters":10531,"Ġtouchdown":10532,"Ġgarage":10533,"ĠIdaho":10534,"ĠBroadway":10535,"fortunately":10536,"Ġhurdles":10537,"Ġtremendous":10538,"Ġbullpen":10539,"347":10540,"599":10541,"Ear":10542,"Mal":10543,"election":10544,"lock":10545,"oir":10546,"uition":10547,"Â±":10548,"Ġsits":10549,"omed":10550,"Ġreun":10551,"Ġreducing":10552,"Ġlocked":10553,"Ġgif":10554,"ĠBenn":10555,"ulance":10556,"riors":10557,"ĠRatzinger":10558,"ĠNap":10559,"Ġclimate":10560,"802":10561,"ĠThis":10562,"Ġcarries":10563,"ucker":10564,"Ġhandled":10565,"arsity":10566,"Ġoperated":10567,"riends":10568,"Ġsomewhat":10569,"Ġequival":10570,"Ġmodest":10571,"Ġclosure":10572,"ĠChristopher":10573,"Ġdivor":10574,"Ġsufficient":10575,"Ġinterviewed":10576,"Ġattempting":10577,"Ġminds":10578,"Ġdisappointing":10579,"Ġretailers":10580,"ĠInterstate":10581,"Ġstrikes":10582,"ĠArabia":10583,"Ġelev":10584,"Ġconversation":10585,"Ġpledged":10586,"Smith":10587,"Ġtherapy":10588,"ĠOntario":10589,"Ġoverwhelming":10590,"Ġtouched":10591,"Ġburden":10592,"515":10593,"514":10594,"598":10595,"578":10596,"BE":10597,"CD":10598,"len":10599,"pat":10600,"wart":10601,"arraf":10602,"Ġthin":10603,"Ġlatter":10604,"stan":10605,"Ġheight":10606,"ĠPirates":10607,"herlands":10608,"ĠRac":10609,"ĠLuther":10610,"ista":10611,"Ġjet":10612,"ĠKings":10613,"Ġadequ":10614,"Ġclash":10615,"Ġincorpor":10616,"ĠNewcastle":10617,"Ġchildhood":10618,"Ġguidance":10619,"alez":10620,"Ġlegacy":10621,"ĠRover":10622,"ĠMcDonald":10623,"errill":10624,"ĠOrlando":10625,"ĠSyrian":10626,"square":10627,"Ġintroduce":10628,"ĠCatholics":10629,"Israel":10630,"Ġescaped":10631,"ĠOrganization":10632,"ĠEnvironmental":10633,"Ġrallied":10634,"anchez":10635,"467":10636,"463":10637,"519":10638,"527":10639,"510":10640,"545":10641,"568":10642,"697":10643,"963":10644,"943":10645,"Good":10646,"cott":10647,"hill":10648,"range":10649,"onial":10650,"Ġhaz":10651,"Ġlanes":10652,"Ġgear":10653,"ĠSony":10654,"ĠMerc":10655,"Ġsaving":10656,"ĠAM":10657,"charge":10658,"ĠPed":10659,"ĠPrix":10660,"ulating":10661,"ĠDat":10662,"ĠRun":10663,"ĠTroy":10664,"aga":10665,"avez":10666,"ĠHudson":10667,"ĠNHL":10668,"Ġshar":10669,"ĠEmer":10670,"ĠUz":10671,"Ġknock":10672,"Ġdonation":10673,"Ġopposite":10674,"Ġspoken":10675,"Ġlistening":10676,"Ġformat":10677,"Ġmuscle":10678,"Ġresulting":10679,"ĠWarner":10680,"Ġcompliance":10681,"Ġbroadband":10682,"Scott":10683,"Ġmistakes":10684,"Ġratings":10685,"Ġlobb":10686,"Ġblew":10687,"olitan":10688,"ĠVictoria":10689,"ĠDisney":10690,"ĠBoulevard":10691,"ĠMethodist":10692,"493":10693,"538":10694,"590":10695,"643":10696,"744":10697,"773":10698,"873":10699,"947":10700,"AF":10701,"Bob":10702,"ICA":10703,"Serv":10704,"Whe":10705,"Ġtears":10706,"Ġwore":10707,"aters":10708,"asy":10709,"Ġmath":10710,"iche":10711,"rock":10712,"irac":10713,"iration":10714,"ĠAud":10715,"charg":10716,"through":10717,"Ġconvention":10718,"Ġproven":10719,"ĠRest":10720,"ĠTed":10721,"ĠTar":10722,"ĠWhe":10723,"Ġchicken":10724,"quer":10725,"ĠUl":10726,"Ġupgrade":10727,"ailey":10728,"team":10729,"Ġdesert":10730,"Ġdepending":10731,"Ġ84":10732,"ĠCommon":10733,"Ġrestruct":10734,"Ġadviser":10735,"Ġbasically":10736,"ĠSchools":10737,"Chris":10738,"Ġelabor":10739,"Ġinvestigations":10740,"Ġanaly":10741,"ĠCorps":10742,"ĠAngels":10743,"Ġemerging":10744,"Ġdrafted":10745,"ĠCapitol":10746,"Ġclinic":10747,"ĠAhmed":10748,"Ġodds":10749,"Ġconclusion":10750,"ĠBryan":10751,"ĠPierce":10752,"ĠBulls":10753,"Ġtroubled":10754,"Ġsubscri":10755,"524":10756,"528":10757,"526":10758,"944":10759,"low":10760,"ras":10761,"oner":10762,"Ġfisher":10763,"Ġpontiff":10764,"Ġdiesel":10765,"ĠCabinet":10766,"olo":10767,"ĠBor":10768,"ĠFinal":10769,"ĠLank":10770,"ĠLLC":10771,"uman":10772,"Ġtrig":10773,"Ġunn":10774,"izz":10775,"issa":10776,"801":10777,"teen":10778,"Ġslip":10779,"Ġrestore":10780,"ĠColomb":10781,"Ġpromising":10782,"Ġhomeless":10783,"Ġballots":10784,"Ġformally":10785,"Ġmothers":10786,"Ġbreakfast":10787,"Ġhostage":10788,"Ġcompletion":10789,"Ġpublish":10790,"Ġfocusing":10791,"Ġjailed":10792,"Ġhearings":10793,"Ġlifetime":10794,"Ġorganizers":10795,"Ġtrainer":10796,"ĠNetherlands":10797,"Ġinsurgency":10798,"Ġburst":10799,"breaking":10800,"Ġbowl":10801,"Ġharass":10802,"Ġprospects":10803,"Ġphotographs":10804,"Ġblog":10805,"Ġcategories":10806,"ĠDuke":10807,"Ġsparked":10808,"Ġprescription":10809,"ĠBaseball":10810,"ĠNevada":10811,"367":10812,"397":10813,"667":10814,"693":10815,"767":10816,"747":10817,"863":10818,"893":10819,"877":10820,"DR":10821,"och":10822,"ridge":10823,"inery":10824,"Ġwreck":10825,"Ġbom":10826,"isan":10827,"omy":10828,"enton":10829,"Ġlying":10830,"Ġnort":10831,"ece":10832,"ĠBond":10833,"ĠHamp":10834,"ĠLive":10835,"Ġjew":10836,"Ġspan":10837,"ĠStaff":10838,"iah":10839,"ĠOri":10840,"Ġovertime":10841,"Ġmeal":10842,"Ġboats":10843,"Ġbacking":10844,"Ġregions":10845,"Ġasset":10846,"Ġcarriers":10847,"Ġcourtroom":10848,"ĠNationals":10849,"Ġtownship":10850,"Ġconsideration":10851,"eremy":10852,"Ġboxes":10853,"zza":10854,"ĠBelg":10855,"Ġconservation":10856,"abbing":10857,"Ġprizes":10858,"reprene":10859,"brook":10860,"Ġrapidly":10861,"Ġhunting":10862,"Ġuniversities":10863,"ĠStandard":10864,"Sometimes":10865,"Ġinnocent":10866,"Ġvulnerable":10867,"Ġourselves":10868,"Ġguitar":10869,"1000":10870,"363":10871,"343":10872,"393":10873,"373":10874,"497":10875,"529":10876,"588":10877,"663":10878,"763":10879,"843":10880,"847":10881,"Fore":10882,"hattan":10883,"raska":10884,"sky":10885,"Ġtables":10886,"eron":10887,"Ġsid":10888,"Ġsued":10889,"Ġwages":10890,"isk":10891,"Ġpond":10892,"Ġreiter":10893,"Ġlined":10894,"ĠMack":10895,"ĠMills":10896,"owing":10897,"ĠBon":10898,"ĠPear":10899,"Ġ110":10900,"ĠDanny":10901,"ĠRacing":10902,"ĠGun":10903,"Ġchase":10904,"ĠNav":10905,"umin":10906,"berry":10907,"Ġintens":10908,"Ġmeals":10909,"ĠVenezuel":10910,"1200":10911,"Ġdeciding":10912,"Ġassured":10913,"Ġtakeover":10914,"ĠArn":10915,"369":10916,"Ġserver":10917,"Ġsubmit":10918,"Ġreleg":10919,"Ġagreements":10920,"Ġquarterly":10921,"Ġstops":10922,"Ġstrip":10923,"Ġdoubleheader":10924,"Ġhopeful":10925,"Ġpromoted":10926,"Ġsalaries":10927,"Ġcivilians":10928,"Ġretailer":10929,"Ġattracted":10930,"Ġaims":10931,"India":10932,"Ġsurrounded":10933,"Ġexhibit":10934,"ĠConservative":10935,"Ġmotorcycle":10936,"Ġaggrav":10937,"ĠSudan":10938,"644":10939,"797":10940,"743":10941,"867":10942,"833":10943,"Hen":10944,"mother":10945,"rat":10946,"oup":10947,"ĠMort":10948,"ĠBest":10949,"aints":10950,"ĠHisp":10951,"ĠJesus":10952,"ocese":10953,"Ġgoalk":10954,"ĠKan":10955,"Ġunw":10956,"Ġanyway":10957,"iously":10958,"851":10959,"852":10960,"ierre":10961,"Ġflaw":10962,"Ġinsists":10963,"ÅĵIt":10964,"Ġfacts":10965,"Ġprofile":10966,"perform":10967,"Ġorganised":10968,"Ġsituations":10969,"etta":10970,"ERS":10971,"ĠSuns":10972,"Ġcrowds":10973,"ĠRegion":10974,"Ġremembered":10975,"Ġbullet":10976,"Ġrecommendation":10977,"Ġachievement":10978,"Ġappreciate":10979,"LOS":10980,"Ġdistributed":10981,"ĠVerizon":10982,"thirds":10983,"usalem":10984,"Ġorganisations":10985,"Cor":10986,"Nor":10987,"PC":10988,"bacco":10989,"jan":10990,"Ġtobacco":10991,"otal":10992,"Ġstun":10993,"Ġstability":10994,"emic":10995,"ĠWol":10996,"ĠLisa":10997,"ĠNasdaq":10998,"istol":10999,"aby":11000,"Ġtrash":11001,"ava":11002,"Ġpride":11003,"inking":11004,"ĠIndex":11005,"Ġdepth":11006,"ĠReed":11007,"Ġrefuge":11008,"Ġinternet":11009,"Ġbreaks":11010,"Ġsuggesting":11011,"Ġengineers":11012,"ĠMemphis":11013,"Ġinspired":11014,"Ġmotorists":11015,"ĠMelbourne":11016,"Ġproceedings":11017,"Ġintegrated":11018,"GELES":11019,"ĠSarah":11020,"Ġmethods":11021,"Ġvirtually":11022,"Ġearthqu":11023,"ĠHeart":11024,"ĠPutin":11025,"Ġintersection":11026,"344":11027,"647":11028,"793":11029,"844":11030,"897":11031,"Never":11032,"Please":11033,"page":11034,"Ġtopped":11035,"Ġhug":11036,"leet":11037,"aman":11038,"otic":11039,"una":11040,"ĠBy":11041,"ĠBend":11042,"ĠRanch":11043,"ĠLen":11044,"ĠLang":11045,"Ġshirt":11046,"ounce":11047,"1999":11048,"1970":11049,"1995":11050,"ĠKey":11051,"Ġunh":11052,"Ġamounts":11053,"ĠThree":11054,"oyle":11055,"usharraf":11056,"Ġreceiver":11057,"Ġ1960":11058,"Ġcheer":11059,"Ġraises":11060,"Ġoldest":11061,"Ġlessons":11062,"ĠPrice":11063,"Ġsenators":11064,"Ġsuccessor":11065,"Ġcredits":11066,"ĠElizabeth":11067,"Ġthrows":11068,"Ġdiseases":11069,"Ġembassy":11070,"Ġsympt":11071,"ĠLuis":11072,"Ġethnic":11073,"achelor":11074,"Ġswimming":11075,"ĠANGELES":11076,"Ġenthusi":11077,"ĠCruz":11078,"Ġtougher":11079,"Ġphilosoph":11080,"AK":11081,"Jones":11082,"Rel":11083,"school":11084,"Ġ78":11085,"Ġtor":11086,"Ġaer":11087,"Ġsamples":11088,"rets":11089,"Ġcraz":11090,"Ġtoler":11091,"Ġmakers":11092,"Ġdual":11093,"Ġreference":11094,"Ġnurse":11095,"ĠSym":11096,"ĠMS":11097,"riots":11098,"ĠRain":11099,"ĠFer":11100,"ĠGreek":11101,"Ġships":11102,"Ġshipping":11103,"2555":11104,"1998":11105,"2755":11106,"quet":11107,"2055":11108,"ghai":11109,"ĠKa":11110,"ĠStat":11111,"ĠOm":11112,"ensen":11113,"ropolitan":11114,"379":11115,"ĠSpe":11116,"Ġmilk":11117,"Char":11118,"Chief":11119,"Ġengaged":11120,"Ġrevolution":11121,"market":11122,"ĠRichardson":11123,"ĠGreens":11124,"McC":11125,"Ġconsulting":11126,"Ġdisplayed":11127,"Ġsymp":11128,"Ġcolleges":11129,"ĠCuba":11130,"Ġupdated":11131,"Ġnurses":11132,"ĠIndustry":11133,"Ġpregnant":11134,"Ġmutual":11135,"Williams":11136,"Ġpublisher":11137,"Ġentitled":11138,"ĠHispan":11139,"377":11140,"866":11141,"AB":11142,"Up":11143,"VP":11144,"kers":11145,"sl":11146,"Ġsisters":11147,"Ġcycle":11148,"Ġbun":11149,"Ġmo":11150,"omo":11151,"ayne":11152,"Ġlawn":11153,"ĠSlo":11154,"ether":11155,"ĠPGA":11156,"ĠPowell":11157,"Ġconcess":11158,"ĠRail":11159,"ĠFerguson":11160,"1855":11161,"2355":11162,"2955":11163,"antan":11164,"erek":11165,"Ġclock":11166,"Ġshed":11167,"Ġdisorder":11168,"2200":11169,"2224":11170,"iban":11171,"Ġstatewide":11172,"Ġregulation":11173,"Ang":11174,"shore":11175,"Ġtransaction":11176,"Ġmetres":11177,"ĠManhattan":11178,"Ġhumans":11179,"Ġsectors":11180,"Ġanswers":11181,"Ġrequirement":11182,"Ġmatched":11183,"Ġcapture":11184,"Ġcitizen":11185,"Ġautomatically":11186,"arrass":11187,"Ġjournalist":11188,"ĠColumbus":11189,"Ġdeparture":11190,"communications":11191,"Ġcouples":11192,"Ġpreparation":11193,"Ġsurvivors":11194,"Del":11195,"Much":11196,"Port":11197,"court":11198,"di":11199,"gow":11200,"jo":11201,"rum":11202,"Ġtail":11203,"Ġwides":11204,"Ġmaj":11205,"omer":11206,"adi":11207,"ĠSalt":11208,"ĠAren":11209,"Ġanx":11210,"uls":11211,"Ġvarsity":11212,"1555":11213,"2500":11214,"1955":11215,"1400":11216,"1455":11217,"1355":11218,"1755":11219,"1655":11220,"2855":11221,"2655":11222,"1055":11223,"Ġabortion":11224,"Ġtraged":11225,"ĠtheyÃ¢":11226,"irez":11227,"Health":11228,"avor":11229,"ounding":11230,"1100":11231,"1224":11232,"Ġconsensus":11233,"884":11234,"839":11235,"Ġlottery":11236,"Ġpersonality":11237,"Ġswit":11238,"income":11239,"Christ":11240,"Ġpostseason":11241,"ĠBarn":11242,"Ġjudgment":11243,"Ġenjoying":11244,"Ġacquire":11245,"Ġdisappeared":11246,"Ġbombs":11247,"imbled":11248,"ĠSuperior":11249,"Ġrolling":11250,"ĠNext":11251,"Residents":11252,"Ġmoderate":11253,"GM":11254,"Given":11255,"Sy":11256,"cap":11257,"iour":11258,"ties":11259,"uz":11260,"Ġtear":11261,"itarian":11262,"Ġbids":11263,"arn":11264,"Ġnose":11265,"Ġbell":11266,"ambers":11267,"igious":11268,"ĠMCI":11269,"Ġanch":11270,"Ġanger":11271,"Ġrice":11272,"Ġcong":11273,"eston":11274,"ĠHat":11275,"ĠNY":11276,"istent":11277,"ivic":11278,"1600":11279,"Ġjoy":11280,"Ġtra":11281,"ĠOil":11282,"Ġfined":11283,"1115":11284,"1124":11285,"1123":11286,"1127":11287,"2218":11288,"1213":11289,"1218":11290,"1228":11291,"1229":11292,"Ġbackup":11293,"Ġstudied":11294,"Ġindeed":11295,"881":11296,"ĠBrig":11297,"362":11298,"371":11299,"372":11300,"341":11301,"342":11302,"Ġhomers":11303,"Ġposts":11304,"Ġcream":11305,"Ġgrades":11306,"tainment":11307,"Ġgrandchildren":11308,"Ġrevised":11309,"Ġfilling":11310,"ĠMontgomery":11311,"Ġextraordin":11312,"Ġcrossing":11313,"Ġroutes":11314,"Ġceremonies":11315,"Ġdiabetes":11316,"Ġhistorical":11317,"ĠMalaysian":11318,"Ġtrailer":11319,"Ġproceeds":11320,"ĠTurkish":11321,"Ġgallon":11322,"Ġarguments":11323,"ĠLynn":11324,"Ġurging":11325,"Ġbreath":11326,"Ġemplo":11327,"ĠJerusalem":11328,"Ġmicro":11329,"Ġliquid":11330,"ĠPanthers":11331,"ĠVeterans":11332,"03":11333,"366":11334,"des":11335,"hor":11336,"haul":11337,"mid":11338,"pts":11339,"power":11340,"uis":11341,"Ġid":11342,"Ġtheory":11343,"Ġbands":11344,"Ġbacter":11345,"Ġphen":11346,"Ġlung":11347,"Ġgate":11348,"Ġstamp":11349,"ĠBad":11350,"Ġranch":11351,"Ġcomedy":11352,"ĠRas":11353,"ĠRaj":11354,"Ġarena":11355,"1950":11356,"1960":11357,"umph":11358,"rys":11359,"1125":11360,"1114":11361,"1113":11362,"1117":11363,"1118":11364,"1128":11365,"1126":11366,"1129":11367,"Ġloves":11368,"2215":11369,"2214":11370,"2213":11371,"2217":11372,"2223":11373,"2228":11374,"2226":11375,"2227":11376,"2229":11377,"1215":11378,"1225":11379,"1214":11380,"1217":11381,"1223":11382,"1226":11383,"1227":11384,"Ġknife":11385,"2124":11386,"2126":11387,"2129":11388,"Ġdefended":11389,"Ġbrut":11390,"ĠShah":11391,"361":11392,"392":11393,"Ġprotected":11394,"Ġconstant":11395,"Ġinvolves":11396,"8217":11397,"ĠBook":11398,"Ġaudit":11399,"rosse":11400,"Ġprotecting":11401,"Officers":11402,"Ġteenagers":11403,"ĠClarke":11404,"Ġpreferred":11405,"ĠTyler":11406,"Ġrecovering":11407,"ĠFederation":11408,"Robert":11409,"Ġconverted":11410,"Ġcoinc":11411,"ĠLaura":11412,"ĠUzbek":11413,"Ġrestructuring":11414,"imbledon":11415,"Business":11416,"Card":11417,"Par":11418,"wing":11419,"walk":11420,"Ġtab":11421,"Ġtired":11422,"organ":11423,"olved":11424,"ĠBald":11425,"ĠPack":11426,"ĠRights":11427,"ĠTa":11428,"ĠTit":11429,"open":11430,"ĠLam":11431,"ĠGill":11432,"ĠNBC":11433,"endar":11434,"1945":11435,"2013":11436,"ĠExt":11437,"Ġsegment":11438,"pposition":11439,"Ġbutton":11440,"Ġexpense":11441,"Ġcontaining":11442,"Ġenroll":11443,"1116":11444,"1110":11445,"2225":11446,"2216":11447,"2210":11448,"1216":11449,"1210":11450,"Ġsupple":11451,"2100":11452,"2115":11453,"2125":11454,"2113":11455,"2117":11456,"2118":11457,"2123":11458,"2128":11459,"2127":11460,"889":11461,"Ġcentres":11462,"Ġcourthouse":11463,"Ġinvestor":11464,"ĠAnne":11465,"ologists":11466,"Ġhometown":11467,"Ġsexually":11468,"Ġreligion":11469,"Ġteenager":11470,"Friday":11471,"Ġbriefly":11472,"ĠClem":11473,"Overall":11474,"Ġbenchmark":11475,"ĠLebanese":11476,"Ġpurposes":11477,"ĠAshley":11478,"ĠProtection":11479,"Ġcomparison":11480,"Ġincentives":11481,"Ġconsequences":11482,"EE":11483,"bishop":11484,"lon":11485,"lights":11486,"pread":11487,"Ġtons":11488,"Ġtuition":11489,"inho":11490,"atched":11491,"Ġmall":11492,"acent":11493,"ĠCancer":11494,"ĠheÃ¢":11495,"ĠMach":11496,"ĠMaster":11497,"ĠHan":11498,"ĠLiving":11499,"ĠNancy":11500,"1978":11501,"1985":11502,"2455":11503,"quo":11504,"ĠEth":11505,"Ġsequ":11506,"Ġintim":11507,"Intern":11508,"Ġqual":11509,"Ġcooking":11510,"Ġrepairs":11511,"2114":11512,"2116":11513,"Ġassass":11514,"Ġbusinessman":11515,"834":11516,"Ġsmugg":11517,"Ġslot":11518,"Ġsignals":11519,"Ġcaps":11520,"Ġemployer":11521,"Ġforever":11522,"Ġcontractors":11523,"ĠdoesnÃ¢":11524,"Ġreplacing":11525,"ributed":11526,"Ġthousand":11527,"Ġdeeply":11528,"Ġdetectives":11529,"ĠArmstrong":11530,"ĠArkansas":11531,"Ġequivalent":11532,"Carl":11533,"MAN":11534,"Tw":11535,"fts":11536,"oa":11537,"rac":11538,"rine":11539,"serv":11540,"Ġcous":11541,"Ġbidding":11542,"Ġpod":11543,"arms":11544,"Ġhill":11545,"utter":11546,"ĠSP":11547,"Ġhes":11548,"imm":11549,"illance":11550,"ĠPot":11551,"ĠFA":11552,"ĠFall":11553,"ĠLes":11554,"1928":11555,"2035":11556,"ante":11557,"ĠStorm":11558,"ĠStrip":11559,"Ġclay":11560,"ĠOK":11561,"ĠOver":11562,"ika":11563,"Ġpricing":11564,"Ġdecent":11565,"Ġleadoff":11566,"Ġretain":11567,"2110":11568,"Ġbrill":11569,"Ġactress":11570,"Ġwanting":11571,"ĠBrid":11572,"Ġ81":11573,"Ġcarefully":11574,"Ġsinging":11575,"Ġextreme":11576,"offs":11577,"ĠAndre":11578,"ĠManila":11579,"ĠChristmas":11580,"Ġengines":11581,"Ġsuggestions":11582,"ĠPakistani":11583,"Indeed":11584,"ĠJews":11585,"Ġimplementation":11586,"Ġrecruiting":11587,"ĠHeritage":11588,"ĠPhilippine":11589,"Ġspiritual":11590,"Ġdiplomatic":11591,"ĠBernard":11592,"turned":11593,"Ġtrophy":11594,"ĠAstros":11595,"Ġfundamental":11596,"ĠSpeedway":11597,"ĠDodgers":11598,"Ġsharply":11599,"466":11600,"HE":11601,"Ham":11602,"JP":11603,"Lead":11604,"Pod":11605,"Sal":11606,"hart":11607,"nan":11608,"Ġsyn":11609,"Ġfoster":11610,"Ġbuck":11611,"Ġhanging":11612,"ĠSEC":11613,"ellect":11614,"ĠBeth":11615,"ĠPop":11616,"ĠPage":11617,"Ġrom":11618,"ĠRah":11619,"ĠTs":11620,"ĠTob":11621,"ĠFather":11622,"ĠGas":11623,"1900":11624,"1948":11625,"1968":11626,"1965":11627,"2030":11628,"2068":11629,"2038":11630,"ĠEqu":11631,"Ġaboard":11632,"ĠKil":11633,"Ġresum":11634,"Ġacceler":11635,"angle":11636,"anches":11637,"Ġanymore":11638,"ovich":11639,"Ġreluct":11640,"ĠBlues":11641,"Ġmarch":11642,"Ġfeelings":11643,"resentatives":11644,"ĠPlaza":11645,"Ġcelebrating":11646,"ĠBilly":11647,"Ġplanted":11648,"Ġcircle":11649,"ĠJimmy":11650,"Ġpollution":11651,"ttp":11652,"Ġembry":11653,"Ġregardless":11654,"ĠPolish":11655,"Ġbirdie":11656,"Ġnominated":11657,"ĠMPs":11658,"Seven":11659,"Ġordinary":11660,"ĠAbdullah":11661,"ĠMahm":11662,"Ġjuvenile":11663,"ĠDubai":11664,"Ġsewer":11665,"ĠAthletic":11666,"largest":11667,"376":11668,"573":11669,"766":11670,"Alex":11671,"Brien":11672,"Gl":11673,"National":11674,"wait":11675,"Ġtips":11676,"Ġfest":11677,"Ġfault":11678,"Ġbunt":11679,"around":11680,"Ġhiding":11681,"Ġdub":11682,"omic":11683,"storm":11684,"olas":11685,"ĠMalt":11686,"ecess":11687,"ĠBrent":11688,"Ġpros":11689,"ĠTerr":11690,"ĠWimbledon":11691,"1915":11692,"1913":11693,"1917":11694,"1924":11695,"1923":11696,"1975":11697,"1938":11698,"2800":11699,"2099":11700,"2098":11701,"2048":11702,"2045":11703,"2078":11704,"2095":11705,"Ġads":11706,"uccess":11707,"inda":11708,"inding":11709,"obb":11710,"Ġunderw":11711,"ĠThai":11712,"othy":11713,"Ġ79":11714,"Ġprogrammes":11715,"ĠIndy":11716,"Ġpayroll":11717,"Ġgenu":11718,"ĠMcN":11719,"Ġpastor":11720,"Ġuseful":11721,"Ġshortage":11722,"ĠHarrison":11723,"ĠPlayer":11724,"Ġsafely":11725,"Ġnonprofit":11726,"Ġmidnight":11727,"Ġresolved":11728,"Ġsuits":11729,"Ġflags":11730,"Ġstrategies":11731,"ĠTriple":11732,"ĠConservatives":11733,"ĠTaliban":11734,"ernando":11735,"Ġeggs":11736,"Daniel":11737,"ĠShanghai":11738,"ĠOttawa":11739,"544":11740,"567":11741,"CE":11742,"CS":11743,"Long":11744,"bage":11745,"oz":11746,"Ġwal":11747,"Ġfur":11748,"Ġfert":11749,"Ġber":11750,"Ġbunch":11751,"lee":11752,"lem":11753,"ĠSport":11754,"oli":11755,"otton":11756,"ĠAL":11757,"Ġwholes":11758,"ĠIb":11759,"ĠTem":11760,"ĠJane":11761,"Ġchann":11762,"ĠNow":11763,"Ġvess":11764,"1925":11765,"1914":11766,"1918":11767,"1926":11768,"1927":11769,"1929":11770,"1910":11771,"1930":11772,"1935":11773,"2300":11774,"2015":11775,"2025":11776,"2017":11777,"2018":11778,"2024":11779,"2026":11780,"2027":11781,"2029":11782,"2050":11783,"2040":11784,"2070":11785,"2075":11786,"2065":11787,"2080":11788,"2085":11789,"Ġspotted":11790,"ĠUA":11791,"owner":11792,"ĠVis":11793,"ĠVik":11794,"Ġquarters":11795,"center":11796,"Ġstarters":11797,"Ġblank":11798,"ĠBrun":11799,"831":11800,"391":11801,"Ġoppose":11802,"Ġtransp":11803,"Ġstandings":11804,"Ġdelays":11805,"ĠCarroll":11806,"Ġsolve":11807,"ĠGray":11808,"Ġyoungsters":11809,"Ġexploded":11810,"Ġdesigns":11811,"ĠHarbor":11812,"Ġ1984":11813,"Ġ1986":11814,"Ġhopefully":11815,"ĠWarriors":11816,"Ġwaited":11817,"Ġchecked":11818,"Ġpopularity":11819,"Ġembarrass":11820,"ĠLuke":11821,"umsfeld":11822,"Ġrelieved":11823,"ĠLynch":11824,"Ġtower":11825,"ĠJamie":11826,"ĠExpress":11827,"Ġnervous":11828,"profile":11829,"Ġgoalkeeper":11830,"563":11831,"966":11832,"fund":11833,"Ġsoul":11834,"arat":11835,"Ġmel":11836,"Ġdynam":11837,"leting":11838,"Ġlone":11839,"Ġlists":11840,"story":11841,"ĠSullivan":11842,"acc":11843,"ĠAT":11844,"ĠBudd":11845,"Ġyuan":11846,"ulu":11847,"riest":11848,"ĠWalt":11849,"ĠJail":11850,"ĠGerm":11851,"1916":11852,"1940":11853,"2014":11854,"2016":11855,"2023":11856,"2028":11857,"2010":11858,"2060":11859,"2090":11860,"Ġnoting":11861,"Ġtrains":11862,"Ġouting":11863,"Ġbutter":11864,"airy":11865,"redit":11866,"882":11867,"ĠJoy":11868,"ortsmouth":11869,"832":11870,"oya":11871,"riving":11872,"âĤ¬Â¦":11873,"Ġwrites":11874,"Ġextent":11875,"aimed":11876,"Ġmoral":11877,"scar":11878,"Ġdamages":11879,"Ġversus":11880,"Mayor":11881,"Click":11882,"Ġdrinks":11883,"Ġlaunching":11884,"URG":11885,"Ġclinical":11886,"Ġpermits":11887,"ĠJonathan":11888,"ĠMohammed":11889,"Ġcommunist":11890,"Ġsymbol":11891,"ĠTurner":11892,"ĠTribune":11893,"Ġingred":11894,"ĠDeLay":11895,"Ġwidespread":11896,"496":11897,"547":11898,"796":11899,"Copyright":11900,"Ken":11901,"King":11902,"din":11903,"Ġcin":11904,"isers":11905,"Ġpure":11906,"Ġhide":11907,"Ġdirt":11908,"league":11909,"entle":11910,"ĠSU":11911,"ĠSanchez":11912,"ĠCN":11913,"ĠCond":11914,"ĠMand":11915,"Ġstone":11916,"Ġraw":11917,"Ġalt":11918,"Ġconvent":11919,"ĠDale":11920,"ĠJar":11921,"1800":11922,"2600":11923,"2700":11924,"Ġsealed":11925,"Ġspray":11926,"ĠStone":11927,"Ġalliance":11928,"Ġscan":11929,"Ġimpr":11930,"ĠVin":11931,"Ġpron":11932,"Ġdecor":11933,"ĠYahoo":11934,"ĠMarion":11935,"azer":11936,"Ġsubd":11937,"Ġ2010":11938,"Ġ1950":11939,"Ġfacilit":11940,"ĠBlock":11941,"brid":11942,"Ġelectrical":11943,"Ġtestify":11944,"ĠTracy":11945,"ĠSenator":11946,"Ġequally":11947,"achers":11948,"Ġconvince":11949,"ĠAirways":11950,"Ġbitter":11951,"Ġdestination":11952,"Ġdisappear":11953,"Ġmerely":11954,"Everything":11955,"Ġspeaks":11956,"ĠErn":11957,"ĠRobertson":11958,"LAND":11959,"Ġgrocer":11960,"Ġdeployed":11961,"ĠGonzalez":11962,"Ġsupervisor":11963,"ĠNebraska":11964,"Ġinterpret":11965,"Ġdatabase":11966,"Ġtrigger":11967,"593":11968,"533":11969,"Cent":11970,"HO":11971,"Wil":11972,"gets":11973,"iott":11974,"lings":11975,"ument":11976,"Ġdrought":11977,"idays":11978,"uten":11979,"otive":11980,"ĠBu":11981,"Ġrider":11982,"Ġalarm":11983,"ĠDa":11984,"ĠRandy":11985,"ĠHP":11986,"ĠHas":11987,"ĠLib":11988,"Ġshocked":11989,"2515":11990,"2568":11991,"1499":11992,"1778":11993,"2338":11994,"2900":11995,"2999":11996,"Ġoffset":11997,"raiser":11998,"ireless":11999,"Ġcontains":12000,"ouses":12001,"Ġquant":12002,"Ġcommem":12003,"encer":12004,"Ġpresidency":12005,"Ġimpression":12006,"ĠThey":12007,"Ġentreprene":12008,"Ġsmile":12009,"Ġ87":12010,"Ġreceives":12011,"ĠSpart":12012,"Ġ1978":12013,"ĠMcD":12014,"Ġkiller":12015,"Ġturnout":12016,"ĠSchwarzenegger":12017,"Ġexplains":12018,"iffs":12019,"Ġdisturb":12020,"Ġauditor":12021,"Ġversions":12022,"undreds":12023,"DAD":12024,"Ġappealed":12025,"Ġregulatory":12026,"ĠPacers":12027,"Ġbabies":12028,"America":12029,"Ġimplemented":12030,"Ġweakness":12031,"Ġairlines":12032,"Ġobservers":12033,"ĠLinda":12034,"ĠRonald":12035,"Ġtribute":12036,"Again":12037,"ĠCeltic":12038,"Microsoft":12039,"Ġetc":12040,"ICAGO":12041,"346":12042,"396":12043,"597":12044,"543":12045,"646":12046,"Brian":12047,"Dec":12048,"Eight":12049,"Fl":12050,"Free":12051,"IÃ¢":12052,"NP":12053,"Op":12054,"VER":12055,"base":12056,"dog":12057,"hal":12058,"hire":12059,"via":12060,"aning":12061,"Ġbass":12062,"Ġinput":12063,"Ġhate":12064,"Ġdust":12065,"ĠCy":12066,"ĠCarm":12067,"ĠCasey":12068,"ĠMour":12069,"ĠAFP":12070,"agle":12071,"ĠWake":12072,"ĠHop":12073,"ĠFe":12074,"2599":12075,"2548":12076,"1478":12077,"1485":12078,"1368":12079,"1700":12080,"1799":12081,"1748":12082,"1775":12083,"1738":12084,"1698":12085,"1668":12086,"1899":12087,"1848":12088,"1878":12089,"1868":12090,"2348":12091,"2345":12092,"2378":12093,"2695":12094,"2715":12095,"2738":12096,"2938":12097,"1048":12098,"outing":12099,"Ġclerk":12100,"ĠweÃ¢":12101,"ĠOf":12102,"Ġscrap":12103,"ĠVent":12104,"izza":12105,"Ġattached":12106,"ĠYour":12107,"ĠFront":12108,"Ġmining":12109,"Ġflash":12110,"Ġdepends":12111,"Ġdepression":12112,"Ġfrag":12113,"Ġfract":12114,"Ġturnover":12115,"Ġtransactions":12116,"Ġdealt":12117,"Ġexperiment":12118,"Ġlandmark":12119,"Ġsuspic":12120,"speed":12121,"borough":12122,"Ġsells":12123,"Ġ1981":12124,"AST":12125,"Ġhosting":12126,"Ġbottle":12127,"Ġdescribe":12128,"Ġintroduction":12129,"Ġnegotiating":12130,"Ġinspection":12131,"Ġathlete":12132,"Ġillegally":12133,"Ġwildlife":12134,"Ġobserved":12135,"Ġemotion":12136,"Ġfrequent":12137,"Ġtemperature":12138,"Ġodd":12139,"ĠHawaii":12140,"ĠGlobal":12141,"Ġrotation":12142,"ĠHoldings":12143,"Ġtravelling":12144,"Ġlicensed":12145,"Ġvaccine":12146,"ĠArgentina":12147,"ĠInsurance":12148,"ĠAgriculture":12149,"ĠNepal":12150,"Obviously":12151,"696":12152,"746":12153,"BR":12154,"Fin":12155,"Med":12156,"OK":12157,"say":12158,"Ġtum":12159,"rection":12160,"Ġwounds":12161,"Ġfo":12162,"Ġfing":12163,"esh":12164,"isons":12165,"Ġinev":12166,"Ġdressed":12167,"Ġgra":12168,"ules":12169,"ĠHew":12170,"ĠHerald":12171,"Ġchronic":12172,"Ġleagues":12173,"Ġplacing":12174,"2550":12175,"2560":12176,"2598":12177,"2578":12178,"2575":12179,"2538":12180,"1415":12181,"1424":12182,"1498":12183,"1448":12184,"1468":12185,"1438":12186,"1465":12187,"1495":12188,"1300":12189,"1324":12190,"1399":12191,"1398":12192,"1348":12193,"1378":12194,"1338":12195,"1798":12196,"1768":12197,"1765":12198,"1795":12199,"1699":12200,"1648":12201,"1645":12202,"1678":12203,"1638":12204,"1695":12205,"1850":12206,"1898":12207,"1845":12208,"1838":12209,"1865":12210,"1895":12211,"2315":12212,"2399":12213,"2398":12214,"2368":12215,"2395":12216,"2824":12217,"2899":12218,"2898":12219,"2848":12220,"2878":12221,"2868":12222,"2838":12223,"2615":12224,"2699":12225,"2698":12226,"2648":12227,"2678":12228,"2668":12229,"2638":12230,"2635":12231,"2685":12232,"2799":12233,"2798":12234,"2748":12235,"2778":12236,"2768":12237,"2998":12238,"2948":12239,"2978":12240,"2968":12241,"2985":12242,"quin":12243,"1024":12244,"1099":12245,"1050":12246,"1040":12247,"1098":12248,"1078":12249,"1068":12250,"1038":12251,"ĠKaren":12252,"ĠyouÃ¢":12253,"Int":12254,"Ġscript":12255,"Ġfinale":12256,"Ġlasted":12257,"luded":12258,"Ġretiring":12259,"Ġunderground":12260,"Ġassume":12261,"Ġactors":12262,"Ġcostly":12263,"Ġwrapped":12264,"Ġtranspl":12265,"ĠConc":12266,"Ġexplan":12267,"ĠWhat":12268,"Ġfighters":12269,"Ġhonour":12270,"Ġadmit":12271,"ĠForum":12272,"ĠPhilip":12273,"Ġconducting":12274,"Ġautomatic":12275,"Ġyouths":12276,"CHICAGO":12277,"Ġpoet":12278,"ĠLiberty":12279,"Ġmeantime":12280,"Ġexpertise":12281,"ĠEagle":12282,"ĠOwens":12283,"GHDAD":12284,"Ġsurveillance":12285,"County":12286,"Ġdetainees":12287,"ĠHampshire":12288,"Ġtragedy":12289,"846":12290,"896":12291,"876":12292,"946":12293,"FC":12294,"Sur":12295,"iating":12296,"raine":12297,"orge":12298,"Ġdug":12299,"Ġdiver":12300,"Ġrely":12301,"ĠMusharraf":12302,"ĠAfter":12303,"ĠAIDS":12304,"ĠRou":12305,"ĠRic":12306,"agh":12307,"2524":12308,"2570":12309,"2545":12310,"2565":12311,"2535":12312,"2595":12313,"2580":12314,"2585":12315,"1430":12316,"1440":12317,"1470":12318,"1445":12319,"1475":12320,"1435":12321,"1315":12322,"1330":12323,"1350":12324,"1345":12325,"1375":12326,"1365":12327,"1335":12328,"1390":12329,"1395":12330,"1380":12331,"1385":12332,"1715":12333,"1724":12334,"1730":12335,"1750":12336,"1760":12337,"1745":12338,"1735":12339,"1790":12340,"1785":12341,"1615":12342,"1624":12343,"1630":12344,"1650":12345,"1675":12346,"1665":12347,"1635":12348,"1690":12349,"1685":12350,"1815":12351,"1824":12352,"1840":12353,"1875":12354,"1835":12355,"1880":12356,"1885":12357,"2324":12358,"2350":12359,"2375":12360,"2365":12361,"2335":12362,"2385":12363,"2815":12364,"2850":12365,"2840":12366,"2845":12367,"2875":12368,"2865":12369,"2835":12370,"2895":12371,"2885":12372,"umacher":12373,"2624":12374,"2650":12375,"2645":12376,"2675":12377,"2665":12378,"2680":12379,"2724":12380,"2750":12381,"2740":12382,"2745":12383,"2775":12384,"2765":12385,"2735":12386,"2795":12387,"2785":12388,"2915":12389,"2924":12390,"2940":12391,"2960":12392,"2945":12393,"2975":12394,"2965":12395,"2935":12396,"2995":12397,"1015":12398,"1070":12399,"1045":12400,"1075":12401,"1065":12402,"1035":12403,"1095":12404,"1080":12405,"1085":12406,"inees":12407,"Ġintellect":12408,"Ġtea":12409,"ogether":12410,"angel":12411,"Ġacted":12412,"ducts":12413,"ĠShawn":12414,"Ġvisible":12415,"Ġdrain":12416,"Ġsuspicious":12417,"Ġdeny":12418,"BAGHDAD":12419,"Ġindication":12420,"Ġtargeting":12421,"Ġsurvival":12422,"Ġfleet":12423,"Ġtrends":12424,"Ġbehaviour":12425,"Ġmaintaining":12426,"ĠOwen":12427,"ĠNotre":12428,"Ġvillages":12429,"ĠKatie":12430,"Ġwriters":12431,"ĠDatuk":12432,"Ġsymptoms":12433,"Ġchannels":12434,"494":12435,"583":12436,"CIS":12437,"Gre":12438,"HAR":12439,"None":12440,"eria":12441,"Ġbol":12442,"Ġtours":12443,"omach":12444,"ĠCurt":12445,"olk":12446,"Ġstabbed":12447,"ĠBos":12448,"ĠBear":12449,"Ġitem":12450,"ulum":12451,"ĠRow":12452,"ĠHonda":12453,"ĠJa":12454,"ĠGOP":12455,"Ġvowed":12456,"Ġshadow":12457,"2530":12458,"2540":12459,"2590":12460,"1450":12461,"1460":12462,"1490":12463,"1480":12464,"1340":12465,"1360":12466,"1370":12467,"1740":12468,"1770":12469,"1780":12470,"1640":12471,"1660":12472,"1670":12473,"1680":12474,"1830":12475,"1860":12476,"1870":12477,"1890":12478,"2330":12479,"2340":12480,"2360":12481,"2370":12482,"2390":12483,"2380":12484,"2830":12485,"2860":12486,"2870":12487,"2890":12488,"2880":12489,"2630":12490,"2640":12491,"2660":12492,"2670":12493,"2690":12494,"2730":12495,"2760":12496,"2770":12497,"2790":12498,"2780":12499,"2930":12500,"2950":12501,"2970":12502,"2990":12503,"2980":12504,"1030":12505,"1060":12506,"1090":12507,"arez":12508,"ubs":12509,"Ġcler":12510,"Ġresource":12511,"Ġunchanged":12512,"Ġintends":12513,"Ġsheet":12514,"Ġenorm":12515,"looking":12516,"Ġcommitt":12517,"Ġnoise":12518,"Ġsecondary":12519,"wealth":12520,"ĠMariners":12521,"Ġsurrend":12522,"ĠBris":12523,"ĠArthur":12524,"ĠCoach":12525,"Ġsomewhere":12526,"Ġinfected":12527,"Ġbread":12528,"Ġelbow":12529,"Ġaffair":12530,"ĠPlace":12531,"borne":12532,"Ġfreed":12533,"ographic":12534,"ĠXVI":12535,"Ġreferee":12536,"Ġorigin":12537,"March":12538,"Ġexamination":12539,"ĠBerlin":12540,"ĠCharlie":12541,"Ġscrut":12542,"Martin":12543,"ĠBradley":12544,"ĠButler":12545,"ĠStevens":12546,"ĠWatson":12547,"Ġrenewed":12548,"Ġcongressional":12549,"Ġsemifinals":12550,"Ġunanimously":12551,"Ġsynd":12552,"Ġaggravated":12553,"Ġextraordinary":12554,"Bet":12555,"Dun":12556,"House":12557,"Lee":12558,"Mac":12559,"Ret":12560,"Ryan":12561,"Tom":12562,"Yes":12563,"list":12564,"made":12565,"tax":12566,"ouble":12567,"Ġhitters":12568,"icate":12569,"Ġgam":12570,"uration":12571,"ige":12572,"Ġstomach":12573,"iments":12574,"ĠAber":12575,"ĠAction":12576,"ĠPo":12577,"oping":12578,"ĠJama":12579,"1988":12580,"Ġoutr":12581,"Ġfines":12582,"itionally":12583,"Ġaccord":12584,"Ġprest":12585,"Ġbuff":12586,"Ġbrush":12587,"Ġinvested":12588,"Ġpublication":12589,"Ġposting":12590,"Ġmenu":12591,"Ġsolic":12592,"Ġviolated":12593,"Ġ1987":12594,"Ġcampaigns":12595,"Ġfoods":12596,"Ġprisoner":12597,"Ġzoning":12598,"Ġrarely":12599,"ĠBrooks":12600,"Ġmandatory":12601,"Ġreverse":12602,"Ġaccommodate":12603,"ĠNazi":12604,"Ġpipeline":12605,"ĠWelsh":12606,"rahim":12607,"Ġdesperate":12608,"Ġkilometres":12609,"ĠTreasury":12610,"ĠHistor":12611,"demean":12612,"Ġworkshop":12613,"ĠArnold":12614,"577":12615,"Air":12616,"Federal":12617,"Hope":12618,"Mus":12619,"Mont":12620,"NAS":12621,"four":12622,"nolds":12623,"tra":12624,"Ġ99":12625,"Ġbru":12626,"arq":12627,"oub":12628,"Ġhidden":12629,"Ġgaining":12630,"acular":12631,"oly":12632,"ĠAwards":12633,"ĠBed":12634,"ĠBusch":12635,"Ġprote":12636,"ĠRoll":12637,"ctors":12638,"ĠLine":12639,"ĠGate":12640,"2088":12641,"Ġnotified":12642,"ĠKaz":12643,"uba":12644,"ĠChan":12645,"ĠChuck":12646,"rystal":12647,"Ġsuperm":12648,"Ġdownload":12649,"Ġassemb":12650,"Ġtriumph":12651,"Ġprogramming":12652,"ribed":12653,"Ġcareful":12654,"Ġcurric":12655,"Ġterrif":12656,"ĠCoal":12657,"Ġchef":12658,"Ġelectronics":12659,"Ġconstantly":12660,"Ġtechniques":12661,"Ġvalued":12662,"Ġfunctions":12663,"Ġparked":12664,"Ġvolley":12665,"Ġidentification":12666,"Ġaudio":12667,"Ġrede":12668,"Being":12669,"Ġabsor":12670,"Speaking":12671,"Ġutil":12672,"Ġscreening":12673,"Ġdefendants":12674,"ĠTrail":12675,"ĠEntertainment":12676,"Ġearthquake":12677,"Camp":12678,"Greg":12679,"Junior":12680,"Kevin":12681,"Sun":12682,"king":12683,"search":12684,"itious":12685,"leans":12686,"ĠSem":12687,"ĠSide":12688,"othe":12689,"eta":12690,"iguel":12691,"Ġrif":12692,"ĠIv":12693,"ĠRaid":12694,"ĠLanc":12695,"ĠNSW":12696,"artial":12697,"Ġshake":12698,"1997":12699,"ĠEs":12700,"ĠKay":12701,"eps":12702,"Ġbooth":12703,"Ġcoached":12704,"Ġcrimin":12705,"ouncill":12706,"Ġeverywhere":12707,"uller":12708,"rivate":12709,"Ġputt":12710,"Ġtopic":12711,"Along":12712,"ĠHeights":12713,"ĠSouthwest":12714,"Ġforecasts":12715,"Ġdesigner":12716,"Ġprivacy":12717,"elta":12718,"Ġclosest":12719,"opsy":12720,"Ġportray":12721,"Ġtournaments":12722,"Ġlawsuits":12723,"ĠLauren":12724,"avenport":12725,"ravis":12726,"ĠOliver":12727,"Ġshipments":12728,"ĠBrazilian":12729,"Ġadvocates":12730,"ĠiPod":12731,"ĠJessica":12732,"Ġdisagre":12733,"Ġrandom":12734,"Ġlegitimate":12735,"arqawi":12736,"394":12737,"794":12738,"Gold":12739,"II":12740,"Miller":12741,"OD":12742,"uert":12743,"inces":12744,"erver":12745,"oni":12746,"oran":12747,"Ġbilateral":12748,"arc":12749,"Ġmad":12750,"Ġdates":12751,"Ġdating":12752,"Ġlun":12753,"Ġlapt":12754,"Ġgard":12755,"ethe":12756,"erse":12757,"ĠthatÃ¢":12758,"ĠBan":12759,"ĠBhd":12760,"ĠBrett":12761,"ĠPorter":12762,"ĠDrew":12763,"ĠRom":12764,"agger":12765,"ĠWes":12766,"ĠHind":12767,"ĠFame":12768,"ĠFRAN":12769,"ĠLP":12770,"istance":12771,"Ġcompat":12772,"ĠKam":12773,"ĠStu":12774,"ĠStra":12775,"ĠChavez":12776,"aha":12777,"586":12778,"shirt":12779,"Ġ911":12780,"Children":12781,"Ġsentiment":12782,"Ġbeneath":12783,"Ġ1982":12784,"ĠEddie":12785,"Ġviewed":12786,"Ġquestioning":12787,"regation":12788,"ductions":12789,"Ġdevoted":12790,"Ġseeks":12791,"Ġnorthwest":12792,"ĠMontreal":12793,"Ġlicenses":12794,"Ġsuperb":12795,"Ġabsent":12796,"Ġcalendar":12797,"Ġexamine":12798,"Ġbulk":12799,"Ġdining":12800,"Black":12801,"Ġgarbage":12802,"ĠDefence":12803,"iciary":12804,"ĠCastro":12805,"Ġfrustrated":12806,"Ġhighlighted":12807,"ĠRochester":12808,"Ġdelighted":12809,"Ġsidew":12810,"antanamo":12811,"Ġphenomen":12812,"ĠBrisbane":12813,"Bo":12814,"Cal":12815,"FI":12816,"War":12817,"found":12818,"hall":12819,"kinson":12820,"sized":12821,"zed":12822,"zech":12823,"Ġtying":12824,"Ġpor":12825,"Ġpries":12826,"ingu":12827,"Ġhalt":12828,"leton":12829,"ayan":12830,"Ġreass":12831,"oting":12832,"ĠMead":12833,"irm":12834,"ĠByr":12835,"ĠPur":12836,"Ġ180":12837,"oser":12838,"estone":12839,"agar":12840,"ĠWinn":12841,"ĠFish":12842,"alling":12843,"aste":12844,"ĠKenn":12845,"Ġunbeat":12846,"ĠChirac":12847,"ĠInv":12848,"ĠThom":12849,"ierra":12850,"ennial":12851,"872":12852,"Ġsentencing":12853,"Ġdrum":12854,"ĠConf":12855,"Ġsenator":12856,"Ġprivately":12857,"ĠAbb":12858,"Ġrental":12859,"Shares":12860,"Ġboxing":12861,"Ġranking":12862,"ĠComputer":12863,"Ġshuttle":12864,"Ġmisdemean":12865,"Ġdemonstration":12866,"Ġteenage":12867,"Ġestablishment":12868,"Ġerup":12869,"celona":12870,"Ġinstallation":12871,"Ġconvenience":12872,"Ġfantastic":12873,"Ġepisode":12874,"ĠLaden":12875,"Ġinstrument":12876,"Ġnominees":12877,"ĠBennett":12878,"Ġbrilliant":12879,"1250":12880,"1230":12881,"2180":12882,"2190":12883,"864":12884,"Bro":12885,"East":12886,"Fresh":12887,"Prior":12888,"haw":12889,"iop":12890,"wind":12891,"ongh":12892,"Ġsed":12893,"Ġcaf":12894,"Ġpink":12895,"inge":12896,"Ġthorough":12897,"ĠeBay":12898,"irie":12899,"verning":12900,"chair":12901,"ĠPy":12902,"ĠRud":12903,"ĠWend":12904,"ĠHass":12905,"allen":12906,"1888":12907,"umper":12908,"Ġgoverning":12909,"rous":12910,"Ġcompare":12911,"Ġworries":12912,"ĠKle":12913,"Ġunity":12914,"ĠView":12915,"Ġrode":12916,"Ġgraph":12917,"ĠMars":12918,"uality":12919,"Ġflower":12920,"ĠMonroe":12921,"Ġefficiency":12922,"bris":12923,"ĠParks":12924,"Ġparish":12925,"Ġletting":12926,"Ġprocesses":12927,"ĠOrleans":12928,"Ġgrandmother":12929,"Ġmultim":12930,"ĠGlas":12931,"Ġnegotiate":12932,"Ġlifestyle":12933,"Ġregulators":12934,"eroids":12935,"Frank":12936,"Ġaspect":12937,"ibbean":12938,"Ġdramatically":12939,"ĠMedicaid":12940,"Ġsanctions":12941,"Ġdiscipline":12942,"ocolate":12943,"ĠHolland":12944,"Ġdevastating":12945,"Ġpocket":12946,"Ġhurricane":12947,"Ġdividend":12948,"Ġburglary":12949,"Ġdiscrimination":12950,"Ġelaborate":12951,"1180":12952,"2150":12953,"2160":12954,"2280":12955,"2290":12956,"349":12957,"566":12958,"694":12959,"894":12960,"Ben":12961,"Cost":12962,"Crit":12963,"Peter":12964,"PAR":12965,"Where":12966,"banks":12967,"oons":12968,"piece":12969,"rated":12970,"Ġtires":12971,"erts":12972,"Ġwaves":12973,"Ġfake":12974,"Ġbachelor":12975,"Ġdign":12976,"Ġdying":12977,"Ġlady":12978,"ĠCapt":12979,"amy":12980,"ĠPra":12981,"riel":12982,"ĠDw":12983,"ĠRio":12984,"ĠWiz":12985,"ĠHilton":12986,"ĠJays":12987,"ĠLakes":12988,"1967":12989,"1488":12990,"1388":12991,"1788":12992,"2888":12993,"Ġdebris":12994,"Ġcompr":12995,"Ġcompleting":12996,"Ġadapt":12997,"ĠOS":12998,"Ġincumb":12999,"Ġcanc":13000,"ĠcanÃ¢":13001,"izumi":13002,"Ġinvitation":13003,"Ġblaze":13004,"aht":13005,"ribe":13006,"Ġoperational":13007,"ĠRoom":13008,"891":13009,"892":13010,"Ġraid":13011,"aida":13012,"ĠConvention":13013,"AND":13014,"ĠChristians":13015,"Ġmidfield":13016,"ĠGuantanamo":13017,"Ġpractical":13018,"Ġcombine":13019,"ĠwasnÃ¢":13020,"Ġpurchases":13021,"Ġdestruction":13022,"Ġzero":13023,"Ġcleaning":13024,"Ġexistence":13025,"ĠPortug":13026,"ĠBerk":13027,"Ġrestricted":13028,"ĠAnnan":13029,"ĠEllis":13030,"Ġsubsidiary":13031,"ĠSummit":13032,"Ġlengthy":13033,"Ġguaranteed":13034,"ĠAlbany":13035,"Ġstrokes":13036,"Ġaccompany":13037,"Ġsemifinal":13038,"George":13039,"Ġrehabilitation":13040,"ĠAuburn":13041,"1150":13042,"1140":13043,"1130":13044,"1160":13045,"1280":13046,"1240":13047,"1190":13048,"1270":13049,"1170":13050,"1260":13051,"1290":13052,"2250":13053,"2140":13054,"2130":13055,"2230":13056,"2240":13057,"2270":13058,"2170":13059,"2260":13060,"874":13061,"Cong":13062,"IE":13063,"Nobody":13064,"Pet":13065,"RC":13066,"bing":13067,"ranked":13068,"Ġtone":13069,"Ġauth":13070,"anne":13071,"Ġpatch":13072,"Ġtoil":13073,"Ġmisc":13074,"Ġgaming":13075,"ĠAmy":13076,"ĠDig":13077,"ĠDodge":13078,"ĠRal":13079,"Ġvocal":13080,"odox":13081,"Ġexternal":13082,"2588":13083,"1993":13084,"1688":13085,"2388":13086,"2688":13087,"2788":13088,"2988":13089,"1088":13090,"Ġjazz":13091,"Ġclick":13092,"Ġcloud":13093,"ĠCho":13094,"Ġfiring":13095,"erty":13096,"ĠYellow":13097,"ommy":13098,"Ġplanet":13099,"auer":13100,"Ġslide":13101,"ĠIndies":13102,"ĠAlf":13103,"arma":13104,"Ġextending":13105,"Ġfilib":13106,"Ġconcerning":13107,"Ġyoungest":13108,"Ġformula":13109,"Ġavailability":13110,"egu":13111,"Ġpackages":13112,"Ġgraduating":13113,"Ġaddressing":13114,"ught":13115,"Ġpriorities":13116,"Until":13117,"ĠLouisville":13118,"Ġdemonstrations":13119,"Ġadjacent":13120,"ĠCameron":13121,"Ġintegration":13122,"ĠChapter":13123,"Ġobjective":13124,"ĠBrend":13125,"ĠIndonesian":13126,"riptions":13127,"Ġsettlements":13128,"Ġevaluation":13129,"Ġsubscribers":13130,"ĠLanka":13131,"rysler":13132,"Ġintimid":13133,"CISCO":13134,"749":13135,"bit":13136,"bian":13137,"count":13138,"deen":13139,"inary":13140,"reced":13141,"Ġwinger":13142,"itis":13143,"Ġborders":13144,"Ġhttp":13145,"asp":13146,"stro":13147,"ĠSeb":13148,"ĠCold":13149,"ĠMidd":13150,"Ġstir":13151,"Ġsteroids":13152,"oway":13153,"ĠAFL":13154,"ĠBelt":13155,"ĠRot":13156,"rome":13157,"ĠLight":13158,"ĠLex":13159,"1500":13160,"1578":13161,"2093":13162,"Ġcomply":13163,"ĠKir":13164,"ĠKum":13165,"Ġloyal":13166,"sons":13167,"grad":13168,"Ġremembers":13169,"Ġcolors":13170,"Ġinstruction":13171,"Ġinvestigated":13172,"Ġattacking":13173,"Ġformation":13174,"ĠStein":13175,"roller":13176,"Ġphysically":13177,"Ġrobust":13178,"Ġambulance":13179,"Ġ1979":13180,"Exper":13181,"Ġdocumentary":13182,"ergart":13183,"Ġfaithful":13184,"ĠGallery":13185,"ĠMidwest":13186,"Ġflooding":13187,"ĠTerri":13188,"ĠFreedom":13189,"ĠGhana":13190,"ĠMarcus":13191,"Monday":13192,"Ġvegetables":13193,"Ġremoval":13194,"Ġstructures":13195,"ĠBudget":13196,"Ġaccurate":13197,"ĠVenezuela":13198,"ĠArena":13199,"Ġgenuine":13200,"ĠIbrahim":13201,"ĠFRANCISCO":13202,"recedented":13203,"649":13204,"Des":13205,"Jan":13206,"Mel":13207,"Put":13208,"See":13209,"Watch":13210,"from":13211,"ls":13212,"sville":13213,"Ġtap":13214,"Ġsore":13215,"Ġsorry":13216,"ĠSnow":13217,"ĠCult":13218,"oland":13219,"amine":13220,"ĠApr":13221,"tering":13222,"terror":13223,"ĠBible":13224,"ĠPM":13225,"ĠPortsmouth":13226,"Ġ140":13227,"ĠRu":13228,"ĠWis":13229,"ĠHit":13230,"ĠHunt":13231,"ĠFinals":13232,"ĠLloyd":13233,"asty":13234,"Ġplun":13235,"1599":13236,"1598":13237,"1548":13238,"1568":13239,"1538":13240,"2400":13241,"2499":13242,"2450":13243,"2460":13244,"2498":13245,"2448":13246,"2478":13247,"2468":13248,"2475":13249,"2438":13250,"Ġdeer":13251,"rawn":13252,"portion":13253,"ĠChad":13254,"Ġexpend":13255,"Ġoverhaul":13256,"ĠVerm":13257,"Ġroots":13258,"ogg":13259,"Ġattributed":13260,"Ġhomeowners":13261,"Ġ101":13262,"Ġregret":13263,"Ġbranches":13264,"Ġmarking":13265,"ĠShaw":13266,"Ġ89":13267,"Ġkillings":13268,"Ġcompetitor":13269,"Ġdealer":13270,"Ġelectoral":13271,"Ġdiscussing":13272,"Ġmatching":13273,"ĠSmart":13274,"Ġfigured":13275,"Ġsquee":13276,"Joe":13277,"rawford":13278,"Ġrocket":13279,"Ġsnapped":13280,"ĠRockies":13281,"Ġcriticised":13282,"Ġsurveyed":13283,"Ġtonnes":13284,"Ġexamined":13285,"Ġcollecting":13286,"Ġdominant":13287,"Ġreservations":13288,"ĠStudent":13289,"Ġarranged":13290,"Ġaveraging":13291,"Ġvirtual":13292,"Ġdisclosed":13293,"Ġconfirmation":13294,"Ġstealing":13295,"itzerland":13296,"Ġremarkable":13297,"Ġtossed":13298,"Ġawaiting":13299,"Ġhazard":13300,"Ġbacteria":13301,"Ġcurriculum":13302,"Ġcriminals":13303,"879":13304,"Did":13305,"Have":13306,"Hundreds":13307,"Iran":13308,"had":13309,"ja":13310,"jad":13311,"park":13312,"sor":13313,"selling":13314,"Ġ#":13315,"Ġx":13316,"Ġ98":13317,"Ġ93":13318,"Ġace":13319,"Ġwis":13320,"Ġpill":13321,"alan":13322,"Ġgrip":13323,"ĠCIA":13324,"eton":13325,"urred":13326,"ĠBuc":13327,"Ġru":13328,"ĠDerek":13329,"ĠTax":13330,"ĠNever":13331,"1530":13332,"1550":13333,"1545":13334,"1575":13335,"1565":13336,"1535":13337,"1590":13338,"1595":13339,"1580":13340,"1585":13341,"1944":13342,"1947":13343,"1973":13344,"1977":13345,"1933":13346,"1958":13347,"2470":13348,"2445":13349,"2465":13350,"2435":13351,"2495":13352,"2485":13353,"umm":13354,"2073":13355,"2058":13356,"Ġcontext":13357,"Ġbloc":13358,"istrate":13359,"Ġstrange":13360,"Ġslump":13361,"ÅĵThis":13362,"Ġcolour":13363,"ĠCommons":13364,"862":13365,"Ġrelevant":13366,"Ġelite":13367,"Ġparole":13368,"Ġstopping":13369,"Ġtelecommunications":13370,"Ġviewing":13371,"Ġchairs":13372,"Ġconvoy":13373,"Ġdoubts":13374,"ĠAirbus":13375,"Ġaccounted":13376,"Ġmanufacturer":13377,"Ġbattling":13378,"Ġsilence":13379,"Ġmountains":13380,"Ġrestrict":13381,"Ġneighborhoods":13382,"Republic":13383,"ĠRevolution":13384,"Ġadvisory":13385,"Ġclimbing":13386,"Connor":13387,"Ġcomplicated":13388,"Britain":13389,"Ġpostponed":13390,"aceutical":13391,"European":13392,"Ġphilosophy":13393,"Ġcommittees":13394,"Ġunbeaten":13395,"02":13396,"537":13397,"849":13398,"Hel":13399,"IO":13400,"Jul":13401,"Mad":13402,"dep":13403,"fers":13404,"food":13405,"gate":13406,"hop":13407,"heed":13408,"inting":13409,"onia":13410,"Ġwishes":13411,"itement":13412,"Ġbust":13413,"Ġpose":13414,"Ġpets":13415,"Ġdancing":13416,"Ġgri":13417,"igs":13418,"ĠMas":13419,"imir":13420,"ĠAur":13421,"ĠBM":13422,"Ġric":13423,"ĠIron":13424,"empl":13425,"ested":13426,"ĠWhen":13427,"arting":13428,"Ġshy":13429,"1540":13430,"1560":13431,"1570":13432,"1963":13433,"1943":13434,"2430":13435,"2440":13436,"2490":13437,"2480":13438,"2044":13439,"2067":13440,"2063":13441,"2097":13442,"2043":13443,"2047":13444,"2033":13445,"ĠyearÃ¢":13446,"ĠKin":13447,"anson":13448,"ĠVi":13449,"Ġarra":13450,"nex":13451,"anyon":13452,"Ġcounting":13453,"Ġpresents":13454,"Ġcourage":13455,"aturally":13456,"ĠShane":13457,"Ġdiscovery":13458,"Ġ82":13459,"532":13460,"871":13461,"861":13462,"Ġcheaper":13463,"Ġsentences":13464,"Ġdrilling":13465,"Ġpatent":13466,"Ġeconomist":13467,"Ġproduces":13468,"Ġshareholder":13469,"Ġtraders":13470,"Ġtradem":13471,"Ġmissions":13472,"olee":13473,"Ġweekends":13474,"Ġcaut":13475,"Ġtreatments":13476,"Ġassisted":13477,"Ġtwin":13478,"Ġdescribes":13479,"Ġbattles":13480,"Ġarticles":13481,"Ġultimate":13482,"iasm":13483,"Prime":13484,"Ġessentially":13485,"Ġapartments":13486,"ĠSummer":13487,"Ġdelegates":13488,"Ġaccomplished":13489,"iggins":13490,"Ġsatisfact":13491,"ĠEgyptian":13492,"Ġkidnapping":13493,"Ġoccasionally":13494,"Ġflexibility":13495,"Australia":13496,"ĠMarlins":13497,"Ġvoluntary":13498,"Ġdreams":13499,"Ġdisplays":13500,"ĠHispanic":13501,"Ġmajors":13502,"869":13503,"DE":13504,"Gov":13505,"Mem":13506,"Your":13507,"card":13508,"good":13509,"hl":13510,"ois":13511,"vised":13512,"Ġ000":13513,"Ġwars":13514,"orious":13515,"Ġocean":13516,"Ġfed":13517,"Ġfighter":13518,"Ġmour":13519,"Ġlibr":13520,"Ġnick":13521,"ĠCore":13522,"ĠCrow":13523,"ĠMind":13524,"Ġsty":13525,"Ġsail":13526,"ĠImp":13527,"Ġconfer":13528,"ĠDell":13529,"ĠRiley":13530,"ĠJeremy":13531,"ĠNight":13532,"apy":13533,"Ġabused":13534,"ĠKath":13535,"ĠKnight":13536,"iper":13537,"ĠOscar":13538,"Ġlasting":13539,"Ġdish":13540,"Ġcommod":13541,"oba":13542,"Ġinterrog":13543,"Ġbuzz":13544,"ĠThird":13545,"Ġdeserve":13546,"Ġentries":13547,"Ġlocally":13548,"istered":13549,"ifications":13550,"Ġopposing":13551,"542":13552,"Ġspeakers":13553,"forcement":13554,"ĠAssistant":13555,"Ġfireworks":13556,"Ġexplore":13557,"Ġbooked":13558,"Ġfunny":13559,"ĠAssociates":13560,"theless":13561,"Without":13562,"government":13563,"Ġhumor":13564,"Ġrisen":13565,"Ġcelebrations":13566,"Ġaccepting":13567,"Ġreviews":13568,"Ġresponding":13569,"ĠDelaware":13570,"Ġvacant":13571,"Ġambitious":13572,"ĠRoyals":13573,"Ġboosted":13574,"Organ":13575,"Ġspreading":13576,"ĠRamirez":13577,"Ġreminded":13578,"ĠTraff":13579,"Ġemphasis":13580,"Ġunprecedented":13581,"ĠKuwait":13582,"Ġscholarships":13583,"ĠSweden":13584,"Ġoccasions":13585,"Ġcertificate":13586,"utrition":13587,"Democrats":13588,"Whether":13589,"546":13590,"536":13591,"Feb":13592,"Mary":13593,"Rod":13594,"Sales":13595,"bat":13596,"bes":13597,"cos":13598,"fur":13599,"lies":13600,"Ġ83":13601,"only":13602,"Ġsample":13603,"Ġcemetery":13604,"itary":13605,"Ġpriest":13606,"Ġdash":13607,"Ġthick":13608,"Ġlod":13609,"ĠSoren":13610,"aca":13611,"ĠMission":13612,"Ġster":13613,"Ġstunning":13614,"ĠBatt":13615,"Ġrides":13616,"Ġraced":13617,"Ġripped":13618,"ĠIf":13619,"emed":13620,"emble":13621,"ĠTul":13622,"ĠWi":13623,"ĠFT":13624,"ĠNixon":13625,"Ġlets":13626,"ocate":13627,"Ġtrim":13628,"Ġcomponent":13629,"ĠUE":13630,"Ġoverc":13631,"ervis":13632,"ĠVlad":13633,"Ġroyal":13634,"Ġpreca":13635,"Ġprayers":13636,"obe":13637,"obs":13638,"Ġcounted":13639,"Ġservers":13640,"ĠThere":13641,"Ġstrain":13642,"Ġinvesting":13643,"587":13644,"Ġsignature":13645,"Ġsuburban":13646,"Ġmedian":13647,"562":13648,"Ġ91":13649,"Ġsometime":13650,"Ġlisting":13651,"ĠCaribbean":13652,"Ġskill":13653,"Ġdistinct":13654,"Ġdivisions":13655,"Ġmusicians":13656,"ĠPatriots":13657,"Ġacceptable":13658,"laus":13659,"onnell":13660,"Ġreviewed":13661,"Ġslowed":13662,"Ġdelivering":13663,"Ġneighboring":13664,"Ġillustr":13665,"ĠSalv":13666,"USA":13667,"Ġtenure":13668,"Ġmedication":13669,"ĠBoys":13670,"Ġcertified":13671,"party":13672,"Ġlocker":13673,"ĠIndustrial":13674,"Commission":13675,"Ġadoption":13676,"ĠFilm":13677,"Ġinnovative":13678,"ĠMargaret":13679,"Ġbogey":13680,"Ġcrazy":13681,"Ġexplanation":13682,"07":13683,"596":13684,"Aug":13685,"Board":13686,"Cap":13687,"NG":13688,"NS":13689,"Wood":13690,"bu":13691,"just":13692,"mans":13693,"see":13694,"Ġ96":13695,"hey":13696,"erious":13697,"Ġpct":13698,"Ġpunch":13699,"asks":13700,"Ġrend":13701,"ĠCitiz":13702,"olan":13703,"olar":13704,"ĠMesa":13705,"ersen":13706,"owder":13707,"Ġsafer":13708,"ĠPos":13709,"ĠPurd":13710,"Ġ130":13711,"ĠIl":13712,"ulpt":13713,"Ġconvert":13714,"ĠTory":13715,"ĠGi":13716,"ĠNatural":13717,"istle":13718,"1983":13719,"2667":13720,"abi":13721,"Ġseal":13722,"Ġunt":13723,"Ġunear":13724,"Ġconting":13725,"Ġheritage":13726,"Ġamateur":13727,"ĠThat":13728,"weet":13729,"ovic":13730,"Ġassert":13731,"Ġdonate":13732,"Ġmedals":13733,"Ġterrible":13734,"571":13735,"Ġasks":13736,"842":13737,"Ġ92":13738,"Ġreflected":13739,"Ġactivist":13740,"Ġtitled":13741,"aurant":13742,"Ġgenerations":13743,"ĠSteel":13744,"Ġapology":13745,"Ġaccessible":13746,"Ġpurchasing":13747,"ĠParish":13748,"Ġindicates":13749,"Ġsouthwest":13750,"ĠGlenn":13751,"Ġphysicians":13752,"Ġcrowded":13753,"Ġtroop":13754,"Ġhearts":13755,"ĠGreater":13756,"Ġwitnessed":13757,"Ġreserved":13758,"Ġopinions":13759,"ĠRaymond":13760,"Ġethics":13761,"ĠDevils":13762,"Ġfrustration":13763,"ĠBryant":13764,"Ġterminal":13765,"Ġtroubles":13766,"ĠCeltics":13767,"Ġsearched":13768,"ĠNadal":13769,"Ġincredible":13770,"Ġlobbying":13771,"ĠOrioles":13772,"Charles":13773,"utenant":13774,"08":13775,"Based":13776,"LP":13777,"Miss":13778,"Tickets":13779,"tech":13780,"was":13781,"Ġtally":13782,"leen":13783,"Ġreimb":13784,"ĠSaints":13785,"ĠCass":13786,"amination":13787,"ĠMust":13788,"ĠMaur":13789,"ecca":13790,"imental":13791,"vere":13792,"unal":13793,"ĠBailey":13794,"ĠPun":13795,"thodox":13796,"ĠFive":13797,"ewood":13798,"ĠLaf":13799,"ĠLogan":13800,"Ġvary":13801,"endo":13802,"1905":13803,"1673":13804,"2344":13805,"2744":13806,"Ġjockey":13807,"Ġtract":13808,"iaz":13809,"berra":13810,"ailing":13811,"Ġscared":13812,"Ġintervention":13813,"print":13814,"Ġbrid":13815,"589":13816,"azed":13817,"ributes":13818,"Ġwrist":13819,"Ġinstant":13820,"572":13821,"541":13822,"Ġevil":13823,"841":13824,"airo":13825,"Ġperformers":13826,"cedes":13827,"Ġcreates":13828,"Ġfinances":13829,"Ġprivile":13830,"Ġgradually":13831,"Ġcriteria":13832,"Ġ1983":13833,"Ġreplied":13834,"Ġautopsy":13835,"laud":13836,"Prof":13837,"Ġbasket":13838,"Ġinspect":13839,"Ġwondering":13840,"ĠNeil":13841,"ĠSimp":13842,"ĠAndrews":13843,"Ġepid":13844,"Ġconsistently":13845,"Ġdefendant":13846,"Ġconnections":13847,"Ġenthusiasm":13848,"ĠJenkins":13849,"Ġisolated":13850,"ĠGirls":13851,"Ġberth":13852,"Hopefully":13853,"Ġsidewalk":13854,"ĠGlasgow":13855,"oleezza":13856,"576":13857,"FOR":13858,"Had":13859,"dollar":13860,"yang":13861,"atar":13862,"Ġcy":13863,"anium":13864,"Ġbrew":13865,"Ġpointing":13866,"lects":13867,"utierre":13868,"Ġecho":13869,"elong":13870,"Ġstead":13871,"ĠBask":13872,"ceived":13873,"ĠPerez":13874,"Ġconj":13875,"ĠTur":13876,"ĠWorth":13877,"ifies":13878,"ĠFitz":13879,"ĠNathan":13880,"Ġvault":13881,"2547":13882,"2593":13883,"arded":13884,"1444":13885,"1493":13886,"1363":13887,"1347":13888,"1333":13889,"1763":13890,"1797":13891,"1644":13892,"2347":13893,"2844":13894,"2863":13895,"2843":13896,"2893":13897,"2644":13898,"2697":13899,"2693":13900,"2733":13901,"1044":13902,"1067":13903,"ĠESP":13904,"Ġjam":13905,"Ġoffender":13906,"ountain":13907,"Ġsculpt":13908,"loved":13909,"loaded":13910,"ftime":13911,"Ġgrave":13912,"Ġunderway":13913,"Ġindict":13914,"ugar":13915,"Ġdefined":13916,"Ġflames":13917,"582":13918,"584":13919,"Ġslower":13920,"ĠAlonso":13921,"ricia":13922,"Ġpassage":13923,"Ġseverely":13924,"ĠCoff":13925,"Ġedged":13926,"592":13927,"Staff":13928,"Ġconcerts":13929,"ĠAdvis":13930,"afari":13931,"Ġsolar":13932,"Ġkindergart":13933,"Ġfriendship":13934,"Ġgrandfather":13935,"Ġdispos":13936,"Ġboyfriend":13937,"ĠXbox":13938,"olicy":13939,"Ġaddresses":13940,"Ġprevented":13941,"Everybody":13942,"ylum":13943,"ĠChev":13944,"Clark":13945,"Ġbirdies":13946,"ĠQuebec":13947,"Ġunlike":13948,"Ġacademy":13949,"Ġmargins":13950,"ĠRelations":13951,"Ġignored":13952,"Ġspectacular":13953,"Ġmentally":13954,"Ġhalftime":13955,"Ġrubber":13956,"news":13957,"hardt":13958,"ĠGardens":13959,"Ġcondemned":13960,"Ġscreens":13961,"Ġjewel":13962,"Ġreiterated":13963,"midt":13964,"Ġenormous":13965,"ĠRaiders":13966,"ĠStuart":13967,"utierrez":13968,"574":13969,"Mil":13970,"Mur":13971,"Rock":13972,"Sund":13973,"Washington":13974,"host":13975,"iw":13976,"mails":13977,"nis":13978,"parents":13979,"Ġtensions":13980,"oria":13981,"Ġcapped":13982,"Ġfasc":13983,"roat":13984,"ĠSaint":13985,"acrosse":13986,"ationally":13987,"ĠBec":13988,"ĠHand":13989,"ĠHernandez":13990,"resno":13991,"arted":13992,"2544":13993,"2567":13994,"2563":13995,"2597":13996,"2543":13997,"2573":13998,"2533":13999,"1467":14000,"1463":14001,"1497":14002,"1443":14003,"1447":14004,"1473":14005,"1433":14006,"1344":14007,"1367":14008,"1397":14009,"1343":14010,"1393":14011,"1373":14012,"1744":14013,"1767":14014,"1743":14015,"1747":14016,"1793":14017,"1773":14018,"1733":14019,"1667":14020,"1663":14021,"1697":14022,"1643":14023,"1647":14024,"1693":14025,"1633":14026,"1844":14027,"1867":14028,"1863":14029,"1897":14030,"1843":14031,"1847":14032,"1893":14033,"1873":14034,"1833":14035,"2367":14036,"2363":14037,"2397":14038,"2343":14039,"2393":14040,"2373":14041,"2333":14042,"2867":14043,"2897":14044,"2847":14045,"2873":14046,"2833":14047,"2663":14048,"2643":14049,"2647":14050,"2673":14051,"2633":14052,"2767":14053,"2763":14054,"2797":14055,"2743":14056,"2747":14057,"2793":14058,"2773":14059,"2944":14060,"2967":14061,"2963":14062,"2997":14063,"2943":14064,"2947":14065,"2993":14066,"2973":14067,"2933":14068,"1063":14069,"1097":14070,"1043":14071,"1047":14072,"1093":14073,"1073":14074,"1033":14075,"geant":14076,"Ġoutfielder":14077,"iev":14078,"Ġcontention":14079,"Ġscattered":14080,"Ġwhenever":14081,"Ġrecreation":14082,"Ġrepublic":14083,"ĠUnivers":14084,"prises":14085,"Ġgrid":14086,"tington":14087,"559":14088,"ĠNewton":14089,"ahan":14090,"atherine":14091,"ennium":14092,"Ġvisual":14093,"561":14094,"White":14095,"591":14096,"echnology":14097,"Ġgreatly":14098,"Ġconsiders":14099,"Ġagrees":14100,"ĠConstruction":14101,"Ġpressing":14102,"eoria":14103,"Ġtreating":14104,"rizz":14105,"Ġconsiderable":14106,"ĠWoodward":14107,"Ġurge":14108,"Ġcollision":14109,"ĠSwitzerland":14110,"Ġqualifier":14111,"ĠAugusta":14112,"Ġtrustees":14113,"ĠPete":14114,"Ġbiot":14115,"Ġcatching":14116,"ĠStanford":14117,"Ġratio":14118,"ĠTwins":14119,"ĠNASA":14120,"Ġegg":14121,"Ġhouseholds":14122,"Ġpregnancy":14123,"Ġrenovation":14124,"ĠReynolds":14125,"Ġhammer":14126,"Ġcollaboration":14127,"Ġsatisfied":14128,"Ġgreeted":14129,"ĠFormula":14130,"Ġcousin":14131,"Ġprestigious":14132,".;":14133,"534":14134,"Boston":14135,"Clear":14136,"DT":14137,"German":14138,"Kim":14139,"Non":14140,"Parents":14141,"kind":14142,"lap":14143,"rants":14144,"Ġtens":14145,"incess":14146,"onen":14147,"Ġsalt":14148,"Ġcub":14149,"Ġferry":14150,"itational":14151,"Ġbes":14152,"Ġbure":14153,"Ġporn":14154,"iler":14155,"roc":14156,"utral":14157,"ĠSue":14158,"ĠSex":14159,"ĠCBS":14160,"ĠMyers":14161,"Ġstance":14162,"Ġstaged":14163,"rik":14164,"ripp":14165,"Ġconceded":14166,"ĠWag":14167,"ĠFoster":14168,"ĠLar":14169,"Ġvit":14170,"Ġshipped":14171,"orted":14172,"2705":14173,"2077":14174,"2083":14175,"Ġjersey":14176,"acker":14177,"Ġoutfit":14178,"Ġadmin":14179,"ailable":14180,"avin":14181,"Ġ350":14182,"ĠUnit":14183,"pring":14184,"onte":14185,"Ġminim":14186,"Ġemissions":14187,"Ġtribal":14188,"Ġdonors":14189,"hentic":14190,"Ġpublicity":14191,"insula":14192,"Ġconfusion":14193,"531":14194,"ĠBlake":14195,"2006":14196,"Ġhomeland":14197,"Ġcompeted":14198,"Ġdidnt":14199,"ĠTraining":14200,"ĠQwest":14201,"closed":14202,"Ġexplaining":14203,"Ġgrounded":14204,"umbai":14205,"Ġcredited":14206,"Ġlegislature":14207,"Ġchecking":14208,"Ġarguing":14209,"ĠMichelle":14210,"ĠCrime":14211,"hyth":14212,"ĠRockets":14213,"Unfortunately":14214,"iscovery":14215,"ĠBlacks":14216,"Ġ1976":14217,"Ġdetermination":14218,"ĠPerth":14219,"Ġsilent":14220,"ĠCuban":14221,"Ġoccupation":14222,"Ġoccupied":14223,"Ġgallery":14224,"Ġscenario":14225,"ĠDaniels":14226,"ĠMedicare":14227,"Additionally":14228,"Ġinventory":14229,"Ġmotivated":14230,"Ġdecrease":14231,"Ġpupils":14232,"Ġprinciples":14233,"ĠDiamondbacks":14234,"Judge":14235,"Ġgifts":14236,"ĠSUV":14237,"Ġpronounced":14238,"Ġscrutiny":14239,"Ġsupermark":14240,"Bern":14241,"MCA":14242,"Ray":14243,"Sing":14244,"Sam":14245,"Young":14246,"Yesterday":14247,"after":14248,"rons":14249,"you":14250,"Ġ94":14251,"atile":14252,"Ġfu":14253,"Ġbaht":14254,"isive":14255,"Ġpound":14256,"Ġpione":14257,"Ġho":14258,"Ġdiving":14259,"Ġluc":14260,"Ġnav":14261,"ĠSn":14262,"otion":14263,"ĠMost":14264,"Ġstim":14265,"Ġsteep":14266,"ĠBab":14267,"ĠPoll":14268,"ĠIS":14269,"ĠIvan":14270,"ourse":14271,"ĠLow":14272,"Ġchased":14273,"ĠNets":14274,"1588":14275,"Ġexamples":14276,"1605":14277,"2488":14278,"2858":14279,"abul":14280,"ĠEaster":14281,"Ġjack":14282,"Ġorange":14283,"Ġoffseason":14284,"Ġtrapped":14285,"ĠKenny":14286,"raham":14287,"ĠOx":14288,"Ġreck":14289,"hedral":14290,"erville":14291,"graph":14292,"Ġundergoing":14293,"Ġimpose":14294,"Ġhelpful":14295,"Ġnowhere":14296,"Ġsurplus":14297,"Ġflour":14298,"Ġvoter":14299,"lette":14300,"ĠReport":14301,"ĠSpencer":14302,"Ġcheese":14303,"ĠEnron":14304,"Ġaviation":14305,"lint":14306,"Ġinfant":14307,"Ġfarms":14308,"Allen":14309,"Ġpolicemen":14310,"Ġgrounder":14311,"quez":14312,"Ġsooner":14313,"ĠDayton":14314,"Ġresponsibilities":14315,"Ġsections":14316,"Ġvideot":14317,"Ġholy":14318,"Ġspeeds":14319,"Ġdeterior":14320,"Ġrocks":14321,"legiate":14322,"United":14323,"ĠGreene":14324,"Ġpoison":14325,"Ġpilgr":14326,"Ġconfidential":14327,"Ġtextile":14328,"Ġtextbook":14329,"Ġwooden":14330,"ĠDesign":14331,"ĠIndustries":14332,"ĠWorks":14333,"ĠSpringfield":14334,"Ġaccuser":14335,"Ġaccusations":14336,"Ġcrops":14337,"ĠBurns":14338,"Ġannouncing":14339,"ĠIndependent":14340,"ĠBrothers":14341,"Ġbomber":14342,"Ġnortheast":14343,"Ġsuspicion":14344,"ĠCoalition":14345,"Doug":14346,"French":14347,"Florida":14348,"Green":14349,"Home":14350,"Qaida":14351,"SL":14352,"World":14353,"inely":14354,"Ġsoutheast":14355,"edar":14356,"Ġoxy":14357,"Ġfights":14358,"itated":14359,"Ġbounced":14360,"roeder":14361,"Ġgentle":14362,"uting":14363,"ĠClear":14364,"ighed":14365,"Ġasylum":14366,"ĠTories":14367,"ĠHope":14368,"ĠHoff":14369,"ĠFernando":14370,"ĠGet":14371,"Ġchat":14372,"2558":14373,"2505":14374,"1458":14375,"1358":14376,"1758":14377,"1658":14378,"1858":14379,"2358":14380,"2658":14381,"2605":14382,"2758":14383,"2958":14384,"2905":14385,"1058":14386,"arest":14387,"arett":14388,"Ġcompiled":14389,"Ġcomponents":14390,"Ġoutbreak":14391,"Ġfinishes":14392,"Ġenrolled":14393,"Ġsomehow":14394,"Ġdece":14395,"ollah":14396,"Ġbacks":14397,"Ġretained":14398,"aux":14399,"ĠJohnny":14400,"Ġ86":14401,"Ġrestored":14402,"Chicago":14403,"ĠQaeda":14404,"ĠGrace":14405,"ĠHarvard":14406,"Ġsuggestion":14407,"Ġpainted":14408,"Ġapplicants":14409,"ĠHolmes":14410,"Ġbombings":14411,"ĠHamas":14412,"Ġprevention":14413,"Ġlifting":14414,"ĠConsumer":14415,"ĠCanadians":14416,"Ġdemonstrate":14417,"Ġdemonstrated":14418,"ĠNorman":14419,"Ġpilots":14420,"ĠElliott":14421,"Ġtiming":14422,"Ġchemicals":14423,"Ġdisappointment":14424,"Recently":14425,"Ġcruise":14426,"ĠEnterprise":14427,"Ġpaintings":14428,"ĠFilip":14429,"Associ":14430,"ĠKurdish":14431,"Ġpersuade":14432,"Ġlandscape":14433,"ĠRiverside":14434,"Ġenemy":14435,"Ġancient":14436,"Ġadequate":14437,"Ġrefugees":14438,"Ġemploys":14439,"International":14440,"ĠRouge":14441,"Critics":14442,"ĠWizards":14443,"Sunday":14444,"09":14445,"Ev":14446,"IF":14447,"cat":14448,"five":14449,"kar":14450,"mind":14451,"Ġtee":14452,"Ġtemp":14453,"Ġtender":14454,"help":14455,"inf":14456,"inh":14457,"Ġcab":14458,"Ġcater":14459,"Ġfold":14460,"aria":14461,"oux":14462,"asant":14463,"Ġmere":14464,"Ġdiamond":14465,"ste":14466,"ĠCad":14467,"ĠCoug":14468,"ĠCzech":14469,"ĠCrawford":14470,"amework":14471,"Ġstabil":14472,"illon":14473,"usions":14474,"ĠBird":14475,"ĠBeng":14476,"ĠPle":14477,"Ġrated":14478,"Ġrivers":14479,"ĠDian":14480,"ĠRumsfeld":14481,"ĠTall":14482,"oped":14483,"ateful":14484,"ĠNi":14485,
[...]
